#version: 0.2 - Trained by `huggingface/tokenizers`
à ¤
à ½
Ð °
Ġ Ð
a n
Ġ à
à ¥
Ġ d
á ĥ
à ¼
e n
Ð ½
Ġ Ø
i n
Ġ à¤
e r
à¼ ĭ
Ñ Ģ
à ¦
Ġ s
à ²
á Ģ
Ð ¾
a r
Ð ¸
Ð µ
Ñ Ĥ
Ø §
Ġ a
Ð »
á ŀ
Ġ t
o n
Ñ ģ
Ġ p
Ġ m
Ġ n
Ġ k
a l
Ġ Ù
à ¸
Ġ l
e s
i s
Ñ ĭ
Ñ ĥ
à¤ ¾
a t
Ù Ĩ
Ø ±
à º
Ġ b
Û Į
a s
Ð° Ð
à ´
c h
o r
e l
Ù Ī
à¥ į
u n
i t
Ù Ħ
à ª
à ³
Ð ´
e t
à ¬
Ð º
Ġ 1
à §
Ġ c
i l
à ¨
à ®
à °
â Ģ
Ġ o
Ġ (
a m
Ġ h
Ġ v
à ¾
Ġd e
Ġ g
Ġ e
Ġ f
Ð ¼
à¤ °
à½ ¦
u r
a d
Ñ į
Ġ Ã
à ·
Ù Ĭ
Ġ S
Ù ĩ
i r
o l
Ð ³
Ø ª
Ġ á
Ġ r
o m
Ġà ¦
o s
Ġ w
Ġ Ñ
à ¶
Ġ A
Ð ²
u s
a k
Ø ¯
Ġ ×
Ù ħ
à¤ ¿
á ı
Ġ i
Ñ Į
à µ
ĠØ §
Ã ©
à¥ ĩ
Ð° Ð½
Ġ M
Ù ī
e m
i k
Ġà ²
Ġ in
Ġ Ú
á Ł
e d
a g
Ġ y
à¤ ¨
t i
à½ Ĥ
Ð° ÑĢ
à½ ²
Ġ j
à¤ ¤
u l
à½ ĳ
i d
Û ķ
u m
Ø ³
à ¯
Ġ B
t e
Ġ P
Ġ 2
i m
à³ į
ĠÐ º
t a
Ã ¡
Ñ ı
Ġd i
à¤ ¯
à½ ĸ
à½ ¼
an g
Ġ D
Ñ ħ
à¤ ķ
à¦ ¾
Ġ T
Ã ¤
Ä ±
Ġ C
i a
r o
i c
Ġà ¨
á İ
Ġ L
r a
Ð ·
Ġ K
Ñ Ī
à «
Ð° Ð»
Ġ1 9
áĥ Ĳ
Ġ Ñģ
r e
Ð ¹
à¤ ²
an d
à½ ¢
ĠÐ ±
à¥ Ģ
a y
ĠØ ¨
à ©
à½ Ħ
Ġ I
à Ń
Ġ áĥ
e k
× Ļ
Ġà ª
Ã ³
Ñ ĸ
à½ ´
a b
0 0
Ġ N
a h
i g
à ±
Ã Ń
ĠØ ¯
Ġ z
à½ ĵ
ĠÙ ħ
u t
n g
áĥ ĺ
Ġl a
ĠÐ ¿
en t
e g
Ø§ ÙĨ
Ġ E
Ġ ÑĤ
in g
ã ģ
Ġn a
ĠÙ Ī
à½ ĺ
áĥĲ áĥ
à¤ Ĥ
Ġ G
ï ¼
Ð ±
Ðµ Ð½
h e
Ø ¨
o d
à ¹
à¤ ®
Ġ R
Ñ ĩ
Ġ âĢ
Ġ H
á Ī
à¤ ¸
Ð ¿
à½ º
Ġ en
àµ į
o t
áĢ º
Ñģ ÑĤ
à¥ ĭ
à¾ ±
Ġ un
ã Ģ
Ġ an
à½ ł
r i
à¤ µ
Ð° ÑĤ
à½² à¼ĭ
s t
Ġ u
Ġà ¬
Ðµ ÑĢ
a p
à¯ į
Ã ¨
à½ £
× ķ
Ñ Ĭ
Ġá İ
à¥ ģ
ĠÐ ´
l e
ĠÚ ©
Ã «
q u
i e
Ġà¤ ķ
Ã ¶
Ġ F
à² ¿
ĠÐ ½
Ò ¯
Ð¾ Ð½
Õ ¡
à§ į
i on
Ð¸ Ð½
o k
à »
×Ļ ×
Ã ¼
Ú ©
Ø ´
Ã ª
Ø§ Ø±
ĠÐ ²
Ñĭ Ð½
l a
u d
ï¼ Į
Ñ Ĩ
Ġà ¶
ĠÐ ¼
à½ Ķ
Ġ Þ
Ġà¤ ¸
Ð¾ ÑĢ
Ġ Î
à¦ ¿
is t
Þ ¦
à² °
áĥ Ķ
o v
Ð°Ð ¹
Ġà °
l i
d e
à¦ °
à³ ģ
Ġà ´
Ġs e
Ġ ch
ĠÐ ¸
Ġd a
es t
àª ¾
o g
Ð¾ Ð»
ĠØ ³
Ù Ĥ
Ð ¶
áŁ Ĵ
o p
c i
Ä ģ
Ġa l
ä ¸
u k
Ġ V
áĥĺ áĥ
ĠÐ ¾
Õ¡ Õ
áŀ ¶
Ġ J
ĠØ ª
n a
à§ ĩ
à¼ į
w a
Ã ł
×ķ ×
Ø§ Ø
Ġ W
à² ¾
Ġà ®
i v
Ã ¦
an t
Ã ¢
Ġ O
Ġn g
Ġs a
h a
áĥĶ áĥ
Ġà¤ ª
á »
d a
Ġ áĢ
ĠØ§ ÙĦ
Ġ Õ
Ð¾ Ð²
Å ¡
Ø Į
i y
Ġ '
Ġl e
Ó ©
à¤ ª
j e
Ð° Ñģ
à¦ ¨
er s
n e
Ð°Ð ´
Ġ is
à¤ ¦
à¥ ¤
Ġp r
Ġ ar
ĠÐ ³
à¤ ¹
u p
à¤ Ĺ
i b
Ġs t
á ī
Ġ Ñĥ
u b
) .
s k
ĠÙ Ĩ
ĠÑ ħ
u g
o b
) ,
Ð°Ð ¼
i z
à³ Ĩ
Ï Ħ
i p
Ġ "
Å Ł
ã Ĥ
à² ¦
an a
âĢ Ļ
Ġà¤ ®
Ø§ ÙĦ
à· Ĭ
Ġ U
Ġ -
Þ °
Î ±
ĠÙ ¾
s e
É Ļ
Þ ¬
à² ¨
Î ¿
á Ĭ
ĠØ ¬
× ¨
Ġ Û
á ĭ
Ġ qu
à¬ ¾
ar i
Ø ²
à¨ ¾
à´ ¿
ar a
t er
âĢ ĭ
Ø ¹
à§ °
à² ¤
áŀ ĵ
j a
× ¢
Ġà ¥
Ã ²
a z
ãĢ Ĥ
Ð°Ð ²
à² ²
Ġ 3
Ġ Ä
áĥ Ŀ
en g
áŀ ļ
a v
ĠØ ¦
Ñĥ ÑĢ
e b
Ġ el
ã ĥ
Ġ ì
a c
Ðµ Ð»
Ó Ļ
à± į
à¦ ¤
áĢ ¸
Ġ es
àŃ į
Ú ¯
Ã ´
on g
Û Ĵ
áĢ ¬
Å Ĥ
Ġà¤ ħ
Ġ2 00
ĠÐ ·
à¾ ²
k a
à¸ ²
à¬ °
Ñģ Ðº
Ñĭ Ð»
r an
Þ ª
Ù ģ
à· Ĵ
Þ ¨
Ð¸ Ð»
Û ĩ
Ã ®
Ġ ÑĢ
o w
ĠÙ Ħ
Î ¹
ÙĪ ÙĨ
Ø ¦
Ð¾ Ð´
Ð°Ð ³
ÙĪ Ø±
Ð°Ð º
Ġt a
n i
Ġm a
s a
e v
Ø ¬
Ã §
Ö Ģ
e c
Ð¸ Ðº
Û Ĳ
Å ¾
Ð¾ Ð¼
× Ĳ
Ðµ ÑĤ
Ġs u
y n
à½Ĥ à½¦
h i
e z
Ù ĥ
Ġ1 8
0 1
à¬ ¿
en d
àº ²
Ð¸ ÑĤ
m a
t o
àº Ļ
à« ĩ
ĠÐ ļ
e p
Ġt he
Ġà¤ µ
Ġa s
à¸² à¸
à² Ĥ
à¦ ¯
o u
y a
in a
Ã °
âĢ Į
Ġp ro
Ġt e
Õ ¸
ĠâĢ Ķ
Ġ Â
Ð¸ Ñı
un g
Î ½
Ġà¤ ¹
áĥĿ áĥ
Ġc on
Ġk a
Ù ¾
n d
à¯ ģ
Ġ et
áĢ ¯
Ã ¬
i o
à¦ ²
Ġà¤ ľ
à° ¿
ad a
ÛĮ ÙĨ
à¤ ļ
Ġy a
à® ¿
Ê »
i j
à´ ¨
Ñį ÑĢ
Ñĥ Ð»
à¤ £
à½´ à¼ĭ
Ä į
Ġj e
à¤ Ł
à¥ Ĥ
Ġ er
Ð´ Ð°
àµ ģ
à° ¾
Ä «
Ð°Ð ·
à¸ Ļ
Ã º
à½¼ à¼ĭ
Ġp ar
ĠØ ´
ĠÐ Ĳ
Ø³ Øª
ĠÐ ¡
Ġo f
å ħ
à¤ ľ
Ñ İ
al a
Ñ Ħ
à¦ ķ
Þ Ĥ
ĠÙ ĩ
Ġt o
in e
Ã ½
i ch
Ðµ Ð¼
áŀ Ģ
Ġh a
Ġk e
Î µ
à² ķ
Ð¸ Ð¹
à® ķ
ä º
k e
à¤ ·
Ġn o
l ar
ĠØ ±
Ġ 4
à¶ ±
Þ ĩ
àª °
Ø ®
à½º à¼ĭ
s i
Ġà¤ °
Ġà¤ ¨
Ġa m
áĢ Ħ
Ġw a
à´ ¾
d i
ĠÑ Ī
à² Ĺ
Ñĥ Ð½
æ ľ
áĢ ±
an n
Ð¸ ÑĢ
Ġd el
à´ ¤
Õ «
t r
Ð¾ ÑĤ
ĠÑ ĩ
b a
Ø§ Øª
à« į
Ð¾ Ð³
1 9
áŀ Ķ
Ä ĥ
áĢ Ń
Ä Ĺ
Ġ× Ĳ
à´ ķ
à¸ £
t u
o c
Ġp er
Ġ on
at a
Õ ¶
ĠÐ ľ
al i
Ðµ Ð´
à¤ ¶
ĠÐ¿ ÑĢ
Ð½ Ñĭ
Ġk o
à² ¯
Ġà¤ Ĩ
er e
Ġà ·
ÙĦ Ùī
ĠÙ Ĥ
Ï ģ
Ø§ Ùħ
× ľ
Ġà¤ ¬
à² µ
áı į
à¶ º
à½ ¡
Ġb a
Ġn e
g a
ì Ŀ
Ġ2 01
ĠÙ ģ
in i
à¨ °
ĠÂ «
w e
en s
à© Ģ
Â »
Ġc om
c e
Ðµ Ðº
à° °
£ áĥ
ĠÐ½ Ð°
v a
áŀ Ł
r u
Ġ 5
à· ı
Õ ¥
Ġa t
Ä± n
Ø ©
ik a
ĠÐ »
Ġd o
Ġk u
Ġà¤ ¤
áĢ Ģ
h o
Ó §
à® ¤
Ġà¥ ¤
Ġá ı
áŀ ĺ
or t
m e
à½ Ģ
Ġl i
à² ¡
Ø Ń
á º
Ġà¤ Ń
Ġm e
Ã ±
à¤ ¡
à° Ĥ
il l
àª ¨
Ġ q
Ø º
Ġà¤ ¦
à¤ ¥
ÙĪ ÙĦ
as t
un d
áı Ĺ
Ġ ë
Ð° Ñħ
u a
à¨ ¿
i en
ĠI n
Ñĭ ÑĢ
Ġ× Ķ
ĠØ ¢
Ò »
áŀ Ħ
à± ģ
à¦ ¼
Ġ Y
in d
à¾ Ĵ
à¤ §
al l
ĠÚ ¯
Ġ 6
ÛĮ Ø§
à½ ŀ
Ñį Ð½
× ĺ
Ï ĥ
el l
ĠØ ¹
i h
Û ģ
am a
à¶ »
à¥ Ī
Ġà¤ Ĺ
à´ ¯
ĠØ ®
ar t
n y
Ä ĵ
Ġ il
à§ ģ
Ú ¾
à© ĩ
Ð° ÑĪ
or d
ch e
al e
å ¤
Ġs p
Ð°Ð ±
à¤ ¬
Ġs i
Ġa d
à¹ Ī
ãĢ ģ
Ð¾ Ñģ
Ú º
Ġ it
àº² àº
an i
at e
àŃ ĩ
à« Ģ
k i
o h
Ġv an
r es
Ġr e
Ġh e
Ö Ĥ
o j
à½ ģ
à¸ Ń
Ġ Z
áŀ ı
Ú Ĩ
ar d
ĠÐ Ł
ĠâĢ ĵ
Ġo g
à½ Ĩ
ĠÐ ¶
Ò £
Ġs o
ĠC h
Ġá Ĭ
i er
Ġ x
Ġ and
Ġ Ñį
Ï Ĥ
Ġt h
a ch
Ã ¹
Ġf or
Ġá ĭ
ĠA l
Ã µ
ĠÐ ĳ
Ó Ģ
à½ĸ à½¦
å ı
Ðµ Ñģ
ÙĨ Ø¯
em b
Ð¸ Ñģ
à» Ī
in t
Ã ¥
Ø§ Ø¯
Ġáİ ł
er a
Ġ19 9
an s
áĢŃ áĢ¯
Ġdi e
Ð¸ Ð¼
Î ·
Ø§ ÛĮ
å ¹
à¦ ®
c a
á Į
ä »
ĠA n
y s
r it
áĥ £áĥ
Ġt i
ä ¹
Å «
at ion
× Ķ
er i
Ï Ģ
á ģ
áĢ Ĳ
Ġqu e
Õ¸ ÖĤ
à´ °
Ġt r
Ġà¤ ²
à° ²
ĠÚ Ĩ
Ģ à¸
Ê ¼
å ľ
Ġm u
× ł
Ġà¦ ¬
o o
Ġn i
l u
à¤¾ à¤Ĥ
Ñ ĺ
an e
Ġd es
à® Ł
áĢ Ļ
ar e
Ã »
Ï ħ
áĢ ¼
ĠÑ ı
ic a
Ñĭ Ð¼
ĠÐ ¢
Ġ est
à® °
àª Ĥ
ĠÃ ©
ĠÙ Ĭ
Ġo p
v e
à° ¨
z i
à¦ ¬
à· Ķ
Ã³ n
Ġ or
áĢ ŀ
on d
à¸ ĩ
à² ¸
Ġ Ð°
Ġi m
Ð½ Ð°
Ġá Ī
f f
Ðµ Ð¹
n o
à¸ ±
Ġa b
Ġa k
à¾ Ł
à· Ģ
Ð¾ Ð¹
l o
àº °
áĢ Ķ
os t
l an
àº ±
Þ ĥ
Þ §
áŀ Ľ
z a
ł áĥ
Ġa g
à¤ ĥ
ak a
à¶ Ń
Ġ 7
Ä Ľ
à¸ ģ
Ġ ÏĦ
à½ĳ à½Ħ
àª ®
á į
en te
ĠÐ Ĵ
à¾Ĵ à¾±
àº ĩ
à³ Ĭ
à® ¾
y r
à¤ Ń
å Ĳ
s ch
Ġ Å
Ð¾ Ðº
Ġà¤ ¯
Ñ ĳ
on t
àº Ķ
Ġng a
à¾± à½²à¼ĭ
áĢ ·
Ø µ
ĠÑ Ħ
áĬ ķ
æ ĸ
á ¹
Ġe d
Ġb e
Þ Ī
Ġ 8
àª ¤
an y
ÙĨ Ùī
Ġá ī
à² ª
áŀ ĳ
Ġg r
à½ ļ
p e
Ñĥ Ð´
er t
à¶ ¸
Ó ¹
å ®
Ä ķ
a j
à¦ ¸
Ã £
ĠS t
Ø £
à» ī
× ŀ
Ġà¦ ª
Ġ Ò
à¥ĩ à¤Ĥ
ĠÐ ł
Ġà º
à¹ Ģà¸
Ġà ¼
à¸ µ
Õ¡Õ ¶
u h
Ġa v
Ġa p
áŀ Ļ
Ġk i
ÛĮ Ø±
à¹ ī
as a
ag a
Û Ĩ
Ġà¤ ¥
à´ Ł
à½ Ĳ
ĠL a
àª µ
à½ ħ
s h
× Ł
Ġ .
à¶ ļ
Ġà¤ ī
áĥĺáĥ ¡
áĢ ķ
is i
Ð¸ Ð·
Ðµ Ð²
ĠÙ ĥ
ĠD e
at i
k u
Ġj a
Ġ1 7
ĠÃ ¤
Ġà ¸
am b
Å į
ĠÐ µ
Ġd u
Ġp o
àº Ń
àº ģ
Ġà¦ ķ
es s
id a
à½ ķ
Ñĭ Ðº
Î »
Ñģ ÑĮ
y o
Ðµ Ð·
ÙĪ Ùħ
j i
Ġo m
il e
à® ª
Ġd er
Ð½ Ð¸
Ġd en
il i
Ûķ Ø±
in s
Þ İ
à® ®
à¤ ĸ
à® ²
Î º
Ġm o
× ĳ
Ġl o
m an
y e
Ã ¸
à² Ł
ÙĬ ÙĨ
à¦ Ł
à§ ĭ
áŀ ĸ
Ġà² ª
am p
áŁ ĭ
ur a
or e
Ø ·
å į
k o
Ġm ar
Ġw e
Ì ģ
Ġ1 5
z e
à¬ ķ
Ġà¦ ¸
Ġ× ĳ
ĠØ Ń
å¹ ´
Ġ 9
å Ī
Ġg o
à¦ ¹
Ø§ Ø³
Ð» Ð°
Ġk m
áŀ ·
ÛĮ ÙĦ
Ò ĵ
is h
Ñ ŀ
ĠA r
er n
el e
Ġt er
t s
à¸ ¡
à½Ķ à½ł
ĠÞ ĩ
em p
t h
Ġà¤ ı
Ð°Ð ¿
áĢº áĢ¸
in n
à® ©
l and
Ø§ Ø¨
Ä ħ
Ġà² ®
en e
Î ¯
áĢ Ĭ
à¨ ¤
ĠØ§ ÙĪ
as s
å ¾
g e
ad i
à¬ ¨
Ġm et
Ġc u
it a
Ġm an
ch i
áĥĲáĥ ľ
on s
à« ĭ
Ñĭ ÑĪ
el a
áĢ± áĢ¬
Ġ um
áĢ ħ
ÑĤ Ð°
ĠÃ ł
Ġà¼ į
Ġn y
ĠÃ ¡
Ð½ Ð¾
ä ½
Ñĥ Ð³
à¨ Ĥ
Ģ àº
àª ¯
Ġà² ķ
Ġà §
en n
Ġp a
m i
áĢ Ľ
áĢ ¾
× ©
Ġk om
Ġb i
àµ Ĩ
ĠÐ Ķ
ĠØ ²
Ġáİ ¤
j u
å °
Ġf r
Ð² Ð°
as i
à¬ ¤
Ġ Ê»
ir a
iy a
ĠÐ ĵ
à¾ Ĳ
× ª
Ñį Ð¼
y d
Þ Ĩ
à² ³
Ġáĥ Ľ
er d
Ðº Ð°
ĠÃ §
à¨ ¨
å Ń
Û İ
it i
00 0
ĠÐ Ŀ
us t
u c
b e
à½ ı
áŀ Ĭ
àºĻ àº
Ġ1 0
Ġ19 8
Õ¸ÖĤ Õ
à´ Ĥ
Ġà¦ ®
ĠÐ ĺ
ĠØ¯ Ø±
Ġà¤ ¶
l y
Ġ1 6
à¸ ´
Ä ĩ
ĠÐ ŀ
à² ®
àª ķ
àŃ ģ
à¨ ¸
áŀ ħ
v er
í ķ
Ġk an
Ñ ī
m er
Ù İ
Ġc i
âĢ Ŀ
Ñĥ Ñģ
Ñĥ ÑĤ
on a
an o
ir i
ÑĢ Ð°
e w
Ġv a
Ø§Ø ¦
ç Ķ
Ã© n
Ġs h
ĠM ar
Ġd al
Ø¯ Ø§
Ġv e
Ġà¨ ¦
ç ļ
or i
en a
Ġ X
à§ Ģ
Ġ ê
áŀ »
p i
ĠÛ ģ
Ġà² ¬
u i
Ġà² ¸
Ġd an
ĠU n
Þ ī
Ġ1 2
ĠÐ £
ol o
à½ĵ à½¦
Ġp or
× ĵ
l er
Ġ ÛĮ
Ì ¤
Ġ19 7
e a
áĢ ½
Ã© s
áĢ »
Ġo b
à½Ħ à½¦
à¸ ¢
ad o
ul a
u v
à° ķ
Ð°Ð½ Ð´
Ï Į
à¨ ²
ĠÐ ¹
Ġa y
à® ±
à¦ ¦
Ġ× ŀ
Å Ī
áŀ ĩ
áŁ Ĩ
Ã¡ n
Ġy n
ĠÃ ¨
ir e
un a
à½ĺ à½¦
Ñĭ ÑĤ
á¹ ³
áİ ¾
Ã¶ r
is ch
h u
Î ¼
Ġ19 6
à© ±
1 8
à® ³
it e
Õ¥ Õ
Ð¸ Ñĩ
àª ¿
à¸ ¥
a f
Ó ĵ
ÖĢ Õ
Û Ī
Þ ©
Ã¤ r
à« ģ
Ð³ Ð°
à´ ²
l d
àº µ
Ø± ÙĬ
r at
à¤ Ľ
Ñĥ Ðº
Ø± ÛĮ
à¾ ³
t en
à¦ Ĺ
Ġ19 4
à³ ĩ
Ġ Ò¯
× ¡
æ ĺ
à¸ §
âĢ į
à¸ °
Ġa c
ol a
Î¿ Ïħ
Ð¸ Ð´
áŁ ģ
l as
à¦ ª
ĠL e
o z
Ġ Q
Ã¤ n
áĥĶáĥ ĳ
Ú Ń
Ġà· Ģ
Ġe k
ãģ ®
i f
Ġun d
à» Ģàº
àª ²
Ġe m
l ik
Ġà¤ ļ
Ġv er
à¸ Ķ
à¯ Ī
g an
à® ¯
áİ ©
ĠÐ± Ð¾Ð»
ÙĪ Ø¯
Ð¸ ÑģÑĤ
ï »
p a
à½ ¤
it u
áī µ
m o
Ñĥ Ð¼
Å ¯
á» į
Ġt u
on e
im a
à´ ®
Ðµ Ð³
Ñį Ð»
Ġà¦ ı
at u
Ġo d
Ø± Ø¯
c o
ag h
æ Ī
or a
à½ Ł
à½ł à½ĳ
g i
Ġm en
Ġ1 4
u e
Ø§Ø ²
à¨ ķ
Ġ us
à° ¯
b o
Ġun a
Î ¬
p r
Ġa f
at o
à´ ª
à¦ ĩ
ÑĤ Ñĭ
Ġm ed
å Ľ
Ð¸ Ð²
Ġà¨ ¸
Ġ Ð°ÑĢ
à½ĸ à½¢
a w
Ġ ang
çļ Ħ
áĢ ľ
ä¸ Ģ
Ġb o
ul t
âĢ ľ
ĠE l
ĠÑ Ĩ
Ä Ł
Ġà¦ ¹
áĢ¬ áĢ¸
¯ áİ
à· ļ
Ġs er
Ġp ol
Ð½ Ð´
Ġv o
Ġp e
áı ĵ
Ġà² ħ
à¸ Ĺ
ÙĨ Ùĩ
Ġc a
à¤ ĩ
à½ ī
à¤° à¤¤
Ñĥ Ð±
ĠÑ ĸ
×¢ ×¨
é ģ
Ð¾ Ð±
à¶ ½
Ġm as
Ġ1 3
Ġk on
Ð°ÑĤ Ð°
ad e
Þ Į
Ġi z
is s
Ġáĥ ĵ
un t
à½ĳ à½Ĥ
à© °
v i
Ñĭ Ð³
× ¤
Ġs k
à´ ±
f r
Ġo k
Ġg e
àº »
Ñį Ð³
× Ĵ
ì Ĺ
y m
Ġ× ĵ
áŀ ¾
ĠÃ ¶
Ġo l
à± ĭ
ĠÐº ÑĬ
áŀ ľ
Ì į
Ð¾ Ð¿
ĠE n
Ð½ Ðµ
à´ µ
ĠT he
à· Ļ
Ð¾ Ð·
ur e
y l
i i
Ð° ÑģÑĤ
à· ĥ
b er
Ò Ľ
Ġ× ©
×Ļ ×Ļ×
à¤ ģ
Ġb en
áİ µ
a a
Ġm at
Ø§ ÙĬ
Ġb u
Ġt il
áĥ ł
Ø± Ùī
Ġà¦ Ĩ
Ġà¤ Ľ
ÑĨ Ð¸
Ä §
ĠF ran
Ø´ Øª
× §
Ġ Ð°Ð»
à° ¤
ä¹ ĭ
æ Ĺ
àº §
et t
è Ģ
à¾± à½²
Ġà¤ ĩ
Ûķ ÙĨ
Ġà· ĥ
Ġb ir
Ġch e
s o
áĢ ģ
Ġ19 5
ĠÑģ ÑĤ
u z
t or
p l
ch t
à° ¦
à® µ
áŀ Ĥ
or m
r y
áĥ ķ
i an
ĠÙ¾ Ùĩ
Ð¸ Ð³
à¬ ¬
j o
ang a
ĠÃ ¾
Ġ1 1
Ġ Ó©
à¥ ¦
ĠÑ İ
er o
àº ¡
Ġp l
Å ¼
ï º
Ñį Ñħ
Ä± r
Û Ķ
ĠÐ ¥
Å Ħ
en ti
à© ĭ
Ġ× ķ
ĠÃ Ń
ĠØ§ ÛĮ
Ġà¨ ¹
à¶ ¯
Ġf il
Ġf am
u f
áŀ ¸
c ia
ä¸ ª
å ¸
ĠÙħ ÛĮ
à¦ ·
in o
on i
Ġf i
Ñĥ Ð·
Ġà¨ µ
Ð°ÑĢ Ñĭ
ĠÐ Ľ
Ġ× ľ
as h
ĠØ¨ Ùĩ
Ð°Ð ¶
à¸ ķ
is k
àº ¥
ĠÙħ ÙĨ
ĠM a
Ġáİ ¯áİ
ĠÐ´ Ð°
ĠA ng
t t
Ġk ar
à° ®
Ã¼ r
ol og
Ġ× ¤
it h
Ġv i
. .
Ġn u
Ġf u
áĪ Ń
p er
Ġv ar
áĥ ¡
Ġd r
à¨ ¦
Ġz a
k an
et e
Ġe x
sk e
äº º
ak i
is a
à¬ ®
Ġ2 0
å ·
ĠÚ ª
Ġ ur
áĭ į
Ġà¦ ħ
Ġàª ª
e h
à¸ ª
à¸ ļ
is ta
Ġin d
ĠØ§ ÙĨ
Ð°Ð½ Ð°
áİ ¢
en i
Ġg a
áı Ľ
ay a
Ø± ÙĪ
Ġáİ ¾
áŁ ĩ
Â ²
Ġl u
å¤ §
à¶ §
Ġb y
il a
is e
Â Ń
ë ĭ
Ò¯ Ò¯
ĠâĢ ľ
Ùī ÙĦ
Ġm i
I I
à¤ Ī
Ûķ Øª
Ġd at
ol l
à¾ ¡
Ġa h
æ Ń
Ġ19 3
b i
à¥ ĥ
ÙĦ ÛĮ
Ø§ ÙĪ
Ġ |
p o
es i
Ø ¤
Ġáİ¯áİ ł
Ò ³
Ø§ ÙĤ
ĠÚ ¾
àª¾ àªĤ
Ġr eg
Ð¸ Ñħ
Ġà »
Ð°Ð½ Ñĭ
Ġs c
áŁ Ĥ
Ðµ ÑģÑĤ
âĢ ĵ
n u
ti c
à¤ ı
Ġà¶ ´
o f
à¦ ľ
ĠS ch
à´ £
Ġp i
ĠØ¬ ÙĬ
Ġà¨ ķ
w an
Ġáī ł
q a
Ð½ Ñĸ
Ġ ,
id e
Ġr a
ĠâĢ ŀ
ĠØ £
± Û
é Ģ
om a
and a
ÐµÐ½ ÑĤ
Ġà¶ ļ
Ġl es
ĠÄ ĳ
Ġà ¹
ä¸ Ń
qu e
v en
Ġ áĥĲáĥ
Ġáĭ ¨
al d
à´ ³
Ù Ĳ
Ġf a
Ġp re
ĠØ§ Ø³
et a
Ø§ Ùĩ
Ã¨ n
Ġ ir
Ø§ÙĨ ÛĮ
Ġm il
Ñĭ Ð²
áİ ´
ur i
b u
Ú ª
Ø¯ Ùī
à¨ ¹
Ø§Ø± ÛĮ
s p
Ġl os
à· Ħ
g r
àŃ Ł
y on
Ã¢ n
m in
Ñģ Ð°
Ð ¡
Ġ Å¡
Ãª n
áŁ Ħ
Þ į
Ð¾ ÑģÑĤ
áı Ĥ
æ ķ
ĠP ar
Ġj o
Ġg u
ig h
ÐµÐ½ ÑĮ
Ġb er
ar o
ic i
ÙĦ Ùĩ
ab a
an te
w o
Ġáĥ ¡
Õ¡Õ ¯
Ġd is
Ġs om
k s
ĠØ§ÙĦ Ùħ
à° ¡
áı ħ
Ø ¶
Ġc o
áĪ Ŀ
Ó© ÑĢ
áĢŀ áĢĬ
ĠÐ ¨
áĢ ®
Ġ19 2
ãģ «
è ĩ
l es
à¦ ¶
áŀ ¼
Ġp os
Ðµ ÑĪ
ĠÚ© Ùĩ
el d
v o
à³ Ĥ
à¨ ¼
àº ´
it t
ĠP r
×ķ× ª
ak e
Ã© r
Ġb ar
Ġà¤ı à¤ķ
ol e
àº ª
è ¡
g o
ti on
à·Ĭ âĢį
×ķ× Ł
u w
§ à¥
ļ áĥĺ
Ð´ Ñĭ
ĠáĢ ¡
ĠS a
em a
à¬ ²
Ġà¬ ķ
el s
Ø¯ Ùĩ
ÙĦ ÙĬ
Î Ń
am ent
× Ĺ
à¾ £
áŀ ¢
Ġà¤ ĸ
Õ¸ Õ
Þ Ĳ
à¦ Ĥ
at t
Ð½ Ñı
2 00
Þ ĭ
Ð¾Ð³ Ð¾
áıį áıĹ
ed e
ed er
Ġà¬ ¸
f a
em ent
Ñĥ ÑĪ
Ġt Ã«
g u
h an
à² £
' s
Ø± Ùĩ
Ġ Ïĥ
ĠÎ ±
am e
Ġm in
ĠA m
Å Ľ
Ð°ÑĢ Ð°
Ġà¤ª à¤°
àº ļ
Ġ 0
en de
à´ ¸
áĢº áģ
Øª Ùī
æ Ŀ
Ð¸ ÑĪ
Ï ī
à¬ ¹
Ġm ga
å Ĭ
es e
Ġg en
áİ ¦
ak o
Ġà¬ ª
áİ ¯
ĠÞ ī
Ġàª ķ
å ĺ
Ġt al
ìĿ ĺ
Ã¼ n
Ðµ Ð¿
à¾± à½º
Ã« r
Ðµ Ñħ
Ġ2 5
ĠÎ º
Ġg i
à· Ĳ
w i
ĠÃ ¼
Ġ :
áı Ļ
s te
Ġà° ª
à· ĵ
Ñĥ ÑĮ
Ø§ Ø´
Ñĭ Ñģ
Ġà¤¸ à¤®
it y
æľ ī
à¨ Ĩ
Ġ×Ĳ ×Ļ×
Ġin g
Ġb il
Ġ í
ĠÙĦ Ûķ
s s
el i
Ġ ÏĢ
Ġ ut
à° Ł
áİ ¬
Î ³
Ġy e
à´ ļ
ic e
Ġv un
ed i
à¸ «
ä» ¥
an u
al o
ig a
Û °
Ġs on
am m
áĥ Ľ
us s
Ġàª Ĩ
ak an
r as
c u
ä ¿
ï¼ ī
é ĩ
" ,
Ġf o
Ġà² ¨
Ġan n
Þ Ģ
à¦ Ľ
à² ľ
r on
Ġc un
áĪ į
à¦¼ à¦¾
Ø§ Ú
Ġl as
at an
ÐµÐ» ÑĮ
ÙĪ ÛĮ
Ø³ Ùī
é ĥ
Ġs in
Ø³ ÛĮ
r en
or n
ï¼ Ī
æ Ķ
áĢ ¡
ik o
u o
à¾± à½¼
Å Ļ
ĠÃ ½
um a
Ġh et
à¨ ®
Ø «
ur g
áĪ µ
áĥ ļ
Î± Î¹
ci Ã³n
1 0
1 7
Ð°Ð» ÑĮ
ĠN a
Þ ģ
Ö ģ
Ġp op
ĠS e
à© ģ
Ð¸ Ð¸
à¤¤ à¤°
Ð° ÑĨ
Ã¡ s
is ti
å ±
j en
Ġà¨ ¨
Ñı Ð½
Ġà² µ
ĠÐ± Ð°Ð¹
×Ļ× Ŀ
ĠÐ¾ ÑĢ
å Į
Ġk as
Ġà® ª
Ñĭ Ð´
Ð³ Ð°Ð½
un e
Ġw o
Ã¡ l
à¥ Į
à± ĩ
om e
d u
à½ Ļ
Ðµ Ð±
ÙĨÙī ÚŃ
m u
Ġ ÅŁ
Ñį Ð´
Ñ Ĺ
ĠI nd
á» ¥
Ġp u
à© Ī
à¾² à½´
Ġb ol
ĠK o
Ûķ Ú©
t on
ĠÐ ¤
à° µ
Ä Ļ
Ġáĥ Ĵ
ĠI s
à¤¹ à¤°
ro p
à¨¾ à¨Ĥ
æ °
ÙĬ ÙĪ
è ¿
Õ¥ ÖĢ
Ġ× Ĵ
áĥ ¢
Ñĥ Ð¿
ëĭ ¤
ag e
Ġà´ ª
Î ®
ĠØ Į
ĠØ¯ ÛĮ
Ð» ÑĮ
ÑĤ ÑĮ
ÉĻ r
Ġ à½ĳ
Ġin ter
ĠÐ² Ð¾
" .
ë Ĭ
æ ī
Ġh an
ìĹ Ĳ
Ò¯ ÑĢ
am i
ik i
Ġm er
à° ¸
ĠÄ į
l Ä±
Ð» Ñı
ÙĪ Úº
Ġh ar
ĠT e
Øª Ø§
Ġàª ¸
Ġz e
Ġ ent
at s
c k
ĠD i
àº Ĺ
us e
à¾± à½´
r os
ĠÃ ±
f er
à¤° à¤ķ
Øª Ø±
u x
Ġ Ð°Ð´
àª ¸
im e
Ġt ra
Ú ĵ
Ã¤ Ã¤
Ġà¨ ª
it o
Ð°ÑĢ ÑĭÐ½
áĥĲáĥ ¨
ĠÚ© ÛĮ
ĠØ¨ ÛĮ
Ġw as
áı Ĵ
ê ³
áĥ ĵ
Ñį Ð¹
à¬ ¸
Øª Ùĩ
Ð¾Ð½ ÑĮ
Ġn ang
à´ Ļ
ìĿ ´
ch a
å º
å ¼
à² ¬
Ġr es
ç ī
à½Ķ à½¢
Ġ× ¢
ãģ Ł
ÑĤ Ð¾
ig e
× Ľ
Ð¸Ð¹ Ð½
Ø§ Ú©
b l
ëĬ Ķ
am an
ok u
al m
Þ¬ .
ä ¼
ĠÐ³ Ð¾Ð´
1 6
ic o
ĠÐ¾ Ð´
à² ļ
à¸ Ľ
ç Ĥ
Ġw an
Ġ201 0
d er
Ġà® ķ
em e
ÙĨ ÛĮ
à¦ £
à³ ĭ
àµ ¼
àµ ĩ
È Ľ
Ù ĳ
ĠS an
ĠØ¦ Ûķ
u u
Ð» Ð¸
p an
Ï ĩ
Ð° Ñĩ
Õ« Õ¶
áĢ ¶
à³ Ģ
Û ĭ
ur t
Ġà² Ĩ
c z
r et
Ġo s
é Ļ
ĠáĬ ł
Ġà¦ ¦
ti v
r t
Ñĥ Ñĥ
Ġà¦ ¤
à¦ ļ
æ Ľ
ÙĦ Ø§Ø±
Ġh o
àŃ ĭ
Ûķ ÛĮ
1 2
ĠR e
Ġà¦ ¨
Ġk un
ĠÐ¾ Ð±
Ġ Ò»
áĢ· áĢº
Ġà° ķ
à¤° à¤®
ĠØ¬ ÙĪ
iv e
ĠT h
Õ« Õ
Ð³ ÑĬ
à½ĸ à½ŀ
Ġf in
ĠÐ± Ñĥ
Ġa z
Ġe in
ĠP ro
åĺ ħ
à¾ ¤
ÙĬ Ø±
d an
à¸ Ħ
áĢ ²
Ġp ag
ĠÐ Ĺ
æĺ ¯
áŁ ħ
áĥĺáĥ ľ
ãĤ ĭ
ar an
f i
l l
å ¯
1 5
Ð¾ Ñĩ
Ġàª ®
Ð¾ Ð¶
ĠÛ ¾
v in
Ġà² ¤
Ò¯ Ð½
Ùĥ Ùī
Ġm ag
Ġy ang
Ð¾ Ñħ
Ġ [
ÑĢ Ð°Ð½
Ġm it
à¶ ľ
ÙĬ Ø©
ul i
ĠT a
Ñĭ Ñħ
à¨ ļ
Ġà¬ ¬
eg o
Ðµ Ñĩ
Ñĭ Ð¿
Ùħ Ø§ÙĨ
à§ ¦
Ñĭ Ð·
Ġde m
Ãł n
à¼ Į
et i
à²Ĺ à²³
ĠÙģ ÙĬ
Ġk r
áıį áİ©
Õ¸ÖĤÕ ´
Æ °
k en
ĠM e
ĠG r
áĥĲáĥ ļ
Ġp od
al is
ĠÐ± Ð°ÑĢ
à© Ĥ
Ġh ab
Ġà¨ ħ
à¹ Į
and o
Ġp h
È Ļ
Ġà® ®
Ġp ara
ç Ľ
à¤ ³
Ø¯ ÛĮ
Ã¤ t
Ð° Ñı
Ã´ ng
Ù ¹
it s
ĠÐ ķ
à¹ ģ
on n
áĥĲáĥ Ľ
Ð°Ð½ Ð³
Ã Ł
Ġà² ĩ
Ð» Ñĸ
Ġàª ¤
Ġ ul
àº ·
Ð°Ñģ Ñģ
à¤µ à¤°
ĠÃ ¦
iv ers
Øº Ø§ÙĨ
Ġng w
Ġk at
el o
al ar
à¼Į à¼į
m en
áİ ¸
Ġs eg
Ġ3 0
p ar
Ġà¨ ľ
Ġn an
àŃ Ģ
Ġk ap
ion e
as e
Ùī ÙĦÙī
à± Ģ
Ġ Ô
ÅĤ a
ĠÐ Ń
Ã¨ r
Ġn ag
Ġà° ¸
áı «
p h
Ġà¦ Ĺ
y k
à¤ ¼
ĠÛ ±Û
à½ł à½ĸ
× ¦
Ñį ÑĤ
Þ ®
Õ µ
áĥĲáĥ ¡
Ã© g
i et
f t
ĠØ µ
Ġn j
à° Ĺ
áĥĺáĥ ¨
Ð°Ð» Ð°
ĠÐ §
Ġs ub
im i
ĠS h
ÐµÐ½ Ð¸
ur op
Ð¸ÑĤ Ðµ
à¸²à¸ £
Ġáİ ¢
Ġk et
Ġp as
Ġ2 4
ĠØ¨ Ø±
2 0
à¬ ¥
Ø °
ĠÐ¸ Ð½
Ġp ri
àµ ĭ
Ġj u
Ġc um
Ġàª ľ
ov a
ĠÐ· Ð°
l in
áĥĲáĥ łáĥ
at ur
Ï į
ÐµÐº ÑĤ
ĠÎ µ
Ġà¤ħ à¤¨
c t
Î¹ Îº
Ð¼ Ð°
b r
à¾² à½¼
× Ŀ
à¸ Ī
5 0
k t
Ð¸Ð½ Ð°
æľ Ī
Ġdi a
Ġt an
æ Ļ
ãģ ¨
Ġr ep
Ġs en
Ġs v
b in
c c
Ø¨ Ø±
åľ ¨
Ð» Ñĥ
Ġ /
b an
é Ľ
Ġd ir
àµ ½
ĠC om
Å ı
ĠØ§ Ø²
Ġn om
Ġà´ ķ
à®ķ à®³
Ġm od
ãģ ¯
è ¨
ĠI l
Ð¾ ÑĪ
áĥĶáĥ ľ
Ø ¸
y en
ãĥ ¼
Ñĭ Ð¹
å ĭ
áĢºáģ ĭ
ik e
Ġáİł áİ´
ĠØ¦ Ùī
ĠÐ¸ Ð·
ĠÑ ŀ
Ġà¦ ľ
ĠH e
ç ķ
áĪ ĺ
à½ł à½Ĥ
at h
Ġa st
ĠI t
ĠÐ¾ ÑĤ
áŀ İ
à° ª
2 01
ÑĢ Ð¸
Ġá »
Ġk w
Ġà¥ §à¥
å ¥
åľ ĭ
ĠÃ ª
ç «
Ð°Ñģ ÑĮ
Ġn as
ol i
Ġ Å¾
ì Ħ
à½ĸ à½ł
l am
çĤ º
ÙĨ Ú¯
à³ģ .
Õ ¿
áı ¢
ĠS p
un n
Õ¡Õ µ
Ġd h
Ñį Ñį
ĠØ¨ ÙĪ
é ĸ
ĠO r
áį ¢
Â °
å ĩ
Ġp al
Ñĸ Ð½
ĠÑĥ Ð»
à¨ ľ
àºŃ àºĩ
Ġà¤ «
Ð´ Ð¸
àª ª
Ġn Ã«
à¸£ à¸°
Ġ Ð°Ð²
Ġà² ¦
Ġm ak
à¸ ¸
à¸ ŀ
à¾² à½²
ub l
à¤ «
Ġd Ã©
Ġw at
áĢ «
Ä ĳ
Ġà¶ ħ
Ġs ing
Ġe en
ĠÐº Ð¾Ð½
ãĢ Į
ãĢ į
ÓĻ ÑĢ
ĠÏĦ Î·
à¬ £
Ġch i
Ġt s
Ûĩ Ø±
y u
Ġs am
Ã¶ l
à» ģ
íķ ĺ
ĠÑ ĺ
ĠÐ² Ð°
Ġàª Ľ
Ġà¤ §
os a
à¸Ń à¸ĩ
Ġd ist
ĠS o
Ä±n da
ë ¡
ÃŃ n
ÑĭÐ½ Ð´Ð°
§ à§
Þ Ń
à½ Ľ
à¸ ·
Ġf an
Ð¾Ð» ÑĮ
Î ´
Ð Ĳ
Ġe v
ar y
Ð°Ð³ Ð°
Ġì Ŀ
ĠÞ Ĩ
el t
Ñħ Ð°
æĹ ¥
áŀ ½
Ùħ ÛĮ
Ġd he
à¸µ à¹Ī
áŀ ģ
al t
ic k
áĥ ľ
Ġà² ¹
ĠÕ °
ol d
eg a
Ġà¶ ¸
àµģ à´Ĥ
Ġáİ¤ áı
Ġw ar
àº «
Ã¼ l
ĠH a
1 4
àª ¦
or s
Ò ¥
f e
Ú© ÛĮ
à¦ Ń
Ġà¨ ĩ
Ġd et
Ġs up
à² ·
Ġà® ĩ
à¤ ł
Ġh u
×ķ ×Ļ×
è Ī
Ġ× ĸ
Ġt en
g en
Ã³ r
ek s
Þ Ĭ
Ñĥ Ð²
ĠA s
ĠÑģ Ðµ
as yon
ĠØ ·
Ã¡ r
Øª ÛĮ
áĢ ļ
Ġp ers
ĠØ§ ÛĮÙĨ
É £
ÑĤ Ðµ
ad h
áĥĲáĥ ł
Ġà¤ķ à¤°
à¹ ĥ
à°¿ .
Ġáĥ ¬
à¹ ĩ
áĪ Ī
Ġm un
ul u
ĠÎ ¼
ÃŃ a
à® ļ
Ð¸Ðº Ð°
å Ĵ
et h
Ø± Ø¨
ek t
à¬ ¦
ĠÙħ ÙĪ
Ġl an
ĠG u
Ø§Ø ¹
Ã® n
áŀ ł
Ġr el
Ġag us
Ð¸ Ð¿
×ķ× ¨
il le
àª Ĺ
à¾ ©
uk a
y st
ah a
Ðº ÑĬ
Ð ļ
i x
ìĿ Ħ
ãģ Ĺ
Ã¬ n
Ġà´ ¸
Ġp at
à¼ĭ à¼į
à½£ à½¦
y t
Ġáİł áı
3 0
Ġt ot
Å º
ar k
ĠáĬ ¥
áĢ °
Ġs ch
à¨ µ
Ð°Ð½ ÑĮ
Ġáİ ¦
Ġt emp
es ti
Å ³
à¦ ĸ
à¦ §
Ã¤ d
å »
Ä ¼
ãĤ Ĵ
ĠE r
à¤ ī
ÙĤ Ùī
ĠB a
Ġà¬ ®
ĠB r
æĪ Ĳ
ion al
Ġáĥ ł
z o
Ġàª ħ
Ġb r
ib a
Ġà¤Ĺ à¤°
an ti
us i
áŀ Ĵ
sk i
f ic
ĠÃ º
m as
à¤¾ à¤ĥ
ĠØ¯ Ø§
g er
Ö Ħ
å Ģ
ãģ ¦
o y
æ ²
áŀ ī
emb er
à´ ¦
Ġin i
Ġe z
å Ĩ
ĠÃ© ÃŃ
Ġd it
ÙĪ Ø¨
Ġa w
ĠØ¨ Ûķ
s ta
å Ł
Ġ à½¦
Ġi d
è ¦
×Ĳ ×¨
æ µ
Ġb as
ĠØ§ Ø³Øª
à¦ ¡
is che
Ġáĥ Ļ
Ġk al
Ġ× Ļ
Ġs ta
Ð´ Ð¸Ð½
p u
à¾ Ķ
ad u
Ġà¶ ¯
Ġz u
Ġpr im
à½¡ à½Ħ
à½ ĩ
Ġs ab
Î ¸
ĠÃ »
ÑģÑĤ Ð²
ĠÙĩ Ùħ
ĠJ oh
á» ĭ
Ġp an
Ġcon t
å ĳ
ĠP a
ÙĦ Ø§
áĢ ĸ
Ð¾ Ñĺ
ãģ §
à¾ Ĺ
Ġk en
à¬ ª
Ù ı
ul o
Ġt ur
Ð°Ð´ Ð°
Ġpr es
Ðµ Ð¶
l at
Ġ ÑįÑĢ
ĠB e
ĠÞ Ħ
Ġà¨ ¤
and e
am u
à® ¨
ĠA mer
l ad
à² ¹
áº ¹
os e
ĠÃ ®
àª ľ
Ä± ÅŁ
ud i
ç İ
à¬ Ł
Ġin t
Ð°Ð³ ÑĬ
Ġáĥ ĺ
à® £
à¦ ¥
ed d
Ð¸ Ñĺ
à¤ Ļ
Ġ19 0
. ,
æ ĭ
Ġá Į
ĠC ar
Ġà® ¤
Ì Ģ
Ġl ang
ur u
Õ¡ ÖĢ
z y
à¾ ·
àº ķ
áī °
Ġ ist
Ġm al
à² ¶
p ort
ĠÕ §
Ġà¤µ à¤°
ĠÙ¾ Ø±
Ġv al
É Ľ
ĠS u
ä¸ į
or o
Ġi k
Ġà¨ ®
ĠÒ Ľ
Ó© Ð½
Î± Î½
Ñĥ Ñħ
à¹ Ħ
ent o
ÙĦ Ùħ
Ġf ran
à¶ «
d en
Å Ń
Ġg od
Ġy i
ar s
es te
ah an
Ġit i
àª £
ÑĨ Ð°
Ãª r
ĠÛ ½
áĥĲáĥ ĵ
Ò Ļ
àº į
ÙĪ ÙĬ
à¨¿ à©±
1 3
áĬ ĵ
æ ³
ek a
×ķ× ł
n t
à¶ ´
v an
ãģ Į
es ch
§ Ģ
Ġc ar
Ðº Ñĸ
un i
et er
im b
åĲ Į
å ½
Ã³ l
Ġpar t
ÙĪ Ø³
Ġr o
el la
ĠF r
Ġa ut
ĠA b
om in
ÑĤ Ð°ÑĢ
or g
y p
Ġd in
el le
Ùĩ Ø§
åħ ¶
Ġm ay
ĠÐ± Ð°
Ðº Ñģ
re g
áĥĶáĥ ļ
Ø ¡
Ġc ap
à½ĸ à½ħ
Ø³Øª Ø§ÙĨ
Ġm ot
ãģ Ħ
Ġin a
Õ ¨
Ø§Ø ¬
ê °
à¸ Ĭ
Ġ× ł
in de
Ð´ Ðµ
åľ °
Ġs al
on o
e j
Ġà¦ ĩ
Ġ2 2
ç Ļ
ĠÄ «
Ã¤ l
Ġu k
Ã© t
Ï Ĩ
Ġ201 1
n ÃŃ
ÓĻ Ð½
h r
in u
Ñģ Ñı
in k
us tr
Ġ200 7
Ġd ari
à§ ±
Ġn d
à¬ ³
à¥ĭ à¤Ĥ
az i
Ġ× §
ent r
ol u
Ó £
er k
à³į âĢĮ
Ġu p
av a
Ð» Ð°Ð½
ĠÚ© ÛĴ
Ġà° µ
1 1
ĠD a
ë¡ ľ
à¬ ĩ
ÙĬ Ø¯
è »
Ġp Ã¥
Ðµ ÑĨ
Ġe g
ĠK a
à¨ £
og ra
Ġà´ µ
ĠK ar
ĠÑģ Ð¾
Ġin f
v al
Ä± l
Ġf l
Ġj i
à½Ķ à½¦
Ġl at
Ġv on
Ġs em
y i
Ã ¾
Ġs ig
Ùĩ Ø±
ĠE s
ĠØ³ Ø§ÙĦ
åĽ ½
× ĸ
Ġ2 3
Ġh em
ĠØ¢ Ùĩ
ç ¾
Ø¦ ÙĨ
u ch
Ġm us
Ġ2 6
é Ŀ
ĠÐº Ð¾Ð¼
à¤¾ à¤ģ
à¸ ¹
ĠÞ Ģ
Ġà¤ħ à¤¸
ÑĤ Ð¸
ok o
Ò ķ
à½ĳ à½ĸ
Ġ200 0
Ġ à½¢
on om
ĠA d
å ī
ĠÏĦ Î¿Ïħ
Ð» Ñĭ
áĭ «
ur s
à¨ Ł
Îµ Î¹
ĠÐº Ð¼
Ñĥ Ñį
à» ĥ
ë ¥
ä ¾
à¨ Ĺ
èĢ Į
l ah
ir o
er b
Ġà® µ
Ġa i
Ġ200 6
ot t
m ent
Ġà¤ľ à¤¨
áİ ³
àª Ł
Ġs ek
áĥ ®
ag i
ĠT r
âĢ Ķ
h t
od e
Ø§Ø Ń
l ig
ÙĨ Ú
ä¸ Ĭ
Ġb at
à¤µ à¤¨
ar n
Ø§ Úº
Ð³ Ðµ
ĠN y
ĠÑĤ ÑĥÑĢ
ĠÛģ ÛĴ
Ġ200 8
àº Ľ
Ġ2 8
Ġm on
Ġà® ħ
Ġs ur
ç §
en ta
o i
ĠD ie
iv a
Ġà¬ ı
ĠÕ ´
Ġ2 7
Ġà² ī
ub a
ĠÐ¿ ÐµÑĢ
à¤µ à¤¤
Ġc e
ĠÃ¤ r
c es
Ġk h
Û Ĭ
Ġs el
ĠN g
ĠÐ³ ÑĢ
áĥ£áĥ ł
er v
áī ½
Ġd ur
ĠØ¯ ÙĪ
Õ¡ ÖĢÕ
Ġà´ ®
ĠáĢ Ļ
è ª
h en
Ġg Ã¬
ĠN o
ad os
áĬ Ĳ
ĠL i
ra v
ir en
Ûķ ÙĪ
ĠG e
áĢ® áĢ¸
Ġv ers
áĭ Ń
ang an
ĠÃ ³
Ò¯ Ð»
ap i
Ġà¥ ¨
id o
Å ĳ
Ġàª µ
Ġk l
Ġcom o
áĢŃáĢ¯ áĢ·
il la
Ġin c
×ķ× Ĳ
Ð ł
Ã¨ t
6 0
ĠT o
id d
es ta
Ã« n
ÙĬ ÙĦ
Ġ )
ÑĤ ÐµÑĢ
al ia
Ġ×ĵ ×Ļ
er m
Ġà´ ¨
Ġà® ļ
e e
áĪ ĭ
Æ° á»
å İ
ĠQ u
Ø§ Ùģ
Ġe b
Ðº Ð¸
ok a
Õ ¾
ç ´
Ùī Ø±
Ġà¶ ±
Ûķ Ùħ
Ġk ab
Ġv ol
Ġr ec
or k
à¤ķ à¤°
on es
ĠÐ¾ Ðº
al es
ĠB ar
Ġáı Ĺ
Ñĥ Ñĩ
Ñĥ Ð¶
Ð´ Ð°Ð½
Ġà¦ ļ
Ã¸ r
ĠÚ© ÙĬ
à¬ ·
il ip
ĠØ º
Ġà¬ ħ
Ð² Ð°ÑĢ
um b
Ġt ar
Ð Ĩ
Ù Ĵ
ik u
åĩ º
d o
à¤° à¤¸
Ï İ
Ð¸ Ð±
it er
Ġb ul
Ġt ro
ĠÐ³ ÑĮ
à» Ħ
áĥ Ĵ
ĠØ§ Ùħ
ap a
Ġy ari
Þ Ħ
ĠP h
od a
m p
ĠI I
sk a
áĢ Ĩ
Ġ× Ľ
ãĥ ³
Ù Ļ
Ġk ir
ĠS i
ĠÙħ Ø¹
Ġpop ul
áŀ Ĳ
Ã¦ ÑĢ
j er
Ġr i
Ġà´ ħ
al s
ĠÐĲ Ð»
à¾Ĵà¾± à½´
Ø± Øª
Ġas s
ĠÑģ Ð²
áŀ¶ áŁĨ
Ġpar ti
à¨ ª
Ò ¡
Ñĭ Ò£
Ä± m
Ùī ÙĬ
Ã¨ s
es k
Ø§Ø ®
ĠáĢ Ģ
à² §
æ ¸
Ġcon s
l en
Ë ĩ
à¬ Ĺ
Ġdi v
Å Ĩ
áĥĶáĥ ł
ĠM o
Ġh i
ran s
Ġse c
an k
ĠÙħ ØŃ
ag o
ĠÐ¿ Ð¾
ĠC o
áĢ± áĢ¸
19 9
Þ ĳ
n ing
à¾ Ļ
ĠØ¨ ÙĨ
×ķ× ¢
å ĵ
ĠÐ´ Ð¶
Ġà· Ħ
à· ľ
Õ¸ÖĤÕ ©
Ð² Ð»
Ã¢ t
e f
áĢ² áĢ·
Ġb ak
Ġg ro
ci es
l et
ĠÑ ī
Â» ,
Ð³ Ð°ÑĢ
. )
à± Ĩ
ik an
in as
Ġ18 9
er g
u j
æĸ ¼
ĠÄ °
ÄĹ s
àº ¹
ek e
ÐµÐ½ Ð´
m un
ĠA fr
Ġ Ð°Ð·
Ñ ļ
id i
ĠÑĥ ÑĢ
ĠÙĪ Ø§ÙĦ
im p
Ã© ng
àº² àºĻ
à½Ĥ à½ŀ
Ð³ Ð¾
id en
è¡ Į
Ġst r
Ġà² Ĺ
ç Ī
à¸ Ĥ
ĠáĢ Ĳ
Ġ×Ķ ×Ĳ
z t
is te
ĠC on
Ġj ed
Ġà¤® à¤¹
Ð°Ð² Ð°
Ġc r
Òĵ Ð°
Ã³ w
us a
ud e
à«ĩ .
à¤¾ .
ĠB o
Ġà° ®
Ã¦ Ð¹
Ġa ta
u ta
Ù ½
Ġb al
×Ļ× ł
Ġ× ¨
Ġ2 1
ĠÐ½ Ðµ
ĠØ§ ÙĪØ±
Ð°ÑģÑģ ÐµÐ¹
ĠÃ ²
Î¿ Î½
Ġs ar
Ġan t
ÑĥÐ± Ð»
Ġt el
Ġn ov
' m
Ð½ Ñĥ
Ð½ Ð¸Ðº
Ã³ k
ĠÃ ¥
ĠÑĤ Ð°
Õ¡Õ¯ Õ¡Õ¶
p os
ul e
áı ģ
n s
d ir
ç Ĳ
et s
áĥĶáĥ ¤
Ġv u
ĠA t
àº ŀ
Ġà² °
áĥ £
ĠØ³ ÛĮ
áĢ» áĢ¬áĢ¸
áİ ª
ĠáĢ ķ
Ġk il
à¯ Ĩ
àª ¥
ãĤ Į
Ġsp e
u an
Ġb h
ÐµÑģ Ð¿
b en
ĠÑģ Ñĥ
Ð¾ÑĢ ÑĤ
w ar
ÙĬ Ø§
Ġam in
ĠáĢ ŀ
iy e
Ġà¨ ¬
Ġ200 4
æ ±
ÑĭÐ½ Ð°
Ġà¤ī à¤ª
Ġd y
Ġh ad
¦ ¬
ĠÐ± Ð°ÑģÑģÐµÐ¹
à¸ ³
ĠK r
ì ľ
Ġk ur
as ti
à¤¯ à¤ķ
n er
Ð» Ð°ÑĢ
Ġà¦ ¶
Ġd ik
Ġf e
Ġ200 9
íķ ľ
Ð°Ð½ ÑĤ
à½Ĥ à½ī
ob a
Ġh er
ĠÙģ Ùī
ê³ ł
Ö ī
à¤¯ à¤¤
áĢ ĳ
áŀ Ĺ
om an
Ġáĥ ¨
ĠÎº Î±Î¹
áĥ ¨
4 0
àª ¹
Ġs l
Ġk or
ci p
å ĸ
Ø¦ ÛĮ
Ã£ o
al an
à½º à¼į
áıĹ áı¢
ÉĻ n
Ġk ol
Ġc ol
' t
g g
ĠÞ ĭ
¯ à¥
å ¿
Ġ ÛĮØ§
à¤ ŀ
Ġw i
Ġd ag
à¯ ĩ
ĠÑģ Ð¿
Ġ200 5
ÑģÐº Ð¸
à± Ĥ
Ñĩ Ð°
c y
àº ¸
à¨ ¬
áĪ ¨
Ã§ a
Ø§ Ù¾
ĠP er
Ġ2 9
Ġh al
ter n
Ø§Ø ¡
w er
ç µ
ì ł
Ã² ng
ĠÛ ²
àª ¡
ak t
Ġà² ľ
Ġal l
àº Ħ
à¤¾ à¥¤
Ð¾Ð² Ð°
áĭ °
áī ł
y ÅĪ
w ay
à½ĺ à½ļ
ĠØ± ÙĪ
f or
àª ¶
ĠR ep
Ø¹ Ø¯
en o
ÃŃ s
ev a
al iz
Ú¯ Ûķ
Ġin s
à¹ Ĥ
Ð ľ
Ġg h
ĠÃ ´
ay an
Ġar t
Ġk ad
ĠØ§ Øª
Ó© Ð»
Ġc l
àµ Ģ
Ġpol it
Ġ1 00
Ñı Ñģ
×¢ ×ł
Ġfam il
Ġde c
ĠØ¦ Ûĩ
ĠâĢ ĺ
ĠØ¯ ÛĴ
Ð¸ Ð¶
ĠÚ© ÙĪ
ĠÛ ĭ
Ġáĥ Ĺ
åŃ Ĳ
ĠÏĥ ÏĦ
Ġb et
Ġb in
um e
à¤² à¤¯
áĥĺáĥ Ĺ
à§ Ī
Ð¼ Ð°Ð½
8 0
ì ŀ
Ġb l
Ñĸ Ð²
Ġ %
Ġà¦ ¯
å¾ Į
Ú µ
Ġì ŀ
ar r
Ġh av
ç »
Ð» Ðµ
ti m
Ġwa x
ĠÐ± Ð¸Ð»
è ®
Õ¥Õ ¬
Ġ Ð°Ðº
ud a
æĸ ĩ
Î± ÏĦ
em i
Ġáĥ Ŀ
uk u
æ ´
Ġm ul
Ġf on
ï ¯
ÑĪ ÑĤ
àº²àº ĩ
j an
ĠÙħÛĮ Úº
à¦¼ à§ĩ
ĠÑĺ Ðµ
ç Ħ
ÑĢ Ð¾
Ġn am
ida e
2 5
Ø³ ÙĦ
à¾Ł à½¼
Ġà¤ī à¤¤
Õ¸ÖĤÕ© Õµ
um an
at or
áĥ ·
Ùħ Ø§
Ġà¤Ĩ à¤¸
ĠáĪ ĺ
ĠÐº Ð°ÑĢ
Ø§Ø± Ùĩ
Îµ Ïģ
ä¹ Ł
Ġl ib
Ġp lan
Ó ¥
Ġp un
à¤¾ ,
à«ģ àªĤ
Ñı ÑĢ
ĠÞ Ī
am ente
Ġer a
å® ¶
Ġw al
àº Ĭ
Ð¼ Ã¦
Ã© m
á» Ļ
l h
Ç £
Ġ áŀĵ
Ġn ah
Ñį ÑįÑĢ
om b
Ġl ab
j et
ÑĢ Ð¸ÑĤ
ĠÕ ¯
iz i
Ä Ń
Ġ Ð°Ñģ
Ø¯ Ûķ
Ġàª ¹
st r
ti g
n an
y an
à¥į âĢĮ
áĢ ¹
Ġk Ã¶
Ġk wa
Ġc an
ì ĭ
Ġm or
ÙĨ Ø¬
ĠN ew
Ġ â
is m
il li
à¤¿ à¤Ĥ
ï¼ ļ
Ġáİ¾ áıįáİ©
Ġn ak
Ġ Ð°Ð¹
Ð» ÐµÐ½
Ġg eb
è ¥
Ùħ Ùī
z en
Ð Ł
Î¯ Î±
Ġ à½ĸ
ĠÐº Ð»
v u
ĠP ol
ug a
ÑĭÐ» Ð°
7 0
ĠÞ Ĭ
ĠÑħ ÑĥÑĮ
Õ¸ÖĤ Õ¶
Ġs ol
à¾ ¨
Ø³Øª Ùĩ
áĮ Ī
n ik
ÑĤ Ð¾ÑĢ
×Ļ× ¨
n os
Ġt ek
Ġi b
Ġi ha
ĠØ¨ ÙĪÙĦ
Ġà¤ Ķ
áĥĿáĥ ĳ
Ġl and
É Ķ
Ġà¤ Ī
à¤¨ à¤ķ
Ġáĥ ľ
à½ĺ à½Ĳ
åĪ °
Ð ŀ
ÙĬ Ùħ
ĠU S
Ú »
Õ¡Õ ´
j on
ĠÙĪ Ùĩ
Ð°Ð» Ñĭ
ĠÙĨ ÛĮ
Ġm b
Ġm p
à¬ Ļ
ion i
Ġet a
ĠÐ¾ Ð»
ĠM an
Ã¤ h
es a
Ñı ÑĤ
Ġà° Ĺ
al ah
ĠÃ® n
è ģ
ed a
ÙĦ ÙĪ
ãĢ ĭ
ãĢ Ĭ
Ġfil m
ãģ ª
à³Ĩ .
Ð°Ð¼ Ð°
Ġo ch
ĠÚĨ ÛĲ
od i
Ġfor m
ĠÃ¤ bin
é ļ
Ã¼ m
ÓĢ Ñį
Ñĥ ÑĥÐ»
àµ Ĥ
p p
Ġ×Ĵ ×¢
Ġs y
r s
àº ³
æ İ
Ġs an
ÑĨ Ñĸ
à²¦ à²°
Ġde p
f in
ak s
Ïĥ ÏĦ
Ġà¨ ī
áĪ «
Ġen g
ot s
Ġt re
Ġà¦ Ń
ĠM al
Ġà§ §à§
Ġ ÈĻ
Ġk el
et ro
à° ļ
Ġs z
Ġà¨ ²
èĢ ħ
ur n
åħ ¬
Ġà¤ħ à¤Ľ
Ġa u
Ġ Ð°Ð±
ĠE urop
Ãł ng
àº Ĥ
æĻ Ĥ
Ãº n
Ã¤ ld
ĠÂ °
ra z
Ã¶ d
Ã¡ d
ĠØª Ø±
ÅĤ o
Ġor gan
áŁ Ķ
Ö ĩ
ad an
Ġan a
Ġn ke
Ġl ig
ro d
un da
à© į
éĥ ¨
à¥Ģ à¤Ĥ
Ġà° ¨
Ġàª Ĺ
ation al
Ġn um
Ġpro d
ĠR o
Â ·
æ ł
ĠA nd
Ã© k
ij i
Ð´ Ð·
çĶ Ł
ĠØª ÙĪ
Ã¡ t
ÑĨ ÑĮ
àº² àºĻàº
èĩ ª
Ġl oc
Ġb el
p t
ek o
ĠÑĢ Ð°Ð¹
à§ Ĥ
áı ³
åŃ ¸
ĠB u
Ġc or
ĠP o
ĠÚ© ÛĲ
Ð¸Ð½ Ð¸
à¤ª à¤¨
áıį áı
åį ģ
il o
Ġà² Ĵ
Ġà° ī
e y
ĠÎ ¿
à¦ ĵ
um i
ĠÑı Ðº
e u
ë ĵ
Ã³ t
ĠáĬ ¨
it ar
Ġà¦ ī
ĠÚ© Ø±
r ic
Ġà¬ ¨
im o
ĠÐ½ Ð¾
Ð°Ð´ Ñĭ
Ð°ÑĢ ÑĤ
Ġk ay
ong o
in c
Ġd ar
ot o
à³į .
ĠL o
à¾Ĵà¾± à¼ĭ
Ġf er
os i
Ã¤ m
Ġngw aga
os s
ig n
Õ¡Õ ¿
is ke
ÐµÑģÐ¿ ÑĥÐ±Ð»
ç Ń
Ġe i
ä¸ ī
Ġ× ¦
áī ¥
àºµ à»Ī
à¤ ¢
à² ¥
Ð¾Ð½ Ð´
et te
Ð°Ð» ÑĬ
Ġ5 0
Ġàª ¨
Ġáİ Ń
Ġ Ð°ÑĤ
ut h
ÙĬ Ùĩ
ä¸ »
ĠÐ± Ð°ÑĪ
Ĥ ¬
ç ¨
áĥĶáĥ ¡
Ã« s
Ġà¤° à¤¹
Ð¾ Ð¸
Ġà¦ ²
ĠáĢ Ľ
om o
Ñħ Ð°Ð½
ĠÑģ Ð°
ĠØ® ÙĪ
og a
Ġ6 5
as an
ay o
ĠÐ ®
à¸ ¨
Ġs m
Ġf ar
ĠÐ´ Ð°ÑĢ
áĭ µ
k er
Ġà» ģ
id h
ĠD en
up a
ĠÐŁ ÑĢ
×ķ× ľ
Ġà¦ķ à§°
ĠUn ivers
ĠÙ ¿
id ent
Ġu z
ĠØª Ùĩ
k in
ĠÚ ¤
Ð¾ÑĤ Ð¾
ä¿ Ĥ
à¬ §
à²¿ à²Ĥ
ÓĻ Ð¼
Ġà¬ ¹
à¸ģ à¸²à¸£
Ġd os
ĠÐ ¯
à¥¦ à¥
ìĦ ľ
è¥ ¿
×Ļ× ©
àº¥ àº°
Ġm is
æ Ģ
Ġf ra
ĠE st
æ ¬
ri b
ÑĢ ÑĤ
à¬ ¶
Ã¡ m
ĠJ o
ÑĢ ÑĥÐ³
¹ Û
ĠH o
ec t
at ti
Ġ18 8
ç ¶
Ð½ Ð¾Ð¹
Ð½Ñĭ Ñħ
ul l
å §
Ġb le
à¯ ĭ
Ġt ab
à¬ ľ
à³ Ī
id ad
Ðº Ñĥ
eg e
à´ ·
ĠÙĨ ÙĪ
ag u
j ar
à½ł à½ģ
áıĻ áıĹ
n ya
os h
Ġáĥ Ķ
áĮ į
as Ä±
Ã¡ k
Ä ¡
à¯ Ĭ
çĶ ¨
f o
Ġm es
a u
Ġp ap
àµ »
à½ĸ à½Ł
li ch
Ġal s
yn s
Ġ4 0
ist or
Ġt ut
Ð°Ð» ÑĤ
ĠÑĤ ÑĢ
Ġb ah
as ta
Ġo t
ad or
Ø´ Ùī
Ùģ Ø±
Õ¶ Õ¥ÖĢ
w en
ĠÐ¿ÑĢ Ð¾
æ° ĳ
à¨ Ī
à½ł à½ķ
ĠÐ½ ÑĮ
la v
Ġ201 2
ĠT i
è ³
ĠÑĤ ÐµÑĢ
Ø§ÙĨ Ø¯
à¸²à¸ ĩ
åĲ į
áĥĲáĥ ķ
l ia
à¤² à¤ķ
ÑĨ Ñĭ
Ã± a
Ġb ag
áĥĿáĥ ľ
Î¹ Î±
ĠL at
it al
ĠáİŃ áı«
Ġa ir
ĠI ng
è ¾
ĠØ ¥
ĠA c
Ð°ÑĤ ÑĮ
le y
up i
æľ ¬
ek i
ĠÞ İ
Ġt ah
ĠÐº Ð¾Ð»
v ar
Ġà® ¨
Ø¬ Ùĩ
è µ
Ġà¤ ĺ
ÑģÑĤ Ð°
àº Ī
áĥ Ļ
Ġl ing
am o
¨ áıĴ
áĥĿáĥ Ľ
ÙĪ Øª
Ġt aki
é «
à½ĳ à½ĺ
à¸²à¸ ¢
ĠE m
in an
Ð°Ð½ Ð¸
b ar
in in
Ġt ak
is yen
il d
Ġ×© ×ľ
Ġb is
Ð³ ÐµÐ½
Ã¶ n
Ú ĺ
è ĭ
Ð°ÑĢ Ð´
ÐµÑĢ Ð¸
ĠÑ ĳ
Å¡ t
Ø® Øª
Þ ĵ
Ñį Ñģ
Ġpar te
Ùħ Ø¯
Ġm ang
Ġm ill
Ã¨ ng
×¢ ×Ł
åĢ ĭ
Ġp en
à½ĵ à½Ħ
Ø´ ÛĮ
ÙĪÙĨ Ùĩ
×Ļ× ª
Ġà° ħ
áº ¿
· ¸
Ñĸ ÑĢ
æ ŀ
Ó§ Ð½
Ñĳ Ñģ
Ġà¦ķ à¦°
ag n
ÑĨ Ð¸Ñı
åĴ Į
Ó© Ó©
Ġcom p
Ġth at
ÐµÑħ ÑĮ
Ò ±
áī ³
ug u
Ñį Ð·
ĠØ§ÙĦ Ø¹
Ġá ģ
ĠÎ ´
eng an
áº ¡
a i
f orm
Ġma i
Ġa o
à¥ĩ .
ĠÙĪ ÚĨ
áİ¾ áıĹáı¢
Ġk um
ant u
à½¼ à¼į
ov e
Ġk am
à¤° à¤£
à´ Ĺ
à» į
ir t
áŀ ¹
ic al
ĠâĢ Ļ
2 4
Ð ¢
Ð´ Ð¶
Ġà¶ ¶
Ġà¤Ķ à¤°
ĠÑĢ Ð°Ð·
åį Ĺ
ion s
æ ¯
ri e
à³ģ à²Ĥ
b y
ĠÙħ Ø±
ĠàªĨ àªµ
on u
ì ĸ
ĠÐ ¦
áŀļ áŀĶ
Ðº Ð¾
Ä± s
Ġs ist
áĥĺáĥ ļ
Ġes is
Ġ Ó
Ġp ÅĻ
Ã© e
ĠáİŃáı« áİ¾áıĹáı¢
Ä ĭ
Ġd as
ĠÃ© s
ÏĢ Î¿
Ġáĥ ŀ
Ġàª ¦
ing s
Ġt op
id er
ĠØ¨ Ø§
ĠÐ´ Ð¸
j es
å ł
é ķ
Ð°Ð» Ñĸ
k ar
min ist
à¸²à¸ Ļ
à¾³ à¼ĭ
ĠM on
ÑģÑĤ ÑĢ
à²µ à²°
çİ ĭ
æī Ģ
Ġt am
ĠØ¯ Ûķ
à¦ ģ
à¤¯ à¤¨
Ø³ Ùĩ
á ¸
ĠJ e
z u
Ġp ada
ì §Ģ
ig i
äº Į
é ł
Ġà¬ķ à¬°
v el
ë ı
ĠK on
ĠØ¢Ùĩ ÙĬ
Ġg an
ÛĮÙĦ ÛĮ
Ã¤ s
Ġà¶ ½
p ro
à· ħ
Ã© l
Ġà¶ ľ
ĠÕ ¸
Äķ Ð½
Þ ħ
ari o
rit o
Ø± Ùģ
à¾² à¼ĭ
Õ ´
Ġal t
ìĿ Ģ
2 2
Ġt ÃŃ
ĠT im
Ġ200 1
Ġu g
Ġà´ ¤
Ġ ÅĤ
ç Ł
áĢ Ŀ
Ġà² İ
Ġam b
Øº Ø§
¯ à§
Ġs us
Ð» ÑĬ
at er
Ã³ Ã³
æ ¼
is c
p or
Ġs um
us h
ĠÚ© Ø§Ø±
ĠÑĥ Ñĩ
Ġi yo
à¸ ¶
ĠB er
Ã¶ s
à¤¸ à¤ķ
áĥĿáĥ ł
Ġ201 3
ra b
Ġl l
eg n
ĠØ§ ÛĴ
Â» .
ĠÐ¿ Ð¾Ð»
od o
à§ĩ à¥¤
à½¢ à½Ħ
ĠI m
áĪ Ľ
Ġk ont
ng i
ar m
à¬ ¡
ĠN or
ort h
Ġp Ã«r
Ïī Î½
ĠÐ¹ ÑĭÐ»
ĠÐ´ Ð¾
ĠÑĥ Ð³
Ġr ad
à¤¯ à¤®
ĠB el
ot h
ĠÙĨ Ùĩ
è ĥ
il m
Ð°Ñħ ÑĮ
Ġb Ã¤ld
à¤µ à¤¸
Ġm Ã¶
áı Ħ
é ĺ
en er
×¨ ×Ĳ
Ġà¨ħ à¨¤
è ©
Ú ĸ
Ġh at
ê° Ģ
å £
o ti
x t
ÑĤ Ð°Ð½
Ġà¬ ¦
an ta
Ġn h
at iv
it Ãł
à½ĳ à½Ķ
ay e
ĠÐµ Ð»
ant s
x e
Ġà¹ Ģà¸
Ð» Ð°Ð´
Òĵ Ñĭ
ÛĮ Ú©
ĠA g
àª §
áı ¯
åŃ ¦
Ġa an
Ġá Ł
¸ °
in h
à® ´
è «
Ġ× ¡
Ġi g
ĠG er
Ġw ith
Ð² Ð°Ð½
Ã¦ Ð½
Ġm eng
Î¿ ÏĤ
à· Ŀ
Ĭ ¤
ed en
Ġtr ad
Ġáĥĵ áĥĲ
ìľ ¼
Ùħ ÙĨ
Ø ¢
Ġàª °
k l
ĠV al
Ġn ie
ĠØ¯ Ùĩ
à½ĺ à½ģ
à¤¬ à¤°
Ø¯ ÙĨ
ĠÐº Ð¾ÑĢ
Ġà¶ Ń
æĸ ¯
è ·
à¥Ģ ,
Ñĸ Ð´
u y
Ġs im
à½Ĥ à½ħ
ĠE d
à´ ¶
ha i
à¸¥ à¸°
Ġm m
Ġ Ð°Ð¼
Ñĭ ÑģÑĮ
2 7
Ø¨ ÙĪ
Ġo o
Ä± q
iy an
ãĤ ¹
Ð» Ð°ÑĤ
áŁ Ĳ
Ð½ Ð°Ð¹
Ñħ ÑĮ
Ġin v
Ã¡ u
Ġ201 4
ÐµÐº Ñģ
Ġw ur
ĠD r
à¤Ĺ à¤°
Ã½ ch
Ġz o
à¥Ī à¥¤
Ðº Ð°Ð½
Ġ18 6
Ò¯ Ð¹
ov i
Ġse b
Ġf un
er c
Ñ Ķ
à¹Ģà¸ Ľ
ë¥ ¼
s c
ç ¬
Ġy o
ĠD o
Ø§ÛĮ ÛĮ
ç« ĭ
Ðµ ÑģÐº
Ð¿ ÐµÑĢ
Ã« t
Ġpr in
à½ĺ à½Ħ
eng e
ĠìĿ ´
Ġb an
áİ ²
ĠW e
ez a
Ġá» į
p res
Ð Ŀ
Ġgr up
er en
åĪ Ĩ
g h
Þ Ķ
áŀ ķ
ĠA z
à¤ľ à¤¨
ik k
ĠN e
ÑĢ Ð°ÑĤ
ĠØ¨ Ûĩ
ĠÐ¼ ÐµÐ½
Ġàªħ àª¨
ĠÈĻ i
Ðº Ð¾Ð²
op h
Ġd z
Ġl Ãł
ĠS al
Ò¯ Ð³
ĠØ³ ÙĪ
2 3
ant o
áŁĭ âĢĭ
es sa
ÛĮ Øª
àµ ¾
Ú¯ Ø±
Ð· Ð°
Ġ×Ĳ ×ķ×Ł
Ñĭ Ð¶
à¤Ł à¤°
Ġf ir
å¸ Ĥ
Û° Û
s á¹³
ar en
ĠØ§ÙĦ Øª
Ã² r
end o
2 9
áĥ Ĺ
à± Ī
Ø¦ Ø±
Ġr ev
áİ ¶
and i
Ġle a
y ch
ç ľ
ĠÙģ Ø±
à¶ ¶
Ã¼ Ã¼
Ġis ch
à® Ļ
Ùħ ÙĦ
Ġì ķ
à°¿ à°Ĥ
å¤ ļ
ĠÑĢÐ°Ð¹ Ð¾Ð½
at ra
åħ ¥
2 6
è ¯
Ġà¨ °
ĠÐľ Ð°ÑĢ
ĠÞ Ĥ
ĠÐº Ñĥ
Ġ×¤ ×ķ×Ł
Ġde g
à½ł à½ĩ
r is
Ð½ ÑĮ
4 8
f u
m et
Ġm id
Ġk er
Ġàª ¬
Ġp la
Ø³ Ùħ
2 8
áŁĦ áŁĩ
es h
Ðº ÑĤ
×Ĳ ×ł
ĠÐ± Ð¸ÑĢ
Äģ s
ĠÛĭ Ûķ
Ð°Ð» Ð¸
ek k
ĠÙħ Ûķ
Ġ199 9
alm ente
os ta
à« Ĥ
ĠR a
Ġà¶ º
Ġp ang
ĠáĢ ľ
Ġ×Ĳ×Ļ× Ł
Õ ½
Ġp ot
ed ia
ci al
Į Ģ
Ġa Ã°
Ġp am
Ġp ra
à¸²à¸ ģ
ĠÙĩ ÙĪ
z n
Ġà¨ Ĺ
Ġáĥ ĳ
áĥĲáĥ ®
à³Ĭ à²Ĥ
Ġa us
ig o
ĠØ¹ ÙĦÙī
ĠÃ ģ
ul ar
Ġs et
Ġàª ı
×Ļ× ĺ
ÅŁ t
Ø§Ø± ÙĬ
Ã´ r
à¾Ł à½º
ĠÕ ¥
Ø§Ø µ
Ġy u
Ġ Ð°Ð½
g olo
Ã» ng
Ġs ud
ĠE ng
4 5
Ä ¯
áŁ ī
ĠØ³ Ø±
ĠO l
ĠX V
um ent
áĪ ħ
Ġr et
ĠÙĦ Ùĩ
Ġhab it
ĠÏĦÎ· ÏĤ
ç ¥
Ġo li
Ð ĳ
Ġ18 7
á¹ £
ä½ ľ
Ġdal am
áı ©
Ð½Ð¾ ÑģÑĤ
Ð¸Ð½ Ð³
Î ²
Ã³ ng
el en
Ġka j
in y
Ġl eg
Ã¡ i
k k
ä¸ º
Ðº Ðµ
Ġà» Ģàº
d z
ab i
emb re
áī £
áĢ¼ áĢ®áĢ¸
æĸ ¹
å¾ Ĺ
it an
Õ¡Õ ¾
à¦° à¦¤
b urg
Ġp ou
Ġi a
Ġì ł
Ġs Ã©
à· ĸ
ĠM as
à¯į .
ÑĤ ÑĤ
Ġw ie
Ð¾ÑĢ Ð°
ĠáĬ Ĳ
ì ķ
Ġà¤ ¡
Ð¾Ð» Ð¾Ð³
Ð² ÐµÑĢ
ĠáĢ Ķ
äº Ĩ
Ġs ak
al ak
Ġ×Ķ ×ŀ
b um
Ġg ra
×ķ× ĵ
æĶ ¿
Ð¿ ÑĢ
àº²àº į
áĥĲáĥ Ĺ
ÑĬ Ñĥ
ub lik
áĢ¯ áĢ¶
å· ŀ
àª ³
ah i
Ġà¬ °
ĠÏĦ Î¿
ĠO n
Ġ3 1
ich t
19 8
Ġáı Ĥ
ĠÐº ÑĢ
áĥ£áĥ ļáĥĺ
áĥĿáĥ ļ
áĢŃáĢ¯ áĢ¸
Ġ- -
Ø¯Ùī ÙĨ
Ġp Ã²
Ġw ord
à¾Ł à¼ĭ
à¹ĥ à¸Ļ
à¶ ©
à¾± à¼ĭ
ÑĥÐ» ÑĮ
Õ ¯
ä¸ ĭ
á» ĳ
Ġkil om
Ġen d
áĥĿáĥ łáĥ
Ġà¦¹ à¦¯
áĥĺáĥ ĵ
ob er
ãģ £
f l
Ġn on
Ñĥ Ð²Ð°
un s
Ġr az
ĠG o
ĠÐ¸ Ð¼
Ġg ar
ê µ
Ø¦ ÙĬ
Ġr ah
re e
Ġar e
àº ½
ad en
r ed
à´ §
ĠØ± Ø§
Ïģ Î±
ÛĮ Ùĩ
Ġt or
áı ´
Ñı Ð¼
ÃŃ ÃŃ
à¹ Ģ
à¥Ī à¤Ĥ
é Ĥ
ê ²
Ġà¤ħ à¤§
Ġà¤ Ł
Ð² ÑĢ
ĠF l
ĠÅ ł
ĠP l
äº ĭ
lar Ä±
×Ļ× Ķ
Ġpro f
p en
à½ł à½Ľ
ĠÑį Ð¼
áĥ£áĥ ļ
× ļ
ä¸ ĸ
ĠØ¦ ÛĨ
Ġ ord
ing a
iz a
Ġo u
æµ ·
ur o
ĠØ± Ùĩ
Ġba ÅŁ
áĥ łáĥ
ĠÚ ħ
ĠØ§ÙĦ Ø£
Ġë °
k h
ĠB rit
áĢ±áĢ¬ áĢº
Ú Ļ
Ġn el
Ã¡ c
i q
ÑĢ Ð°Ð¼
Ġs ay
à¦ ī
Î¿ Ïį
à¸²à¸ ¡
ĠÐ± ÐµÑĢ
ĠÐ¾ Ñģ
àº²àº ¡
Ġv Ãł
ÑĭÐ» Ð´
áĬ Ń
Ġngw ag
s en
ÙĪ Ùĩ
à¨ ¡
ĠS c
ĠM in
it z
Ã¡ h
à®ª à®Ł
Ġst at
è» į
v at
Ġg y
ak u
Ã³ d
à½ĸ à½Ģ
Ä±n Ä±
x i
æ Į
ĠT ur
s u
à±ģ à°Ĥ
Ġà¤ĩ à¤¤
en z
Ġ áŀĢ
ĠÛģ ÙĪ
) ;
ist an
Ġ199 0
ac e
3 5
æ ¨
×Ļ× ľ
Ġm el
æľ ĥ
ÙĦÙī ÙĤ
æ Ħ
æ Ĳ
Å¡ k
Ġê ·¸
eg i
ĠS te
ĠâĢ ¢
Ùħ Ø§ÙĦ
à¤ı à¤ķ
æ³ ķ
Ġ ïº
in en
Ð°Ñģ Ð°
áº £
ir d
Ûķ ÙĦ
éģ ĵ
Ġdi p
Ġw or
è Ļ
Ġu d
Ġ201 5
c ion
Ġv om
Ġà¶ ĳ
Ã° ur
w ag
åĮ Ĺ
x a
et o
Ã° i
2 1
Ø¯ Ø±
Ġà¤ª à¤¹
Ú ĳ
Ġàª Ń
ĠV er
in ta
Ġà¦Ĩ à§°
h ar
l os
áĥĲáĥ ¤
Ġà¤® à¤¨
á» ĩ
ãĥ¼ ãĥ
er ra
ĠÃ ĩ
ĠÚ© Ø±Ø¯
ĠW ar
ĠáĢ ħ
Ġ×Ĳ×Ļ× ĸ
Ñĩ Ð¸
ĠØ´ ÙĩØ±
om i
Ú Ī
Ġb es
à¶ °
w ana
ÙĦÙī Ø±Ùī
à¨ ĸ
ĠS k
à¶ Ĥ
Ò» Ñĭ
Ù ĭ
à» Ģ
ev e
Ġv ir
Ġli f
à½ĺ à½Ľ
Ġáı ¥
Ùħ ÙĪ
t an
Ġà´ İ
Äģ n
ĠØ§ÙĦ ØŃ
Ġà¤ħ à¤°
à©ĭ à¨Ĥ
àª ļ
ÙĬ Øª
ĠÙħ ÙĤ
à¾³ à½¼
Ġo ver
Ø¯ Ûĩ
ĠL u
Ġ4 5
Ġa li
it as
ĠÐº Ð¸
Ð½Ñĭ Ð¼
ÙĦ Ø§Ùħ
áģ Ĭ
ad r
Ġn anga
om p
qu es
oc k
ĠÑħÑĥÑĮ Ð»Ñĥ
ç ½
Ġg w
ĠM us
ich e
ĠÊ» i
à¸· à¹Ī
et ti
ĠH ar
æ Ĭ
áĥ ĳ
ĠÐ± ÑĥÐ»
ÐµÑģÐ¿ÑĥÐ±Ð» Ð¸Ðº
ĠÐº Ð°Ð»
m b
m ar
Ð¸ ÑĨ
Ø³ ÙĬ
à¥ĭ à¥¤
áĥĿáĥ ¡
l ov
ÐµÑĤ Ð¾
áį £
ĠØ¨ Ø§ÙĦ
Ð Ĵ
à¾² à½º
ë Ŀ
ĠÐ±Ð°ÑĢ Ð°Ð¼
o te
Ó§ Ð´
Ġd on
Ġg l
ĠÐº ÑĮ
Ġà¤¸ à¤¨
å± ±
d d
Ġàª ¶
Ã¢ i
Ġ áŀĬ
ĠH er
g ar
g al
áİ Ń
.. .
Ġà¹ ģ
ìĸ ´
Ġn t
Õ¡Õ ½
Ġay isyen
ad as
ĠW a
Ġnj Ã«
j n
Ġg el
Ġà® Ĩ
Ñĭ Ñĩ
ti ca
Å¡ e
ĠÐ¼ Ð°ÑĢ
áĬ ł
f s
Ġs Ãª
Ð¾Ð» Ð°
Ñĳ ÑĢ
Ø ¥
ë ¦¬
ĠÐ¿ Ð¾Ð´
ĠÙĪ Ø±
Ã¦ r
Õ¥ ÖĢÕ
Ġáĭ Ń
Ġn et
ÐµÑĤ ÑĢ
àº²àº Ķ
Ġ ÅĤa
Ġr oku
áĥĶáĥ łáĥ
à²¦ à²²
à° ¬
es p
à· ģ
áıį áİ¬
Ð°Ð» Ð°Ð½
Ġà§ ¨
ĠÐ¼ Ð°
ĠÐ¾ Ð½
Ġd engan
ĠC ol
à©Ĥ à©°
è §
Ð» Ð°Ð²
Ġg er
Ġes te
ÑħÐ°Ð½ ÑĪ
Ùī ÙĨ
3 6
Ġm em
Ġn in
ad d
ult ur
Ùħ Ùĩ
ok i
est o
19 7
ë Ĥ
Ġn or
à° ¶
Ġ200 2
id ade
w u
ĠØª ÛĴ
k at
Ð» ÐµÐ´
it Ã©
ĠN i
ow n
v et
Ġà Ń
Ñĥ ÑģÑĤ
ĠÞ Į
ĠØ³ ÛĴ
Ð¸Ð¹ Ð»Ð°
Ä±n Ä±n
9 0
en ce
Ġh is
à¤ª à¤°
an an
Ġs te
Ø§ Ø³Øª
Ú ķ
à§ ĥ
ÏĢ ÏĮ
ĠÙĬ ÛĲ
à¶ ¢
ç ©
ÃŃ t
ut o
n Ã©
Ġan i
A l
Ð°Ð» Ð´
Ġb eg
Øª ÙĪ
Ã» n
é ¦
Ġt ip
Ñį Ð¶
ant es
Ġas in
ĠÐĲ ÑĢ
ç¬ ¬
Ð½ ÐµÐ½ÑĮ
à¤° à¤¦
Ùĩ Ø§ÛĮ
ĠÙħ ÙĦ
Ñĭ Ñĥ
Ġk ul
Ġc al
ä» £
s z
à½ĸ à½Ļ
×Ļ× ¢
à½Ĥ à½ĵà½¦
Ð¸Ñģ ÑĮ
t ar
Ð ĺ
Ó© Ð³
r ist
é ¡
àµį .
Ġm Ã¡
Ġv el
Ġr Ã©
s on
áĥĶáĥ Ĺ
ĠÅ ŀ
ĠÙĪ ÛĮ
ĠÙĪ ÙĬ
ĠÑĤ Ð°Ðº
Ġ6 0
à¬ ļ
Ð» Ð°Ð¼
Ð¾Ð² ÑħÐ°
à¬ ı
Ġv ÉĻ
Ø§ÙĨ Ùĩ
ĠØ¬ Ùĩ
ÑģÐº Ð°
è ¶
Ġk ana
ut s
Ð» Ð¾Ð²
Ġc y
Ġc re
æ ¥
Ð½ Ð¾Ð³Ð¾
ĠØ§ Ú©
á» §
Ð½Ñĭ Ò£
ĠÎ¼ Îµ
Ġg re
u er
â ģ
é Ł
j as
à¥ ¨
áĥ §
ĠK e
yd d
ber g
Ö ·
Ñĸ Ñģ
å ģ
ÑĤ ÑĥÑĢ
à§ ¨
Ġdi g
è Ń
Ī ëĭ¤
Ð° ÑĦ
ĠÚ© Ûķ
ÚĨ Ùī
à¾Ĳ à¾±à½º
Ġ à½£
Ð½ Ð¾Ð²
ĠG re
Ġ200 3
Ġy w
II I
t ur
ĠÐ ĸ
áŁ ĥ
Ġà° ¦
iy o
Ø§Ø º
âĢ İ
Ġáĥ £áĥ
å ķ
Ã¼ k
ÛĮØ§ Úº
å¾ ·
Ġng an
ut u
yst em
j el
à° ľ
Ã¤ i
al li
Ġc ir
ĠO s
ĠSa int
Ñĥ Ð¹
c an
Ð¸ Ð¾Ð½
Ġe e
Ġs or
ÙĬ Ø¡
' d
ÑĤ Ð¸Ð½
Äį i
ìĿ ¸
Ġáİ¾ áİ
Ġm ol
Ġà¤¬ à¤¨
3 9
o ch
Ïģ Î¹
à¥ģ à¤Ĥ
Ġpro v
Ġlif ay
3 8
ĠÑģ Ðº
ãĥ »
at ik
àª ĸ
ĠM u
Ġê °
Ġh ot
à¾ ¦
Ð°Ñģ Ñĭ
Ġ× Ĺ
à¶º à¶ļ
Ġà¤¤ à¤¥
à¸± à¹ī
ĠÑĥÐ³ Ð³Ð°ÑĢ
Ġd il
Ġc ent
Ġá į
Ã¡ v
Ñĥ ÑĥÐ´
Ġv is
ĠÚ ĺ
ĠÙĪ ÙĦ
ĠØª Ø§
ĠÕ ¶
Ġpro p
à¤ ĺ
Ùħ Ûķ
ri ch
Ġac c
im al
Ġper i
igh t
c l
y g
Ñģ Ð°Ð½
Ġáĥ ¤
áĥĺáĥ ł
Ġ3 5
è ²
ang e
Ú ģ
à½Ĥ à½ı
ĠC a
z h
Ġes ta
ĠÒ ¡
Ġm ah
à½ĺ à½Ĩ
Ġpr z
ĠA k
Ä ©
à¥ ī
ĠF o
æķ Ļ
Ġngwag eng
Ġh ag
×Ļ× §
6 5
Ġm eg
end er
ep t
ĠáĢ ģ
ĠØ§ÙĦ Ø¨
Ġk in
ÙĨ Ø§
ÙĨ ÙĪ
or es
h al
Ġd isi
Ġh od
à¤° à¤µ
ĠÃ ī
Ġàªķ àª°
ov an
og o
Ġt rans
Ġà² ¶
Ġà¬ ľ
ÙĨ ÙĬ
à§ ª
Ã¡ ng
Ð¸Ð½ Ðµ
ud en
Þ «
id u
éĥ ½
ÛĮ Úº
ÑĬ ÑĳÑģ
b re
l eri
r in
Ġl et
il is
æĿ ±
ë ł
Ã¡ g
å¤ ©
c is
l ag
u te
Ä ¾
Ġk ang
ĠÐ Ļ
Ġt sa
ĠÃ «
Ñĭ Ð±
Ġn em
ĠÄ Ĺ
Ú ļ
ch h
ĠÚ© Ø§
k m
ic an
áĥ ¥
Ġg ran
Ð°Ð» Ð°ÑĢ
ãģ Ĥ
Ġ199 6
Ġp lu
áŁģ áŁĩ
à¬ ¯
à¥ĩ à¥¤
é« ĺ
ch o
Ġ18 5
áı ±
3 7
Ġr oz
ĠB i
ĠR eg
Ġà¬ ĵ
Ø´ Ø±
ĠÑĥÐ³Ð³Ð°ÑĢ Ðµ
Ġ 000
Ġim p
ÑħÐ°Ð½ÑĪ ÑĭÐ²
Ġm ez
ĠÙħ Øª
Ġà¬ ¤
Ð¾Ñģ Ñģ
ç ı
Ġà® İ
Ġc as
aga i
áĥĶáĥ Ľ
àº²àº ģ
Ġny ang
Ġe f
ĠA p
Ġun e
ĠJ a
Ġna v
Ġà¥§à¥ ¯à¥
it at
âģ ¿
4 9
st itu
ĠÎ ³
ÄĹ n
ãĤ ī
ĠØ¦ ÛĲ
çĲ Ĩ
Ġ áŀĶ
it ion
ic u
Ġun n
æĸ °
Ġn eb
ĠÐ±Ð°ÑĢÐ°Ð¼ ÐµÑħÑĮ
ÙĦ Ø§ÙĨ
Ñĸ Ð¼
j in
Ġd Ã¤t
Ġl eng
ĠW al
àº ®
ĠG i
à²¾ à²Ĥ
èĩ ³
Ġw u
áŁ Ģ
Ġl ok
Ð¾ÑĢ Ð´
Ø± Ø§
Ġà® ī
çī ©
ĠÚ© Ø§ÙĨ
àµģ .
Ð½Ñĭ Ð¹
Ġad alah
w n
ë §
am es
Ġy er
Ã¨ l
×ķ× ĳ
åı ¯
çŃ ī
Øª Ø§Ø¨
Ñı Ð»
Ġì Ħ
Ġpro vin
Ã©g Ã²
l em
l ing
à¸ ĸ
ĠM ed
el as
ak ar
Ġqu i
Ġs os
Ġà¶ »
Ġb ab
ch u
ĠB ur
Ðº Ð°ÑĢ
es se
ĠÃ Ħ
Ñĸ ÑĤ
Ø¨ Ø¯
ĠÙĨ ÛĴ
é »
il iz
ĠÑĤ Ð°ÑĢ
áī ¸
Ġ Ð°Ð¶
Ġh as
um p
Ġno ch
ÚĨ Ûķ
Ġe h
Ð¸Ð» Ð¸
ĠJoh n
Ñģ Ð¿
Ã© d
im ent
Ñİ ÑĢ
Ġs itu
ĠÑĤ Ð¾
áº Ń
c on
m at
ì Ĭ¤
Ñį Ðº
ĠÃ ¬
Ã¦ Ð³
Ġes s
ie j
Ð¸ ÑĦ
Ġr ok
ĠP as
ĠL and
la q
Ġà° °
ÑĢÐ° ÑĦ
r d
à¬ Ń
Ä± z
Ġà´ ĩ
Õ¸Õ ¾
Ġr om
Ġp us
Ġk Äģ
Ġh uk
Ġà¦ ¥
Ġ× ĺ
à¯ Ĥ
ĠÐ² ÐµÐ»
è Ĳ
Ġk g
ĠØ¨ Ø¹Ø¯
Ġma j
ëĿ ¼
Ġd ah
il t
ĠD isi
Òĵ Ð°Ð½
Ġáĭ¨ áĪ
Ġt y
Ġà² Ī
ĠV en
ãĥ «
ÉĻ s
ÛĮÙĨ ÛĮ
ubl ic
r ik
an ya
Ġp ay
3 4
i w
Ġf ac
n en
Ð´ Ð°Ð³
ĠS ay
ap at
ÑĭÐ½ ÑĭÒ£
ĠÎ Ń
Ø§Ø ·
Ð´ ÐµÐ½
ÙĪÙĨ ÙĪ
å Ķ
Ġt ha
ĠS ur
ÑĥÑĢ ÑĤ
Ð¸Ð» Ðµ
ç ¦
al u
ut t
ĠÑĤ Ðµ
v or
Ñ £
âĢ ĺ
om en
ãĤ Ĭ
at l
ap e
ĠÑį Ð»
Ġc at
Ġo v
ĠÐ¸ Ð»
Ġst ud
Î½ Î±
Ð° Ñŀ
Ġn ord
áĥĲáĥ ¢
ĠÙ¾ ÛĮ
Ġk ra
ÓĻ Ð»
Ì Ħ
à©Ī à¥¤
uk e
Ú¾ ÛĮ
ÑģÑĮ Ðº
h am
ir k
om as
Ûĩ ÙĦ
×Ĳ ×ľ
ĠÐĲ Ð¼
Ġd un
à² Ń
Ġb ro
ãģ ĵ
ĠÐļ ÑĬ
Ġfamil ia
Ġà¦ °
ãģ ķ
ĠáĬ¥ áĬķ
p s
Ò ·
Ø¯ Ø§Ø±
Ġa ch
ÓĻ Ð¹
Ġáĭ Ī
Ġent re
Ġn at
Ñĸ Ñĩ
Ø² ÛĮ
¶ Ģ
Ġp ob
ci o
ter a
as te
à§ «
ĠÑģ Ñı
Ûĩ ÙĨ
ens us
Ġb it
or ia
ĠÐ» ÑĬ
ÛĪ Ø±
Ä Ŀ
Ġàª ²
ãģ ĭ
ì ĺ
Ġn ake
à¾ «
Ġna j
ĠØ¬ Ø§
Ġes c
ilip inas
Ġa yns
ĠR us
Ò» Ð°
æĽ °
Ġde i
Ġà¨ Ĩ
Å¯ m
áı ĥ
ĠØ³ ÙĨ
áŀ¶ âĢĭ
×ķ× ŀ
Ġfr om
é Ĺ
Ð²Ð» Óĵ
g n
ç ·
ì ļ
Ð» ÑįÐ½
ĠÐ± Ð¾
Å¡ a
Ġáī °
4 7
Ġ à½Ĥ
Ġt ang
ç º
ar ia
Ġáİ ¨áıĴ
Ġch a
áĢ ĺ
on y
Ò¯ Ð¼
Ġfran c
3 1
k y
Ġp ost
Ġn ÃŃ
Ð± ÑĢ
à½² à¼į
à¤¤ à¤®
st er
Ġë §
Þ ¯
ê ¸°
Ñģ Ðµ
ĠÚ ķ
ĠÐº Ð¾Ð´
à½ĳà½ĸ à½Ħ
Ġg j
Ġì Ĺ
Ó ±
Ġà² Ń
Ñİ Ð½
Ġn Ã¡
ur d
ÐµÐ½ Ð°
Ġpr ed
Ġ8 0
Ġà¬ı à¬¹
Ġv or
ĠÎ ½
Ġar a
ong a
Ð¸Ñĩ ÐµÑģÐº
Ġnake uh
à¤ Ĩ
Ġáİ ¬
Ġta e
å¹ ³
Ġg Ä§
Ñĩ Ðµ
Ġis s
áıį áıĽ
éĿ ¢
à¯į ,
Ġà¶ ĩ
av e
ĠX I
Ġt ri
ĠA ustr
Ð°ÑĤ Ð¸
ogra f
Ġh in
ĠM or
ÐµÐ½ Ðµ
Ġs ed
Ġs hi
ãĤ Ĥ
áº ¥
Ġ Æ
Ø§ÙĦ ÛĮ
h l
st an
Ð¾ÑĢ Ð¼
ä½ į
Ġà¤ ĵ
Ø¯ ÙĪ
uk an
Ġà¬ Ĩ
Ùģ Øª
éĢ ļ
à¤ ħ
Ġm ut
áĢ Ĵ
am s
Ø¨ ÙĬ
Ġà´ ļ
ich a
ĠÐ¿ÑĢ ÐµÐ´
éķ ·
Ġà¦ħ à¦¨
åĸ º
ëı Ħ
3 2
k as
in es
ab e
Ð°ÑĤ ÑĥÑĢ
ÙĤ Ø§
ä» ĸ
is p
is se
Ġr u
ĠÐº Ó©
st o
å° ±
ĠØ§ ÙĬ
ĠÐĲ Ð½
ĠÕ ¿
à·Ĵ .
t l
Ð Ķ
Ġà¬ Ń
æľ Ģ
Ġkom p
ĠC an
res s
çĶ ±
áī¸ áĭį
r ad
Ġn eg
ĠÛ Ķ
ĠØ¯ ÙĪØ±
Äķ ÑĢ
Ġs ti
ĠG a
ÑģÑĤ ÑĮ
à» Ĥ
áĥĺáĥ Ļ
ÏĦ Î±
Ġr ed
ĠØ¨ Ø§Ø´
Ġáİ ª
Ġê ²
áĥĶáĥĳ áĥĺáĥ¡
ĠÒ» ÓĻÐ¼
Ã ¯
in al
ĠD an
à¸£ à¸²à¸
è· ¯
à¥ ®
Ùħ Ø±
ĠD er
Ġ199 1
ĠP al
az z
Ġ Öĩ
es o
ÑĢ Ð°Ð»
re y
Ġ198 0
Ġáı¥ áıĦ
j em
Ã¼ nd
Ġma o
¡ à¼
Ġd ok
it et
àª ·
Ã¢ u
19 5
k om
ç ¤
Ġa ur
åħ ¨
Ġt em
Ġà¤Ĩ à¤¹
éĩ į
n et
Ġc ur
à¾Ĺ à½ºà¼ĭ
ÑĢÐ¸ÑĤ Ð¾ÑĢ
å ¦
à½ĸ à½ĳ
à¾² à½²à¼ĭ
Ð¸ÑĤ ÐµÑĤ
Ġà¤Ĩ à¤¨
ĠÃ¦ Ð¼Ã¦
à¾· à¼ĭ
Ġl am
ĠÃ ¢
Ġt ok
ĠK u
Ñ Ľ
ĠÞ ĥ
ĠÐ¸ ÑģÑĤ
Ġ201 6
ĠK an
d yr
n am
Ġáı §
Ë Ī
ë ©
Ġc Ã³
Ġz iren
Õ¸ ÖĢ
Ù ¼
Îµ Î¯
Ø® Ùĩ
ĠÑį ÑĤ
Ð½ Ð°Ð»
Ñĭ ÑģÑĤ
à´ ¹
Ġt se
Ġm emb
ĠA f
ĠØ§ÙĦ ÙĤ
Øº Ùĩ
æĺ İ
y ar
Å ¥
Ġk las
ĠÙĩ ÙĨ
Ġsu y
Ġáĥĵ áĥĿ
è¦ ģ
ì Ľ
Ġt ag
ĠØ³ Ø§ÙĨ
ĠØ¬ ÙĨ
áº ½
åī į
Ġ Õ¡Õ
Ġd ol
Ġn ot
ĠÒ ³
h er
Ġs ÃŃ
Ñĸ Ðº
w ang
ĠÐ¸ Ð¹
Ø£ Ø±
ä¼ ļ
3 3
ir an
ĠÐ± ÑĭÐ»
à° ·
à± Ĭ
Ġà° Ĩ
åĽ Ľ
åĮ ĸ
Ġ =
Ġv ari
ĠB al
Ġvi Ã°
áİ ¨
ĠF or
ĠÕ £
ĠÙĥ Ø§ÙĨ
z er
Ġde v
ÐµÑģ ÑĮ
t re
Äĩ i
Ð¡ Ðł
4 6
Ġt it
à¦¼ à¥¤
ĠÊ» o
ÑĭÐ³ ÑĬ
ur an
Ð¸Ñĺ Ð°
Ġs un
ÙĪ ÙĪ
ÑĭÐ½ Ð°Ð½
áĢ¾ áĢŃ
nd r
Ġd re
ÛĮ ÛĮ
Ġun t
Ġn ing
Ġl im
Ð± ÑĥÑĢ
Äĥ Ð½
åº ¦
Ñ Ļ
Ġi di
ĠÐº Ð°ÑĤ
áĢ± áĢ«
Ð¸ Ðµ
Ġp el
ap p
le x
Õ¡Õ ®
Ġk ut
áı ı
Ġà´ Ĩ
à¤ĩ à¤²
b al
ĠáĢ ĳ
s y
ÑĢ Ñį
åħ ĥ
m m
Ú¯ Ùĩ
ĠØª Ûķ
à¤¨ à¤²
ĠÎ ĳ
Ð¾Ð² ÐµÑĤ
hi ch
³ Û
æ ĵ
à¦¾ à¦Ĥ
Ñĸ Ð·
áŀĵ áŀĢ
Õ ¤
Ġà¦ ĵ
å® ļ
àº ¼
as y
ir u
×Ļ× Ĳ
Ġà¤¸ à¤°
Ã© ro
Ġà² ²
ĠI r
æ ı
Ġb or
ĠM art
j al
in da
à¦° à¦¹
ĠJ os
áĬ ¨
ÙĪØ± ÛĮ
Ġno h
Ġ ÓĢ
Ġp ov
Ġ× ª
ap an
à¾² à½¼à¼ĭ
åĲ İ
Õ¸ÖĤÕ©Õµ Õ¸ÖĤÕ¶
h n
ĠØ¯ ÙĦÙĩ
à»Ģàº Ľ
åĬ ł
Ġw ak
ĠM at
Ġs ich
Ġr Äģ
ÙĤ Øª
èĥ ½
Ñĭ Ñı
Ġà¦ı à¦ķ
Ø² Ùī
ÙĪÙĨ ÛĮ
ì Ļ
ig u
end i
ĠK om
Ú© Ùĩ
Ã¢ l
it or
Ġw erd
Ġpro gr
ation s
Ġl Ã©
Ġv um
re z
Ã¦ Ð¼
Ġáı Ħ
Ġn ad
Ġe p
Õ¥ Õ¶
Ïĥ Î·
Ġ199 8
ĠÐŀ ÑĢ
Õ¥Õ ¿
ĠÎ± ÏĢÏĮ
el m
el y
Ġna p
áĪ ª
ien e
e x
Ð» Ð¾
Ð³ Ð¸
ĠM ag
ĠáĢ ĸ
à½ħ à½ĵ
4 2
ìľ¼ ë¡ľ
ĠØ¨ ÙīØ±
ĠÑı Ð½
ĠÛ±Û ¹Û
ĠÐ±Ð°ÑģÑģÐµÐ¹ Ð½Ñĭ
c er
Ġs ob
ĠD em
ĠP ir
ic ip
Ġx e
Ġ à½ĺ
Ġl ug
ĠÐº Ð¾ÑĤ
Ð± Ð°
æ ®
Ã¨ h
Ð°Ð³ ÑĮ
Ø§Ø¯ ÛĮ
ĠÙĬ Ø§
Ġt Äģ
Ġe c
od d
ĠH an
Ã¼ t
Ø§Ø¦ ÛĮ
éĸ ĭ
è £
ãĤ ¤
à¾Ĳ à½´à¼ĭ
b ur
on ia
Ġna f
ÑģÐº Ð¸Ð¹
Ð¸Ð» ÑĮ
Ġáı ĵ
à±ģ .
at es
Ñį ÑįÐ½
us u
Ñĸ Ñı
ÑģÑĤ Ð°Ð½
Ïģ Î¿
ud d
åĲ Ī
Ð £
ÑĢ Ð¸Ð½
um u
åĽ ł
Ã¼r k
w s
Ð· Ðµ
Ñĩ Ñĭ
ĠÕ ©
Ð¾Ð¼ Ð¸
Ġ196 0
ĠP op
og u
Ġ3 00
Ġ7 0
Ġsu yu
åı Ĭ
ĠÏĦÎ· Î½
ngi Ã¨n
ĠN ov
ĠÙħ Ø³
åĪ ©
ä½ ¿
Ġm Ã¡s
Ġo c
ĠâĢ Ŀ
å» º
A r
am ba
ĠW est
áĥĲáĥłáĥ Ĺ
l ak
Ġl om
Ġ×ĳ ×Ĳ
ĠÙĥ ÛĲ
Ġtah un
. "
Ġt im
ĠK al
ĠO p
Ð ĵ
à¥ ©
Ã´ n
b it
b ol
d ÉĻ
Ñį Ò»
ion es
ĠV ol
ĠØª ÙĬ
ĠÂ »
7 5
ÙĦ Ø±
ãģ¦ ãģĦ
w el
à¥ «
Ġà¦ «
Ã¨ re
à¸Ļ à¸Ĺ
Ò³ Ð¾Ð¸
v is
Ú ı
ĠÙħ Ø¬
Ġad minist
ç ¸
ul d
ĠP ort
Ø¨ Ùĩ
à¯ģ .
áİ¦ áı
Ġt Ã©
Ġi p
Ġat t
om s
à¤² à¤®
4 3
em m
ov er
à³Ĩ à²Ĥ
Ġes p
Äĥ ng
áĮ ¥
Äĩ e
. :
ĠM ac
ud u
ĠÞ Ĳ
ĠU r
ç ģ
à¦ Ļ
Ġs es
at en
à§ ©
à° £
Ã¤ nd
mi ÅŁ
Ġ áŀŁ
áĭ ³
Ġspe cies
ez i
ul ag
ug h
Ġha e
Ġà¦¸ à¦®
èĪ ĩ
åŁ İ
ĠAfr ika
Ġd op
Ġs uk
Å¡ u
ĠIn tern
è ¼
áĥ ¬
Ġast ero
Ø¯ ÙĬ
Ã³ s
Ġ197 0
ĠD es
Ì¤ -
j ed
o ol
æ ĥ
à§ ¬
Ġà¤ħ à¤Ń
Å¾ i
à§¦ à§¦
h y
Ġp in
Ġm y
ĠK iba
Ġàª ĸ
Ġh ann
ĠÃ ĸ
Ð°Ð½ Ð¸Ñı
ĠCh ar
ÛķÙĪ Ûķ
Ġn un
Ġh Ã¨
Ġi Ã§
ÐµÑĢ Ð³
h in
Ġ áŀĸ
Ġs w
Ġg al
ÑĮ Ñħ
Ä± na
ĠC or
ĠJ ac
ĠÑĢ Ðµ
Úĸ ÙĬ
ĠT u
×Ļ× ĵ
Ġar y
Ġd im
ak una
ĠÐĲ Ð·
Ð¸Ð¹ Ð³
an ia
Ġd est
Å« s
k et
ing en
l im
r im
ĠØ ¶
Ġb ek
Ð² Ð¾ÑĢ
ay s
Ù Ģ
à· Ĥ
×Ļ× ĳ
Ġ18 0
Ã¬ ng
Ġ199 2
¡ Ù
ad t
Ġj isk
à§° à¦¤
19 6
r em
ÓĻ ÑĤ
ÑģÐº Ð¾Ð¹
n j
ne y
à¨¿ à©°
à¥ ¬
àª ¬
à½ĳ à½Ģ
ÃŃ m
×ķ× ¡
Ġ194 5
à¾¡ à½´
Ġd ans
ĠÚ ī
ĠÐ½ Ð°ÑĢ
az a
Ú ¤
am ar
ÑıÐ½ ÑĮ
n in
Ġk ing
ĠP or
o on
Ġc m
Ġdi b
ĠØ¨ ÛĮØ±
ĠÙĨ ÙĪÚº
×¢ ×ľ
Ġpers on
à¬ Ĥ
eg en
ÑĭÐ½ Ñĭ
à¸Ľ à¸£à¸°
Ġà¦ľ à¦¨
un an
Ġz v
à¤¸ à¤®
Ø§Ø± Ø¯
ter i
ĠÑĪ Ðº
Ġà§ °
à½Ļ à½ĺ
æ² »
4 1
Ġs it
w y
à¥ ª
ĠÑĤ Ò¯
ÑĥÑĤ ÑĤ
Å¡ i
á»į n
Ø§Ú »
ĠÑĤÐµÑĢ ÑĢÐ¸ÑĤÐ¾ÑĢ
am at
ent s
Ãł i
Ġwa ar
z Ã«
Ġb ez
Øª ÙĬ
ĠØ§ ÙĪÙĦ
st it
à¥ģ à¥¤
Ġs Ã¨
ĠB en
ĠZ e
éĩ Į
è ī
Ġo le
ÑĮ Ñı
à¤ķ à¤²
ï¼ Ľ
ĠÐ¿ÑĢ Ð°Ð²
×ĳ ×¨
ÑĪ Ó¹
ci Ã³
ĠÙ »
à´¨ à´¤
à¶± à¶º
ĠY ork
Ñĥ Ñİ
Ġh istor
yn da
Ø¤ ÙĨ
å Ĥ
Ġme i
æĲ Ń
à° §
ik al
ĠP e
ĠT er
ĠR om
Ú© Ú¾
Ġ×ķ ×ķ×¢
å¸ Ŀ
Ġgen er
Ñĩ ÐµÐ½
à¸ ©
ÑĪ Ð°
ÃŃ k
Ø¨ ÛĮ
ĠÐł ÐµÑģÐ¿ÑĥÐ±Ð»Ð¸Ðº
ëĵ ¤
g es
ë ħ
ĠÐ± ÐµÐ»
Ġà¦ª à¦°
å° ĩ
u je
Ġáĥ ¥
ÃŃ g
çī ¹
4 4
Ġà ³
ÑĤ ÑĢ
Ä± nd
sk o
Åı h
Ġsup er
Ì Ĥ
Ð¸ ÑĨÐ¸
ud o
9 5
Ġl ag
Ġ ;
áĥĺáĥ ¢
ĠÙĤ ÙīÙĦÙī
Ķ áıħ
ĠB as
Ã³ m
ni h
b at
m on
Ġdi al
íķ ´
ĠáŁ Ķ
ig en
áĥĺáĥ Ŀ
ÉĻ l
ament o
w r
Ã¤ ng
ĠI II
ig an
Ġund er
Ò¯Ò¯ Ð»
t Ã«
Ġp ak
iv er
ar u
el er
Ñĸ Ð¹
Îµ ÏĤ
ĠÊ» a
àº· à»Ī
ç¾ İ
g l
Ġc á»§
ĠL es
Ì Ĩ
Ġcon c
à¾Ĳ à¾±
Ð¾ Ñŀ
Ġz i
n is
ĠÙħ Øµ
ĠE v
áĥĺáĥ Ľ
ĠÙĨ ÙĪÙħ
Ġ×ĵ ×¢×¨
Ġfam ili
ĠR ob
Õ¡ Öģ
ĠÐ¼ Ð°ÑĤ
Ð°Ðº ÑĬ
áĥ£áĥł áĥĺ
áĥĲáĥ ª
ĠÙħ Ø§
Ġcá»§ a
) :
Â «
Ġm ens
Ùī Ø³Ùī
ĠL os
n im
ag iti
ta v
ãĥ ©
Ð°ÑĨ Ð¸Ñı
Î¿ Î»
Ġgen us
Ġs at
er ia
Ġk ien
ĠB ro
ĠÐ¸ Ñİ
f ik
Ġme in
ÙĪ ÙĤ
à¨ §
åħ ±
ĠFran k
st ru
up e
àºĽ àº°
ĠÐ±Ð°ÑģÑģÐµÐ¹ Ð½
Ġà»ģ àº¥àº°
ĠÑģ Ð¼
ĠÐ± Ð»Ð°
ĠÐ¿ Ð¾Ñģ
äº Ķ
ust ri
r ia
Ġv en
ĠK at
Ġáĥ ®
op p
% ,
Ġp ass
Ġg Ã¶
ĠL ond
áĪ °
Ò» Ð°Ð½
u ti
Î ¾
ĠÚ ģ
Ġáĥ ¢
áĭ Ī
Ġáİł áıĵ
Ð ¨
Ġj an
Ġà¬ Ĺ
ÑĬ ÑĢ
Åį ng
à¤® à¤¨
ung a
ïº İ
ÐµÐ½Ð¸ Ðµ
å£ «
j ek
al ista
àª ĵ
ĠU m
y na
Ġs j
Ġ( "
Ä± lÄ±
Ïİ Î½
Ġf ak
Ġpr om
is mo
ãģ Ļ
Ġs as
Ġt id
un di
Ø³ Ø§ÙĨ
Ġ199 4
Ø§Ø±ÛĮ Ø®
ê³ ¼
as c
áĪ ī
Ð°Ð¼ Ð¸
æ ©
à½Ĥ à½ĳ
ìĹĲ ìĦľ
ÈĽ i
as o
ch d
un u
ĠÃ į
à²° à²¤
ÉĻ t
ÑģÑĤÐ² Ð¾
es c
am er
áĥĶáĥ Ŀ
ĠÐ¶ Ð°Ð½Ð°
áĥ£áĥ ľ
ĠÐŀ Ð±
éĸ ĵ
s in
Ġo ut
à¤° à¤¯
ĠM ay
ĠN ord
ĠH ol
Ð°Ðº ÑĤ
g ol
Ó ¯
or y
ell o
it ti
ĠM il
Ã§ on
ÙĦ ÛķØ±
Ûĩ Ù¾
Îµ ÏĦ
Ð» ÐµÑĢ
Ġb ot
ist er
áıį áıĵ
pe cies
und o
çĻ ¼
Ġn is
Ġl laq
ĠA v
ĠK ab
Ġt in
Ġà° ľ
áĥĺáĥ £áĥ
ĠÄ Į
ÑĤ Ð¾Ð½
il ay
à¥Ģ .
Ð°ÑĢ Ð¸
ist o
ĠÕ ¢
ĠÕ «
d Ä±
Ð¸Ð¼ Ð°ÑĤ
" )
Ð ¤
Ġs Ã¶
Ð°Ð» Ð´Ð°
ĠØ¨ ÙĦ
Ġz w
Ġu ut
Ġq ab
ĠO b
Ġbul an
Ġ &
ÛĮ Ø¯
à´ ľ
ba a
ÄĹ j
un k
à½ĸ à½¤
ou v
à¸ŀ à¸£à¸°
b all
à¤µ à¤²
×ķ× ¤
Ġ ï»
Ð¾ ÑĦ
Ð¾ÑĢ Ð¸
Ġv ed
8 5
Ġk es
ĠS ar
Ð°Ð¹ Ð½
ĠÐ³ ÑĬ
ÐµÐ´ ÐµÑĢ
ĠáĪ Ī
Ú¯ ÛķÙĨ
Ð» Ð°Ñģ
ĠÐº ÐµÐ»
ĠØª Ø§Ø±ÛĮØ®
ĠÕ º
å¤ ª
Ġw h
ĠØ¢ ÙĨ
l is
Ġc el
àµ Ĭ
á» ģ
Ġdag iti
r am
ÑĢ ÐµÐ¼
iv o
Ġfor ma
å° ı
Ġáĥ¬ áĥĲáĥľ
Ġnoh anga
ah n
ĠÐ¿ ÑĭÑĢ
à¦ ł
Ġg ad
Ġà¨ĩ à¨¸
à§ Į
Ġi h
à¸Ĥ à¸Ńà¸ĩ
Ġch h
áī Ģ
Ġpro t
è¨ Ģ
n ia
à§ ®
ac a
Å¾ e
ä½ ¢
Ġc amp
à¤® à¤ķ
áį į
çĽ ¸
Ã©ro id
ĠÐº Ð¾Ñĺ
ic s
×Ļ× ¡
ÑĢ Ð°Ð·
Ð¾Ð½ Ð³
áĬ Ľ
Ġà¤§ à¤°
ĠÃº t
r al
Ġen e
Ġb ik
Ùħ Ø¹
ĠM ont
ĠØ§ÙĦ Ø¬
l ed
Ġa ma
Ðº Ð¸Ð½
Ġà¤® à¤§
à¤· à¤£
Ġà¶ļ à¶»
ģ áģ
il ik
Ġf at
ĠA y
im m
ĠØ¨ ÙĬ
×Ļ× Ĵ
Ø´ ÙĨ
ĠÙĨ Ø§Ùħ
åħ ī
Ð» Óĵ
Ñį Ð±
im u
ta b
Ãª s
Ġ9 0
on an
Ä± p
à²µ à²¨
Ã© ra
à¥¦ à¥¦
áĥ¨ áĥĺ
Ġb ed
ĠW ik
Ġst ad
æľ Ŀ
e ch
ĠM ak
áī ħ
à¾Ĺ à½º
Ġde ur
ÑĪ Ñĭ
ĠÐ² ÐµÑĢ
Õ¡Õ ¬
Ġà¨ķ à¨°
ãģķ ãĤĮ
Ġn en
ĠS eg
Ġà² ļ
ĠÚ¯ ÙĦ
å¤ ĸ
ĠA w
à¤¯ à¤¸
Ġast Ã©roid
al la
ĠS tr
Øª Ûķ
Äĥ m
ier t
Ġ199 3
èª ŀ
ulag way
ÑĢ Ð¾Ð½
Ġs ul
Ġw Äģ
ĠA ug
Ġì ĭ
Ê» i
Ġà¦ı à¦ĩ
Ġd om
Ġs Ã³
ÑĤ Ð°ÑĤ
Ñĥ ÑĥÐ½
ĠØ¯ ÙĬ
ĠÐł Ð¾ÑģÑģ
ĠAmer ika
Ġ×Ķ×Ĳ ×ĺ
Ġà¦¬ à¦°
v ers
Ð² Ð°Ð¹
ĠM ad
Ñı Ð·
à¤¦ à¤°
Ġë ĭ
Ġa j
à³ ¦
Ġg ore
ent es
Ġar g
Ã² l
ar am
ÙĪ Ú©
Ġr us
ĠT ha
æŃ ¤
Ġk ok
is ion
iv i
ne i
àº± à»ī
Î ¶
Ð» Ñİ
à§ §à§
Ġc er
ĠS en
Ġsa i
Ġwa a
ĠAn t
Ġim port
Ð½Ð° Ñı
à¹Ħ à¸Ķ
àº²àº §
Ä± Ã±
ĠÙħ Ø´
Ġ×Ĳ ×ķ×Ļ×
Ġdep art
ĠÃ ¹
ĠÐ³ Ð°Ð·
Ð¾Ð´ Ð°
w at
Ġb ang
yn y
âĢĿ .
Ġà° ¤
ÐµÑģÑĤ Ð²
ĠØ§ÙĦ Ø³
à¦¨ à¦°
ung s
å® ī
Ġà²® à²¤
Ġà¤ ł
Ġp ort
id os
ĠC al
re k
ÙĦÙī Ùĥ
Ġ×¤ ×Ĳ×¨
r n
Ġs Ãº
Ä± w
ĠL ib
ĠØ¨ ÛĲ
áĥĲáĥ ¥
Ġ199 7
ÛĨ Ø±
Ø§Ú µ
Ġ×¢ ×ľ
r om
Ø§Ø± Øª
áĥĶáĥ ĵ
ĠØ¦ ÛĮ
Ġin te
ÑĪ Ðµ
ÑĭÐ» Ñĭ
åĬ Ľ
Ġd Ã¶
Ġk op
el li
à¤° à¤¹
Ġun u
agh t
ar ch
Ġb ha
Ġà¦ ĸ
Ġ3 6
9 9
Ġt Äĵ
it he
ĠP i
á» Ľ
Ó§ Ð¼
Ñļ Ðµ
Ġ Ð°Ð¿
ol ah
à½Ĥ à½Ħ
ĠÑģ Ð°Ð¼
ĠV i
Ġap r
áİ¾ áı
Ñģ Ñĭ
g y
à§ Ń
en cia
Ġde f
Ñı Ð¹
re a
à¤¸ à¤¨
Ġal g
Ġà¤Ń à¤¨
ĠÐ³Ð¾Ð´ Ð¸Ð½Ð°
Ġd or
ab o
ĠÙħ Ûĩ
Ġu b
ĠÅ Ľ
c om
áĥ ŀ
ia u
ĠV ir
Ð¸Ð» Ð°
Ġter rit
áĢ Ĥ
ĠØ °
ĠG ro
ĠÎ £
Ġgr and
à¸ ĺ
ad em
ĠA ir
ÑĥÐ» Ð°
Ġwat akuna
8 8
áĥĺ áĥĲáĥľ
Ã¥ n
£ ¼
Ĳ ĺ
ÑĤ Ó¥
at ed
à½ĸ à½ı
ĠC l
ok s
Ð¶ Ðµ
ow e
Æ°á» £
Ġj ach
ĠF ri
Ġàª¹ àª¤
° áİµ
Ġs ie
àº ĸ
Ġg es
Ð¸ÑĤ ÑĮ
ìĭ ľ
ç ±
ow y
d y
l j
áŀ ¡
Ãª ng
all y
ĠÅ Ħ
Ð°Ð½Ð´ Ñĭ
ÐµÐ¼ Ð°
ÄŃ ng
Þ ĸ
áĢ Ł
àº ¶
ĠÐ± Ñĭ
Ð¾ ÑĨ
Ġt sh
em es
Ġan c
Ã¢ ng
å· ¥
Ġb and
Ġe y
ĠØ¨ ÙīÙĦ
ãĥ Ī
ĠØ ¤
Ġp asa
Ġo Ê»
ĠS er
ĠE x
Ú¯ ÛĮ
Ġ199 5
à½Ĥà½ŀ à½ĵ
Ġd ins
in te
Ġb id
Ðº Ð¾Ð½
ek tr
Ġà° ļ
b ay
Ġm w
Ð´ Ð°ÑĢ
Ġv Ã¤
ĠÐ± Ð¸
ĠØ¨ Ø§Ø±
Ã³ g
Ã§ Ã£o
Ð Ľ
it en
Ġf Ã¼r
Ġm ÄĽ
Ġk ant
Ġc entr
Ġáĥ ķ
à¤ª à¤¤
æľ Ł
à½ §
Ġa ug
Ġr ap
áı Į
Ñı Ð²
Ð°ÑĤ Ñĭ
×Ļ×Ļ× ł
çĦ ¡
d om
Ġis ang
Ð ¥
Ð°Ð» ÑĭÐº
ĠG ra
Ð½ Ð¾Ð¼
Ġg ew
ne j
Ã½ ar
áº §
Ġà²® à²²
è¡ ¨
j oni
Ŀ i
ad Ä±
Ø¯ Ùħ
ĠÙħ Ø§ÙĨ
ob o
Ġvo or
Æ ¡
ar te
Ø³ Ø§
ĠD av
áĪ ³
Ġres p
ĠÐ¹ÑĭÐ» ÒĵÐ°
Õ ¬
Ð°Ð» Ð°Ð¹
áĥĺ áĥĲ
ĠáĢ Ĩ
Ġko ji
Ġm ur
Ġb ay
Ġan ti
ĠÕ ½
ĠØ¬ Ø§ÙĨ
Ð²ÑĢ Ð¾Ð¿
l ab
à´ ¥
ent u
áŀŁ áŀĺ
ĠÊ» oku
at ura
Ġg inh
Ġi ÅŁ
ĠØ§ ÙĪÙĨ
b as
à³į âĢį
ĠK i
Ġà¥ §
ĠÑĪ ÑĤÐ¾
ÑĥÐ³ Ð°
è ¬
in ne
Ġs ang
eb ru
Ð°Ð· Ð°
Î· Î½
on na
Ġf ur
ing e
Ð°Ðº Ñģ
à½ħ à½ĳ
ed ik
Ġar m
×¢ ×Ŀ
Ġma is
l t
ÙĨ Øª
Ġx o
àº» à»ī
l eg
¸ Û
Ġa uf
ĠD u
Ġà¤ħ à¤¤
à½Ĳ à½ĺà½¦
áĢ¯áĢ¶ áĢ¸
7 6
ë ³
Ġs id
à¸ į
it ate
Ġf ol
Ġz um
ĠÐ¿ Ð°ÑĢ
ĠÙĨ Ø¸
Ø² Ùĩ
Î» Î»
Ġt w
Ġb ana
à´ ´
Ġna z
Ð¸Ð½ ÑĮ
Ġda i
áĮ ł
Õ ¢
æ º
ë ŀ
à¬ ĸ
Ã² n
Ø¬ Ø§
àºģ àº²àºĻàº
Ù Ķ
ë į
ar g
ir m
ĠÕ ¤
ib en
Äĥ ÑĢ
Ġnah il
ĠM os
à© ľ
ub e
Ġka o
alak ip
Û į
ar is
Ġl og
Ġv Ãµ
Ġà¨ Ń
à¤¸ à¤°
ec e
ĠÎ ľ
Ġà° ²
ÑĥÐ½ Ð°
Ġà´İ à´¨
Ġà¬ ¯
isch en
Ġaf o
Åı ng
çĦ ¶
ÑĥÐ½ Ð´
áĢ¼ áĢ±áĢ¬
ï¯ ©
Õ £
Ġl is
ĠV a
áĥĶáĥ ļáĥĺ
Ù ł
os o
ĠØ³ Ø¨
Ġì ĺ
5 5
Ġk ons
Ġf yr
ĠP at
Ġd j
en za
Ġk uma
ing i
æĭ ī
Ġnahil alakip
Ġt et
Ġà¬ ¶
Ò¯ ÑĤ
Ġng on
à¤¡ à¤²
Ġ à½ģ
Ø¯ Ø§ÙĨ
Ã© u
à½ĺà½Ľ à½ĳ
Ġ +
à° ¥
ĠÙĦ ÙĦ
à´ķ à´³
Ġit u
Ø§Ø¯ Ùĩ
æĿ ¥
Ð² Ð°Ð»
Ð¾Ð² Ð¸
Ġê ³
éģ İ
Ġn ui
Ġb iy
ãĥ ª
æ± Ł
ĠwÄģ hi
k ol
Ġm Ã¼
it ed
Õ¡Õ £
Ġ áŀĺ
er ne
Ġm ir
it l
à¬ Ĩ
Ã© p
ĠJ u
Ġer u
Ġ196 2
èĭ ±
á¸ į
à¤¤ à¤ķ
Õ« Öģ
ÑįÑħ ÑĬ
ìŀ Ĳ
ëĤ ĺ
r Ã¡
Ġb ie
æŃ £
ĠÔ ±
) ØĮ
h et
ÑĢ Ñĭ
on de
Ġh y
àºĻàº Ĺ
ĠÐ¹ Ð¸Ñģ
w al
à´ ¬
ch n
Ġmun icip
ÑĤÐ¸Ð½ ÐµÐ½ÑĤ
ar in
ik in
ag an
Ð¾Ð½ Ð°
est er
áī ±
Ġastero id
9 6
v ol
el es
Ñħ ÑĥÐ·
à¤µ à¤¯
ĠÐ¼ ÓĻ
Ġà¤¸ à¤ķ
ÙĤ ÙĦ
Ûİ Ú©
on ne
ĠÚ ı
te k
ĠÙħ Ø¦ÙĨ
ÐµÐ½ Ð¸Ñı
Õ¸ ÖĢÕ
Ġfo i
Ġk it
Ġh Ã¤
ĠØ§ Ù¾
Äģ m
Ġal bum
åį Ģ
b b
Ġv it
Ñį Ð¿
ĠØ¨ ÛĨ
ĠØª Ø¹
any e
Ġà¸ ŀ
àºª àº°
Ġ Ð°Ð³
ÑĢ Ðµ
Ġk em
Ġb ur
un o
ĠD ist
ĠK h
ah o
Ġ5 00
Ã¹ n
Ã¹ ng
ch en
ĠÎ ·
ĠØ´ Ø±
ĠÐĿ Ð°
à¦· à¦°à¦¤
f at
Ð» ÑĭÐº
à¨ ħ
Ġf ut
ĠN ap
uk s
bo chi
à¹Ģ à¸£
an na
áŀ º
on da
ÛĮ Ùħ
ĠT or
Ã¢ r
ØŃ Ø¯
v es
Ġd ob
on te
à½ ¨
am in
Ġcont ra
ĠØ§Øª ÛĴ
ĠÐºÐ» Ð¸Ð¼Ð°ÑĤ
Ġm and
ÙĪ Ø´
ĠÎ ¤
Î¯ Î½
9 8
el u
Ñı Ð´
ra in
ri p
ĠU k
áŀļáŀĶ áŀŁ
i ent
Ġp ul
un c
ĠÑģ Ð¾Ð½
n es
è ĳ
Ġun ivers
Ġcom un
Ġso ci
Ġ×ķ ×ķ×Ĳ
Ġs Ã²
wa i
Ø§Ø¦ ÙĬ
ĠNg wag
Ġpro c
Ġk ot
ri j
Ġà¤ Ŀ
Ġf und
Ġà¦ Ľ
ĠG en
Ġà¤ħ à¤ª
ĠØ¹ ÙĦ
Ġest as
ĠÅ ģ
ä¾ Ĩ
Ġngwageng k
è ´
ĠÐ¼ Ñĥ
Ġ×¦ ×ķ
Ġprin cip
an c
an z
ers ch
ow s
ny m
Ð½ Ð³
ĠK as
Ã¦ s
è Ĥ
Ġ $
ÑĤ ÑĭÑĢ
Ġb ut
Ġáĥ ª
uk t
á» ±
Ġàº ģ
æŀ Ĺ
à¦ī à¦¨
ĠÐº ÑĥÑĢ
ĠÚ© Ûģ
ÑģÐº Ð°Ð¹
Óĵ Ð»
Ġt eng
Ġv il
Ãł l
Ġus ka
Ġp Ã¶s
à§ §
Øµ ÙĦ
l ay
Â ¬
Ġn ek
ĠÐ´ ÐµÐ¿
ast illa
Ġfr ug
Ġ195 0
Ġà§§à§ ¯à§
in ter
ÑĤ Ã¦
à¾ Ń
ĠÃ ŀ
Ùħ ÙĬ
Ð¾Ð½ Ð¸
ĠÃ¤bin on
Ġà¹ģ à¸¥à¸°
Ġf ev
ed o
à³ģ ,
Ê» u
âĢĿ ,
Ø±ÛĮ Ú©
Ġà°ī à°¨
ĠpÃ¶s od
y in
Ġ Å«
Ġn al
ĠM el
ag g
Ð¹ Ð»
ãĤ ¯
Ġunt uk
å¥ ½
ĠÐ¿ Ð¾Ð²
ir in
Ã´ t
Î½ ÏĦ
Ġlom ane
Ġp ur
Ġg ur
eg u
ĠÎ ļ
ĠØ§ÙĦ ÙĨ
Ġ198 9
åĭ ķ
à¾Ļ à½²
ĠbÃ¤ld oti
Ġlifay elas
l ie
p et
Ñĸ ÑĹ
ĠE t
Ġ×Ĳ ×ª
ak k
Ġáİ §
Ãº s
ond o
Ð¾Ðº ÑĪ
Ð°Ð»ÑĬ ÑĥÐ»
Ġàªı àªķ
Ġd ay
Ġl it
ĠC i
iz z
Ð½ Ð¸Ð¹
Ġr iv
Ġi de
ĠC at
Ġz en
à»į à»Ī
Ġ Ð°ÑĪ
Ð¾ Ðµ
ÙĪ Ø§ÙĨ
ĠÑ Ķ
ĠC ha
ĠÑģ Ð¾Ð»
á» ĥ
Ġáĭ ĵ
Ġà¦ª à§°
Ġsub s
Ġk ia
ĠÙ Ĳ
Ó§ ÑĢ
ÙĨÚ Į
Ġr ay
à¯ Ģ
ĠH u
ĠÑİ Ð¼
Ġginh ulagway
Ġw is
ĠØ§ ÛĮÙĦ
Ġà¨ «
Ġà¤¯ à¤¹
Ġà¤ĩ à¤¸
áĥ ª
Ġa le
il ia
ÐµÑĢ Ð¸Ðº
ãģ£ ãģŁ
ĠÑıÐ½ Ð²Ð°ÑĢ
9 7
il s
Ã¶r d
af t
Ġreg ion
ç ł
à¦ ŀ
Ġk ub
op a
ÏĮ ÏĦ
ÑĤ ÑĭÐ½
Ġb az
à¤¨ à¤®
ĠÐº Ð°Ðº
Ġà¦ı à¦¹
ĠÙħØŃ ÙħØ¯
à¸ ľ
ĠÑħ ÑĮ
Ã¥ r
ÑĨÐ¸ Ñĺ
à§ ¯
ĠÙĩ Ø±
éĽ »
ç į
in ing
ap o
Ð¸ÑĢ Ð¸
Å¯ w
ç ³
Ġt amb
à¨ ĩ
ĠÑĤ Ñĥ
Ã¼ ÅŁ
àª® àª¨
a qa
à¥ Ń
os tr
Ð°Ð´ Ð¸
Ã½ Ã¤r
ãģĹ ãģŁ
Ġáĥł áĥĶ
Ġs ik
il er
ĠÐļ ÑĢ
à²¯ à²¨
ĠØ® Ø§ÙĨ
n om
Ġh im
ĠÐº ÑĭÐ»
Ġm ad
Ġm ab
ĠM et
Ġng Äģ
×¤ ×¨
d ar
Ġh am
à© Į
à½£ à½ĺ
le c
Ġà·ĥ à¶¸
ĠÐ¾Ðº ÑĢÑĥÐ³
ç ®
en k
áŀ Ĩ
à¤Ł à¤ķ
Ġà¥¨ à¥¦à¥
ê² Į
Ħ ì
ch it
ĠÎ ł
ij o
ĠáĪ µ
à¾Ķ à¼ĭ
Ø³ Ûķ
Ġàº ª
ea e
æ ģ
ĠS ant
and u
Ġà¤ķ à¤¥
Ġà¤ª à¤¨
Î± Ïģ
áĥĿáĥ ĵ
à®µ à®°
em at
Ġan u
iz e
Ç «
Ġt om
Ã© ho
ĠÑģ ÐµÐ¼
Ġu f
ĠÐ¾ Ð·
áĭ ĭ
Îº Îµ
ÙĨÙĩ ÙĨ
c ol
Õ Ŀ
Ġi da
ĠÑģ Ð¸ÑģÑĤ
ib i
ĠÐ· Ð°Ð¼
äº ¤
Î¹Îº Î®
à¤¤ à¤²
um m
éĩ ĳ
lar y
ĠÐºÐ¾Ð½ ÑĤÐ¸Ð½ÐµÐ½ÑĤ
ĠNgwag ak
Ùī Ø±Ùī
ĠÑĢ Ð¾Ðº
an ce
ĠÙĨ Ø§ÙĦ
ĠÐ±Ð¾Ð» Ð³
æ¼ Ķ
Ġv id
and er
ĠÐ¸ Ñģ
à´Ļ à´³
å§ ĭ
as ar
Ġc ul
Ġu bochi
ĠÐ´ Ð¾ÑĢ
à²° à²£
ĠØª Ú¾
ĠÑĪ Ñĥ
Ġum a
Õ¥Õ ½
q an
Ġn ar
is o
Ä± k
ĠÙĩ Ø³ØªÙĩ
Ġà§ «
omin ina
Ġáİ¨áıĴ áİ¢
n ie
Ġn og
ÙĪ Ûķ
ĠM i
ta h
ĠâĢ ĭ
×ķ ×Ļ
Ġcom e
Ġgod ine
Ġà¦ĩ à¦²
Ġà¶ ī
áĬ «
Ð¸ÑĢ Ð°
Ġd ha
en y
Ð´ Ð¼
à½Ĥ à½Ļ
ĠT ar
ra c
Ñĸ Ð½Ñĸ
à¸Ń à¸Ļ
ĠÃ¾ Ç£
Ġn it
å Ħ
Ġv ia
ĠB or
Ġdi ff
ig g
ĠÙĤ Ø±
9 2
ÑĤ Ð°Ð»
Ð¾Ñģ ÑĮ
% )
7 8
Ġ ÑįÐ½
Ġt hi
Ġm Ã©
ch er
Ðº ÑĢÐ°
ÓĻ Ðº
åĭ Ĵ
h Äģ
n it
Ġn Ã©
àª Ń
Ġf Ã¶r
ĠÐ´ Ðµ
áĥĶáĥ ¢
åħ µ
Ġ×ĳ ×ŀ
Ġà¤ı à¤µ
em u
ĠP et
ab in
ĠE k
Ġà¤¤ à¤ķ
Ġil i
ÙĪ Ø§
et u
Ġw hich
ĠØ§ ÛĮØ±
ĠØ¯ ÛĲ
à½ĺ à½Ĥ
ÐµÐ» Ðµ
Ã´ i
Ġs á¹³
Ġp ad
is u
Ġr ek
áĥĺáĥ ª
Ê¼ Äħ
áº¡ i
Ġm oo
à¸ ł
Ġà¨ ļ
Ø¨ ÙĦ
Ð¾Ð³ ÑĢÐ°ÑĦ
ÐµÑģ Ñģ
j adi
áı Ł
åİ Ł
à¸ ĵ
ĠÑħ ÑĬ
Ã² un
ep h
Ûİ Øª
s er
v ir
Ġs ag
ic as
or u
Ġw ier
us k
à¤ļ à¤¨
à¬ ¼
Ðº Ñĭ
ĠS m
ĠS w
ĠP an
ĠÐº ÐµÑĢ
ĠÐ· Ð°Ð¿
yn yÅĪ
Ġve ur
ĠÃ¶ z
ĠInd ia
ĠbÃ¤ld ot
al ch
ĠB ul
ĠÑĤ Ó©ÑĢ
ĠÐ¸ Ðº
ä¹ Ŀ
Ø¯Ùī ÙĥÙī
Ġs ind
Ġl in
Ġb ev
à° ¹
Ġi ki
ĠØ§ Ùĩ
em o
ent er
Ġà° ¬
Ò¯Ò¯ Ð´
Ġs Ä«
ĠÑģ ÐµÑĢ
àŃ Ĥ
ov o
Ġ3 2
ac ion
Ã° a
Ġà¶ĩ à¶Ń
h ol
Ġm j
ĠN u
st en
Ġal le
ÑįÑĢ Ñį
áĢ¾ áĢ¬
à½ĸà½ħ à½¦
k n
à¨ ¥
Ø¨ Ø§Ø±
ind ÉĻ
à¹ĥ à¸«
k hi
Ð¾ Ñİ
al y
ĠÐ¼ Ð°Ð»
Ġ×Ĳ ×ľ
Ġë ĮĢ
áŀĦ áŀĢ
Ġsh ek
ÑĤ Ð°Ð¹
à´ ŀ
ang o
ÑĨ Ðµ
Ġka ominina
à¸Ħ à¸£
Ġl ik
à´ Ń
el ik
ĠØ§ Ø¹
ĠØ§ÙĦ Ùĥ
ÙĪØ± Ø¯
Ġà¤ī à¤¦
à»Ħ àºĶ
ãģĤ ãĤĭ
Ġch o
iv u
Ġ3 8
i ja
r ÃŃ
un de
Ġc ant
ak at
áĥĲáĥ ĸ
ĠÐ¼ ÑĥÐ·
Ġà´ Ĵ
b il
æ ¢
Ġl s
is ka
ĠØ§ Ø¨
ĠÐ² ÑĭÐ»
ÑįÑĢ Ð³
à¸Ń à¸¢
hen ua
à½ĺ à½ł
ÑĭÑĪ ÑĤÐµ
ĠÐĵ ÐµÑĢ
Ġc it
Ġh ini
ah r
Ã§ Ã§
Ġq Ã«
à«Ģ ,
ĠÎ½ Î±
ìĻ Ģ
j at
n ar
n ÄĽ
et ta
id ir
ÑģÐº Ð°Ñı
à¸Ń à¸ģ
Ġbe i
d r
n og
w Äģ
Ġr ak
ĠB an
ĠT s
re v
ani i
ĠÅ ¼
asa un
Ġbil en
im in
ãĤ ¢
Ġà¤Ĩ à¤¦
ĠÐĶ Ð¶
Õ¸ÖĤÕ©Õµ Õ¡Õ¶
èµ ·
ÑħÑĥÐ· Ð°ÑħÑĮ
6 8
g eb
m ann
ĠM er
id an
áĥĺáĥ ļáĥĺ
oc a
é £
Ī ĺ
al ity
el k
Ġr ob
ĠÐ² Ð¸Ð´
Ġam er
Äĵ ng
Ġad d
Ġà¦ı à¦¬
ult ura
é ¢
Øª ÙĨ
ĠÚ© Ø¦
ĠW illi
à¶Ń à¶»
Ø´Øª Ùĩ
ÙĦ Ùģ
Ġg Ã¶r
ĠB ak
ÑģÑĤ Ð¸ÑĤ
ap t
áĥĿáĥ ķ
Ġwe er
y Ãª
à¥ĩ ,
ri v
land s
ï¼ī ï¼Į
ĠÐºÐ¾Ð¼ Ð¿
åİ »
an as
à» ľ
ÐµÐ´ Ð¸
ny ch
æ¬ ¡
èĻ Ł
áĪ Ĩ
×ķ× Ŀ
ãĤ Ī
ÓĻ Ñģ
Äį k
à¤¶ à¤¨
ä¼ Ĭ
ç¶ ĵ
Ġp ut
Ñĸ Ð»
ok an
Ûĩ ÙĤ
Ġof f
×Ļ×Ļ× Ł
Ö ¸
Ñģ ÑĭÐ½
Ġl ist
Ġin to
ĠÙ¾ Ø§Ø±
Ġ3 7
Ġs yn
à¤° à¤Ń
ĠS el
áĭ ļ
Ð¸Ð» Ð»
Ġon t
Ġre f
Ñĭ Ðµ
Ġin n
Ð¸Ð½ Ð¸ÑģÑĤ
Ó© Ð¼
Ġbo Ê»
Ġfo ar
åĴ Ĺ
ĠGer man
Ġà®İ à®©
' '
n as
Ġa ast
Ġv y
id s
Ġna ch
Ð¾Ð² Ð°Ð½
à¤Ĺ à¤²
Ġcon tr
à¹Ģà¸ Ķ
ÐµÐ½Ð´ ÓĻ
z z
ĠÚ© Ùħ
Ġà¶ Ĩ
ĠO k
Ġáİł áıĤ
Ġek onom
ĠÚ¾ Ûķ
Ġkad agiti
t at
ĠB l
sk u
ip i
Ġod er
æ° ´
à¦ «
ad es
ÐµÑĢ Ð°Ð½
ĠÐ´ Ð·
ĠØ¨ÙīÙĦ ÛķÙĨ
c ul
Ġb os
Ġw id
us ta
Ã© es
ĠÐ¿ Ð°ÑĤ
Ġà¬ ļ
Ú© ÙĬ
áĥĶáĥ ķ
à¦¨ à§°
ĠPar is
Ġl ong
Ġj ndr
ĠJ an
ĠÑħ Ð°ÑĢ
åħ ĭ
Ïĥ Îµ
Ġop er
æĶ ¹
á»Ļ t
Ġole h
n at
t li
æ ·
is sa
Ġc chi
Ñı Ð±ÑĢ
ĠÛĮ Ùĩ
e i
n je
à² ĸ
Ġt ou
à¬ Ľ
à¬ ł
à¤ª à¤®
Õ¸Õ ²
6 7
h at
Ñģ Ð¾Ð½
Ø± Ùħ
Ġh and
à¤¸ à¤Ń
Ġà¶ ¢
äº ¬
Ġà¤ī à¤¨
ĠX X
k il
p end
w in
Ġp Ã¤
ij u
ĠÓ© Ð»
ë °
Ġb ok
Ñį ÑĪ
ãģ ¾
Î¹ Î¿
ĠÐ±Ð¾Ð» Ð¾Ð½
à½ĸà½Ļ à½ĵ
h m
Ġv eg
Ġr en
ang i
ĠH en
la c
ĠÐ³ Ð°ÑĢ
ann ya
Ġ198 8
ÑĢ Ð¸Ðº
as u
ĠÐº Ð°Ð½
Ġit ali
Ð¡ Ð¡Ðł
ĠCom p
f ol
ÑĬ ÑıÑģ
Ø Ľ
Ð¼ Ð°ÑĤ
ĠB ir
ĠÚ© Úĵ
Ġà´ ī
Ġà´ ľ
à¤Ĺ à¤¤
à¨° à¨¤
æĽ ¸
N E
l ish
Ġt lh
à¤¯ à¤¯
ĠN eder
a e
í ĸ
à½ ±
Ġt Åį
Ġm am
ÐµÑĢ Ð°
ĠØª Øµ
Ġì Ĥ¬
áĥĶáĥĳ áĥĲ
ĠØ¢Ùĩ ÙĨ
é ©
ĠÃ ľ
ĠL or
eb ut
Ġdo or
ä» »
à¨¼ à¨¾
ÑĢ Ð°Ð´
ab an
ĠF in
ĠØ³ Ø±Ùĩ
g b
Ġn atur
ÙĨ ÛĴ
ĠÙħ Ùĩ
Ġu u
Ã¼ s
ev er
Ġë Ĥ
¤ áİµ
ç ²
is an
ib ot
Ã½ m
Ġit s
Ġ194 0
Ð°Ð½Ð³ Ð»
Ð¾ ÑģÐº
ar c
et y
ÙĬ ÙĪÙĨ
ĠS he
Øª Ùħ
ti f
à¤¯ à¤°
ang g
Å¾ en
Ġ Ð°Ñħ
ĠÑģ Ð°Ð»
×Ļ ×ķ
Ġt ir
Ġm ok
Ġk os
ĠÑħ Ñĥ
Ġà¤¬ à¤¹
Ġter m
ĠÓ© Ð·
ÑįÑħ ÑįÐ¼
éĺ ¿
Ġp on
Ġv ez
áŁ ı
ĠØ¨ ÙĪØ¯
Ġu ff
ĠØª ØŃ
ĠÐļ ÑħÑĥÐ·Ð°ÑħÑĮ
Ġon d
aj u
m Ä±ÅŁ
n ji
Ġ ill
Ġt l
ĠÙ ¡Ù
à¤² à¤¬
Ġle b
Ġdes c
ĠÐ±Ñĥ Ð¾Ð»
Ġ×Ĵ×¢ ×ķ
Ġbag ian
Ġd ens
Ġà¦ ¡
Ú© ÙĦ
eb r
Ġni an
r ind
Ġk Ã¤
Ġg ol
ĠS ol
ĠK ur
ĠØ¨ Ø§Ø²
ut en
à½ĺ à½ĳ
ĠR os
Ú© Ø±
à¤£ à¤¨
åº ľ
Ġdist rito
Ġg ant
ÙĬ Øº
×Ĳ ×ŀ
Ġor ig
Ġ×¢ ×¨
è ¢
em en
à¤² à¤¨
ĠÄ ĵ
ali f
à¶º à¶±
Ã± u
åŁ º
Ġs ira
Ñģ ÐµÐ½
Ġv r
ri ek
áŀĺ áŀĢ
Ġà¬ª à¬°
b or
Û ²
æ Ł
es han
ri o
ib li
j is
Ġlab ing
Ġsuy upi
Ġe pi
ĠS am
Ùħ Ûĩ
ra a
ĠÑħ Ð°
Ø¦ ÙĦ
Ġtaki wÄģ
å Ŀ
Ġs he
Ġh or
ik s
id ente
ãģ Ĩ
Äģ k
áİ¾ áİ¢
è» Ĭ
k r
è ½
ar b
àŃ ¦
àºĤ àºŃàºĩ
Ġd ak
ĠD at
Õ¸ Õ¶
Ø§Ùħ ÙĦ
ĠY n
Ġà¤¯ à¤¸
Ġáİ¢ áİ¦
å ¢
Ð½ Ð°ÑĢ
Ġi ku
ĠÐ´ Ð»Ñı
ĠØ§ÙĦ Ø¯
ÑģÐº Ð¾Ð³Ð¾
Ġà¤Ĩ à¤°
ĠÃ ¸
Ġr oman
Ġch Ã¬
Ã¦ Ð´
gan iz
Ð½ Ð°ÑĤÐ°
Ġs il
Ġs ci
Ñģ ÑįÐ½
Ġk Ã²
al in
Ġf el
ers te
ÑĦ ÑĤ
Ġa ve
Ġp ÅĽ
Ġb est
Ġb iz
or ge
ul an
Ð°ÑĤ Ð¾ÑĢ
ÙĤ ÙĬ
Ġp ic
à³ ĥ
à¤° à¤¨
Äģ r
Ãº ng
åħ Ń
Ñĳ Ð½
ãģĻ ãĤĭ
Ã¼ d
áĥĶáĥ ¨
ĠÐ³ÑĢ ÑĥÐ¿
ÑģÐº Ñĸ
à¤Ł à¤¨
ĠMar ia
Ġáİ¢ áı³
ëħ Ħ
ÃŃg ÃŃÃŃ
o a
p ol
u el
Ûķ Ù¾
ÙĤ Ø§ÙĨ
Ġis h
Ġab it
à³į ,
ro v
ĠÄ Ĳ
ÑįÑĢ ÑįÐ³
Ġpar l
á¹ Ń
Ġà²ª à²°
Ġ15 0
æĦ ı
Ġ áŀĤ
Ġp Ãª
Ġm os
ĠÙħ Ø®
ãĥ ĥ
åı Ī
àºŃ àºģ
Ġkom un
Ġê µ
Î¼ Î±
×Ļ×Ļ× Ŀ
á¸ ¥
æ ħ
Ġdi pl
ab u
ĠG reg
ap it
Ġà¤¶ à¤¹à¤°
Ġtemp er
ĠEurop a
åł ´
is en
as ion
ÙĪ Ø§ÙĦ
Ð°Ð» Ð»
áĪ ©
ĠÑĩ Ð°ÑģÑĤ
ind en
ĠÑı Ð·
Ġva an
6 6
ĠC er
ÙĤ ÛĮ
ĠØ¦ Ø§ÙĦ
Ġà¨¹ à¨¨
Æ°á»£ c
c ta
d al
Ġáĥ ļ
ĠÐ¼ ÐµÑĤ
ĠÙ¾ ÙĪ
áıį áıĻáıĹ
ea u
å¿ ĥ
8 9
x o
ro t
áĥĲáĥ Ĵ
ĠÊ» e
à¸Ķ à¸¢
I n
ĠM ah
Ġà¤ķ à¤®
×Ļ× Ł
ÛĮÙĨ Ú¯
ich te
ĠÏĥ Ïħ
à¾Ķ à½¼
Ġt um
Ġp ir
Ġn im
ĠØ§ Ùģ
Ð°Ð½ Ð´Ð°
ĠÑĤ Ò¯ÑĢ
ĠÐ´ Ñĭ
Ø² Ø§Ø±
ÛĮÙĨ Ùĩ
Ø§Øª ÛĮ
Ġsubs pecies
al ÃŃ
Ð´ ÐµÑĢ
Ġy on
ĠØ¯ Ø§Ø±
áĥĺáĥ łáĥ
ĠÑĪ Ð¸Ð¹Ð»Ð°
ĠÃ± iq
Ġc z
Ġà¤¸ à¤¹
ÙĪØ± Øª
à½ĸà½Ł à½Ħ
Ø§ Ú¯
Ġw ay
ot u
ec k
Ġ4 4
Ġpal ibot
ĠA ri
Ġà° ĩ
ĠÙĨ Ûģ
Ġno ho
zi un
áį Ī
ĠWar ay
Ġm Ã«
Ġn os
at z
Ġr est
à¶ ³
Ã¡ ra
áĪ ¥
Ã¢ m
Ġdel la
Ġq a
Ò³ Ð¸
ĠPa ul
à³Ĩ ,
ä¹ ĥ
ĠÐ° ÑĮÑħ
Ġ197 5
k ur
ç ¯
Ġr in
ĠÐ¿ Ð°Ð´
ĠÙĬ ÙĪ
ÄĽ t
ä½ Ĩ
à½ĺà½ļ à½ĵ
ï¼ļ ãĢĮ
a ut
Ġd oc
Ġk up
Ġf re
Ġì ľ
à¾Ĵà¾± à½´à¼ĭ
v ed
Ġ iri
áĥ ¦
à¸ ĭ
Ġo lar
Ġo cc
om et
ĠÐº Ð¸ÑĢ
áĥĲáĥ Ļ
Ġse u
Ġáĭ «
à¦ľ à¦¨
p art
om at
uk o
à¦ĩ à¦²
ÐºÑĬ Ð°
ĠS on
os to
Ùī ØªÙī
ĠD ur
ĠØ´ ÙĬ
Ġ193 0
Ġáģ ģáģ
os p
ĠÐ½ Ð°Ð·
à¬ķ à¬°
Ġ198 6
ĠÐŀ Ð»
Ä±r Ä±m
ĠØ§ÛĮ Ú©
æĢ §
p on
Ġt as
Ġo tr
Ø³ ÙĨ
à²¤ à²°
th er
áĥĶáĥĳ áĥĺ
æ¸ ¯
Ġnak alista
Ġ Ö
à½Ĥ à½Ł
op o
Ġwur de
an ne
el f
ab le
áĢ± áĢ·
Ġcom m
uh an
ãģĹ ãģ¦
Ð» ÐµÐº
om m
áŀļ áŀĳ
åħ «
å ¡
Ġt ap
is on
or f
Ġy r
ĠD et
Ġàª ¥
ĠÐ¿ Ð¾ÑĤ
Ø§Ø ¶
ĠÑıÐ½Ð²Ð°ÑĢ ÑĮ
Ûķ Ùĥ
ĠR oma
Ġhav e
ìĺ Ģ
6 4
ĠS ta
ĠG l
ĠG al
od u
ÛĮÙĨ Ø¯Ùĩ
Ġà¤¤ à¤°
Î» Î·
Ġkat ika
ĠUnivers ity
Ø§ Ú¾
am as
Ġg eme
ĠÐ´ ÐµÐº
ĠF er
ud ad
ĠÞ į
Äĥ Ñħ
ĠáĥĲáĥ łáĥ
201 0
ĠÐ¸Ñİ Ð»ÑĮ
Ġcchi Ã¹
it r
Ø³ Ø±
Ñħ Ñį
çķ Į
Ġrah aa
ĠÚħ Ø®Ùĩ
ul le
Ã« m
åı £
Ġ198 2
Óĵ ÑĪ
å¦ Ĥ
Ġd Ã³Ã³
Ġn orm
Ġl Ã¶
à½Ĥ à½¡
Ñħ ÑĬ
he id
ĠØ³ ÙĨØ¯
ĠØ§ÙĦ Ø´
ba ch
ĠÐĳ ÐµÐ»
Ø£ ÙĨ
ĠÐĵ ÑĮ
ĠØ¨ Ø¯
Ñĸ ÑģÑĤ
à²¿ ,
ĠØ³ ÙĦ
Ð¾Ð² Ð¸Ñĩ
×ĺ ×¢×¨
ki i
oj n
ÙĨØ¯ ÙĪ
á»Ľ i
ĠÃ±iq in
Ġt at
Ġáİ ¡
Ġta un
Ó¹ Ð¼
olog i
j ÃŃ
Ð Ń
ar ak
Ġp Ã¤Ã¤
ĠE g
Ġà´ °
ĠÕ ¾
Ġdis c
ĠÎµ ÏĢ
Ġ áŀĳ
Ġm Ã¤
il u
ĠØª Ùħ
Ø¬ ÙĪØ¯
Ġak ka
Å¯ n
Ð°ÑģÑĤ Ð¾ÑĢ
Õ¶Õ¥ÖĢ Õ«
ì Ĥ¬
ĠÑģ ÑĭÐ»
Ø¨ Ø§ÙĨ
ĠR oman
ann an
t al
Ġ <
Ñĩ Ð¸Ð½
ac k
ĠØ´ ÙĪ
áĮ £
ĠÏĦ Î¿Î½
Ġo ok
Ð³ Ñĥ
Ġà¤¸ à¤¬
Ãł y
ib e
Ñİ ÑĤ
ĠØ¹ ÙĨ
Ġab baa
ÄŁ Ä±
Ġ192 0
Ġt á»
it sch
ĠS av
ĠD on
ot l
Ġu it
ĠØ³ ÙĨÚĮ
ĠÐŁ ÐµÑĢ
ĠÐ° ÑģÑĤ
ĠÃ¶ n
9 1
ë ¬
Ġa ti
Ġp eng
Ġg ir
Ġg ed
ĠC ast
åĳ ½
é ¤
Ġk ada
Ġc Ã¢
je v
à¸²à¸ §
à²¯ à²²
Ø§Ùħ ÛĮ
amb o
×© ×ł
ë ĮĢ
Ġp ublic
à¨ Ń
Ġde pi
ĠA pr
ul ui
ut er
áŀļ áŀĢ
ĠR ad
Ġsa c
Ê» e
Ð¾Ð³ Ð°
ĠáĪ ²
Ġà¸ ģ
ÙĦ Ùĥ
Ñħ Ð¾Ð»
ĠÐ¿ Ð°
ĠÐ¾ ÑĪ
ĠW il
Ġà¤ĩ à¤¨
ĠÄĳ Æ°á»£c
en se
à¤¤ à¤¨
Ġtr as
Ð½Ð¸ Ñħ
æ¥ Ń
ë ¶Ģ
Ġm ara
Ġo ba
Ġv iv
Ã¤ k
ĠÎ ķ
Ġel s
Ùģ ÙĬ
Ð¸Ð¼ Ð¸
àº° àºĻ
ÑĭÑĪ ÑĤÑĭ
Ġfev r
Ġp et
ĠÑĤ Ð¾ÑĢ
Ġà¤ķ à¤²
Äģ t
à²Ĺà²³ à²¨
Ġo h
ÑģÑĤ Ð²Ð°
Ġpro bl
à½ģ à½Ħ
ĠÐ³Ð¾Ð´ Ð°
5 6
Ġl iv
Ðº Ð°Ð·
ĠØ¬ ÛĮ
áŀļ áŀĦ
Ġje ung
à¸£ à¸¡
åĪ ¶
Ġpl us
ĠInd ones
m ak
Ġ Ïĩ
in is
ĠØ³ ÙĬ
ĠØ¦ ÙĪ
ow er
áģ ı
×Ĵ ×¢
à¾¡ à½ºà¼ĭ
Ð² Ðµ
Ġy an
ĠÐ± ÑĥÑĤÑĤ
Ġu ga
Ã¨ m
ist en
Ã¦ ÑģÑĤ
ĠIn ter
Ïī ÏĤ
ĠÐ´Ð¶ ÑĭÐ»
Ġs iy
Ġk v
Ġl ah
Ġh ay
à¤¿ à¥¤
ĠÐ¼ ÐµÐ´
ĠØ´ Ùĩ
Ġ×Ĳ ×¨
ĠØ² Ùħ
Ġprod uc
ĠÓĢ Ð°
Ġd Ã¤
Ġt Ã¤
ĠR i
Ã§ ion
Ġsu cc
ÙĨØ¯ ÛĮ
åĮ º
7 4
ĠB os
Ġà¨ ĸ
ek u
Ġà¬ ī
ĠÐ½ Ð°Ñģ
ÅŁ a
eb e
ma a
à¦¸ à¦®
à´ ¡
ĠK iben
ĠØ³ Ùħ
Ġst ol
ĠÄ ¯
ĠÙĦ ÙĪ
ĠÐļ Ð°ÑĢ
nd er
Ġil e
Ġfevr ye
è ı
ed s
à±ģ ,
éĢ ²
Ä¼ u
å ²
er in
à¬ ģ
ĠÐ± ÑĥÐ´
ÅĤ ow
ĠÂ ·
Ð¸Ð· Ð¼
Ġ197 9
æķ ¸
Ġn w
al am
Ġz oi
Ø§ÙĨ ÙĪ
Ġà¥ «
Ġseb agai
i Ã°
k astilla
Ġcon d
×ĺ ×Ł
åı ²
éĻ ¢
ĠÙ¿ ÙĬ
l Ã©
Ġd aga
Ġo ld
ĠØ§ Ø¦
áŁ ł
ag on
Ġfr am
Ġ198 7
ĠÐĺ Ð½
ĠAc Ã¨h
ĠØ «
Ġl id
us o
ro w
Ú© ÙĪ
Ġà´ ¬
Ġt Ã¡
Ġh Ã¶
ĠØ§ Ø¯
um o
ic os
ra h
ab b
ĠO d
up akan
las h
à»Ģàº Ĺ
esi es
çı ¾
Ð°ÑĤ Ð°ÑĢ
ĠÐ½ ÐµÐ³
áŁħ âĢĭ
Åº e
åĵ ¡
y ah
in um
Ùħ Ø§Ø±
ĠÐº Ð½Ð¸
ĠÑĤ Ó¹
T A
Ġd hi
à¼ ¡à¼
Ġn Äĥm
ĠJ es
ĠØ§ÙĦ Ø±
áĭ ¨
Ó§ ÑĤ
å· ´
T he
Ġs Ã¬
al it
Ġh ev
Ġv egn
ĠN am
ĠÙħ Ø¯
lar da
àª° àª¤
Ġper t
Ġáı¥áıĦ áıįáıĹ
Ú Ĭ
Ñģ Ð¾
Ġy ar
ĠT en
ĠÑģ Ð°Ð½
åı ¸
Ġab o
Ġmar c
ĠÐ¹ Ð¾Ð²ÑħÐ°
Ä±s Ä±
à¥į à¥¤
un ta
Ġi ma
ing ton
ĠÐ³ Ð¾Ð»
Ġem p
ì ¡
Ġd ru
ÑĢ Ð°Ð²
Ñı Ð»ÑĮ
le in
ĠF a
ĠØ³ ÛķØ±
ĠV e
Ġ194 1
Ġling ua
1 00
5 8
Ġh el
Ð°ÑĢ Ñĥ
ĠÐ¾ Ð½Ð´
yn n
åħ Ī
Ġsist em
Ġáĭ¨áĪ ļ
í ĥ
İ áī½
Ġà¦ ĺ
ĠM en
ĠÐĲ Ð²
Ġà¤² à¤Ĺ
Ð½Ð° Ñĩ
à·Ģ à¶Ń
uv o
Ġpat edik
Ġinc l
éŁ ³
j Äħ
s an
Ð¼ ÐµÑĤ
Ùī ÙĨÙī
ik ato
Ø§ÙĦ Øª
ĠU l
Ø¬ ÙĬ
ĠSan ta
s l
à¤ ĵ
Ġr em
Ġà¬ ²
Ð°Ð¹ Ð´
à¼į à¼į
ÙħÛĮ Ø´
Ġadminist rat
ĠS up
ĠÐ¾ Ð¿
×ķ× ¦
und u
à¬ĩ à¬¥
ãĥ³ ãĥ
5 4
6 2
ë ¦
ĠÙ ¹
Ġe o
ad ar
åĲ ĳ
ĠÐł ÑĥÑģ
ĠÑĸ Ð½
é¦ ĸ
ĠL ou
ĠK ir
sk im
ĠZ a
Ġ198 5
è Ĭ
Ġf ig
Ġà® Ĵ
ÑģÐº Ðµ
ÙĪÙĦ ÙĪ
Ġak o
ç Ŀ
Ñĭ Ñī
ĠS ud
ĠÐ½ ÑįÐ³
ĠÐ² Ð°Ð»
Ġes se
ï» ª
Ġáĥł áĥĿáĥĽ
Ġdiv ers
ÑĢ ÐµÐ´
Ġa la
Ġc iv
ĠP res
áĪ ®
ĠØ¢ Ø±
ĠÑį Ð·
c el
l ari
at ive
ol t
ab il
ri f
ĠÎ Ł
ĠØ§ÙĦ Ø¥
Ġart ik
Ġáİ¾áİ ¥
ĠXI X
è İ
ĠÐ Ĩ
Ġc in
à²° à²ķ
ĠÐ· Ð°Ð²
ĠÑĢ Ð°Ñģ
Ġ201 7
å° Ķ
æī ĭ
å» £
ĠÛ² Û°Û
áº¥ t
Ġp es
Ð´ Ñĸ
Ã© ta
ĠB ay
Ø¨ Ø§Ø¯
Ð¿ Ð°
ĠF ilipinas
à¹Ģà¸ ģ
ĠÃ¾ e
à±Ģ .
y at
Ġm ik
Ġk re
Ġb w
Ġr as
ri bu
Ġà¤¸ à¤Ń
ÐµÐ» Ð¸
à©ģ à©±
à¥ §à¥
er de
Ġl iter
Ð°ÑĤ ÐµÐ»ÑĮ
Ġ4 8
ĠØ¢ ÙĦ
×Ļ×Ļ× ĺ
å½ ±
S A
æ Ĵ
Ġw ere
ĠP u
äº ¦
å® Ĺ
Äĩ a
ĠÃ± u
nos ti
l oc
er u
Ġn ia
et an
ÙĤ Ùĩ
iz o
Ġà¤ħ à¤®
Ð½Ð¾ Ðµ
Ġeg y
' ,
S O
t y
Ġm á»Ļt
et en
Ġh om
ak h
ĠG h
ist r
ĠÙĤ ÙīÙĦ
Ġmu z
Ġata wa
k on
er te
ĠM od
Ñħ ÑįÐ¼
Å¡ ÃŃ
ĠÑĥ Ð¶
9 4
z ia
Ġd ro
Ġt ran
Ġde b
ĠE sp
ĠO t
ãĤ ·
Ûİ ÙĨ
Ġ194 4
à¸« à¸Ļ
å¥ ³
Ġìķ Ħ
A n
Å ĵ
ì ĥ
à½ĵ à½ĺ
Ø´ Ø§ÙĨ
ĠÑħ Ð¾
Ġà¤ħ à¤ªà¤¨
ĠÐ¡ ÑĤ
Ġë ı
áŀ¸ âĢĭ
ĠÐ¾Ð± Ð»Ð°
ĠÐķ Ð²ÑĢÐ¾Ð¿
à»ĥ àº«
7 2
n ika
an je
is ip
Ġv l
ab r
ĠÐ¿ Ð¾ÑģÑĤ
ĠÎ ²
ĠÐ¸ ÑĤ
ĠW or
Ġpr ime
äº İ
ĠÑı ÑĢ
à¸¢ à¸Ļ
ĠÐ°ÑĢ Ñħ
çķ ¶
y c
Ġa qu
Ġm g
Ġl Ã¶d
at us
Ġse z
Ġal so
Ġë ª
Ð¸Ð¼ Ð°
Ġ198 1
áŀ» áŁĨ
Ð´Ñĭ Ò£
al en
ĠR uss
Ñĳ Ð»
åĪ Ŀ
ĠUS A
N A
w as
z d
ar on
al as
Õ¡Õ ¼
á» ¯
ÑĨÐ¸ Ð¾Ð½
ëĵ ľ
Õ º
al q
Ð² ÐµÐ´
ĠØª ÙĪÚº
Ø³Øª ÙĪÙĨ
×ĺ ×¢
åı ¤
Ġny an
âĢľ ,
è ±
Ð» ÐµÐ¼
Ġm h
ĠÐ± Ð¾Ð²ÑħÐ°
åı Ĺ
Ó¹ Ð½
Ø§Ø³ ÛĮ
y ag
Ġn ed
à§ ·
Ð¼ Ñĥ
áŁ Ī
ay n
Ġda v
Ø¬ ÛĮ
ĠCh r
ĠPir uw
ĠÐºÐ¾Ð½ÑĤÐ¸Ð½ÐµÐ½ÑĤ Ð°Ð½
alch aa
b le
y er
el ij
Ġe qu
ĠD ip
ab or
Ð°ÑĤ ÑĢ
Ã¶ t
Ãł r
ĠÚ¯ Ø±
Ġ197 8
å ³
Ñģ Ð¸
Ñģ Ñį
Ġp og
Ġh eb
Ð¼ ÐµÐ½
Ñı Ðº
Ġu a
yn d
å¼ ı
ĠÐ¼ÐµÐ½ ÐµÐ½
Ġn yo
à¥Ģ à¥¤
ĠÐ¼ Ð¾Ð¶
uk i
Ø¹ Ùĩ
à´ķ àµ¾
ĠÛģ ÛĮÚº
âĢľ .
% ),
Å ©
Ġd Ã»
us ti
Ġy it
Ãł u
Ð¾Ð¼ Ñĥ
Ð¸Ñı ÑĤ
å¸ ¸
çĽ ´
Ġb ij
ĠÃ Ģ
ÑģÑĤ Ð°Ð²
ac eae
Õ¥ÖĢÕ ¨
à¾« à½¼
ç³ »
7 1
9 3
Ð¾ Ð¾
ĠM ol
ĠÐ´ Óĵ
Ġsa v
Ó© ÑĤ
ĠÑħ Ð°Ð»
à²¤ à²¦
âĢ ¦
Ġy Ä±l
ĠØ¯ Ø§ÙĨ
ÑĬ Ð»
Ġse i
Ġst ate
Ġel ement
Ġà¤¦ à¤°
Ġ197 3
Ġ197 4
Ġà·ĥ à·Ħ
à¸ķ à¸£
Ġdr ug
ĠÐ¤ ÑĢÐ°Ð½
è¢ «
os c
ĠÐº Ó©ÑĢ
Ġ19 18
ÐµÑĤ Ð°
ya a
Ġ198 4
h as
l s
é ¦¬
Ġh en
ĠØ§ ØªØ§
à¤¯ à¤²
ĠK ol
àŃ ĥ
ÅŁ i
Îµ Î½
àºŃ àºĻ
à¾Ĳ à½¼
Ġà·Ģ à¶±
å½ ĵ
Ġa a
Ġà¤¦ à¤ķ
à·Ģ à¶±
ÛķÚ© Ø§ÙĨÛĮ
Ġrep res
ĠÛ²Û°Û ±Û
ì ¹
Ġd Ã®
Ã© h
Ã¡ Ã¡
à½´ à¼į
ÐµÐ½ Ð¾
ĠÐ¾ Ð¹
Õ¡Õ º
à¾³ à½¼à¼ĭ
å¼ Ĺ
Ġdir ec
ĠÐ® ÑħÐ°Ð½ÑĪÑĭÐ²
m ed
y ri
æ ¡
Ġs ystem
al le
Ġc ode
áı ļ
ĠØ¯ ÙĨ
ĠÐ¿ Ð¾Ñĩ
Ġà¤ª à¤¶
Ġst o
áŀĵ áŀĶ
ãĥ ¬
Ð¸ÑĤ ÐµÑĢ
àºģ àº²àºĻ
Ġ197 2
q q
Ġt od
al Ä±
am il
Ġf ond
ĠÐ´ ÑĢÑĥÐ³
ĠÐĵ ÑĢ
ĠÐ½ Ð°Ð¿
Ø² ÙĬ
Ø· ÙĦ
Ġ×ľ ×Ĳ
Ġmil im
ÎŃ ÏĤ
Ġáİ¾áİ ¿
m it
x im
v ÃŃ
Ġc Ã¡c
ur as
ĠÐº ÓĢ
eg g
ĠÑĤ Ó©
Ò¯ Ð½Ð´
Ġmar k
×ĵ ×¢×¨
ÛĪ Ù¾
ra ch
Ġáĥ ©
Õ¡Õ ¦
ij an
à¹Ģà¸ Ĺ
ko et
Ġ197 7
à¹ģ à¸¥à¸°
. ).
e an
k un
Ġp ach
Ġk im
Ġk od
Ġo Ã±
Ġg or
ĠT Ã¼rk
à¤¸ à¤¯
×ķ× §
ÑĦ ÐµÑĢ
ann o
Ġë ³
ĠÒ» ÑĭÑĥ
ç« Ļ
åĨ Ľ
Ġmp Ã©
f an
Ġm ant
ens is
ard o
ÛĪ Ø²
w et
à¥ §
ar ti
Ġt onu
Ġo a
um s
ĠD is
ĠÑĤ ÐºÑĬÐ°
à²° à²¦
ĠW o
áŀĻ áŀĢ
Ġ197 1
ÄŁ an
ĠÃ¼ Ã§
ìķ Ħ
h ur
Ġl Ä«
ad y
Ġr ez
ic t
ĠØ¹ Ø§Ùħ
Ġpo ur
å° į
Ġ197 6
Ġà¤Ľ à¤²
à¾¤ à¾±à½²à¼ĭ
àº¹ à»Ī
å ¨
Ġ áŀ
Ú© ÙĨ
Ã¦ Ð»
æĹ¥ æľ¬
Î¸ Î·
Ġtel ev
åģ ļ
ãģ¦ãģĦ ãĤĭ
ĠRob ert
Ġn Ã¤
Ġk Ã©
Ġg ov
ĠN ob
Ã« ng
sch d
ĠAr th
i ha
y es
Ĺ Ħ
Ġa ka
à¶ ®
ĠB ol
ig er
Ġà¤ļ à¤²
Ð³ÑĬ Ð°
Ġj Ã®
à²¿ .
à¦¨ à¦¤
à¸£à¸²à¸ Ĭ
Ð¼ Ð¸
ĠC r
ÑĪ Ð¸Ð¹Ð»Ð°
ĠÐ± ÑĢ
Ð¾Ð½ Ð½Ð°
ĠÑĥ ÑĪ
ÙĪØ± ÙĬ
Ġ6 4
áĢ¾ áĢ¯
ĠØ£ ÙĨ
ĠbÃ¤ldot Ã¼
ĠÐ°ÑĮÑħ ÐºÐ°
Ġs inn
Ġv Ã½
Ġde fin
Ġg as
Ø³ Ø¨
he y
ĠÐ½ Ð°Ð¹
Ġje h
19 0
ÑįÐ½ ÑĮ
Õ¡Õµ Õ«Õ¶
Ġorgan iz
ĠÕ¸ ÖĤ
Ġ×ķ×ķ×Ĳ ×¡
à¤ Ŀ
Ġp il
Ġk us
à¤¨ à¤¯
ĠD it
Õ¡Õ °
ĠÛĮ Ú©
áĢľ áĢĬ
val ora
Ð» Ð°Ð³
à° ³
ok rat
ä» Ĭ
ĠÕ¥ Õ¶
Ġnis qa
U n
à¦° à¦¸
Ġse pt
áĭ ²
Ġà¥ ©
ÙĪÙĨ Ø¯
Ã¬ a
6 3
Û µ
Ð´ Ñį
Ġà² ¯
ĠC hi
Ñĸ Ð»Ñĸ
ĠÐ¼ Ð°Ð¹
Ú¯ Ø§Ùĩ
áĥĲáĥ¨ áĥĺ
×ķ×ł ×Ĵ
Ġmez valora
ç¤ ¾
Ġg ob
à¤¿ ,
ed je
Ã¡ p
ro c
Ñĸ Ð»ÑĮ
×ķ× ©
ĠÙĨ Ûķ
Ġà¸ ª
Ġt ol
Ġt ul
Ġt res
ĠB re
à½ł à½ļ
Ú© Ø§Ø±
Ø§ÙĦ Ùħ
å¤ «
ĠÚĨ ÙĪ
ĠÒ ®
ÑĭÐ³ Ð°ÑĢ
ĠFran c
Ġev ante
Ġinf orm
ĠÑĥÑĩ Ð°ÑģÑĤ
7 7
Ðº ÐµÑĢ
ĠÚ ļ
ÑĬ Ñı
ĠÐ½ Ð¾Ð¼
áĥĿáĥ Ĵ
ĠÙĩ ÙĬ
ale y
à¸¹ à¹ī
æ© Ł
Ò «
é Ń
Ġo ku
Ð² Ð¸
id at
ah u
ĠØ³ Ø§Ø²
áŀļ áŀŁ
ung e
ach t
Ġàº Ħ
Ùİ Ùĳ
àº§ àºĩ
×Ĺ ×¨
Û° Û°
Ġ190 4
Ġ ÑĭÐ»
es an
à¬ ī
ĠS v
áĥĶáĥ Ĵ
Ġst an
ij n
à²¯ à²µ
Ġba i
amp a
áĢ» áĢŃáĢ¯áĢ¸
ÛĪ ÙĨ
æ² ³
Ġà¤ľà¤¨ à¤¸
6 9
s ur
ĠØ§ Ø®
à½¢ à½ĸ
ĠÑĤ Ð°Ð»
ÑĭÐ½ Ð´
ĠÐĲ ÑĦ
à¤Ľ à¤¨
æĪ ĸ
b ert
ĸ º
Ġd w
Ġs ent
Ġa ff
on ta
Ġm aka
Ġn Ãº
ĠD ev
ĠI V
ha ir
Ġà¸ Ħ
Ġpi Ã¹
à¤ī à¤¨
à¤ ½
áĥ ĸ
Ġn da
Ġg et
Ġg Ã¢
Ġel ektr
ĠáĮ į
æ¸ ħ
ĠIntern ational
6 1
Ð» Ó§Ð½
Ġn ev
ĠÑģ ÑĬ
Ġz em
Ú© Øª
ÛĮÙĨ Ø¯Ø§
Ġ196 7
Ġ193 9
ÛķÚ© Ø§ÙĨ
i u
áı ²
áŁ į
ĠØ¨ ÛķØ±
Ġz yn
ĠR el
op e
ung an
Ġni Ã¨ng
Ġ×ľ ×Ķ
ĠØ§ÙĨ Øª
ÄŃ k
c ional
Ġa da
Ġm ov
Ġk ah
Ġ( *
á» ©
ĠÐ· Ð°Ðº
Ø« Ø±
Ġkilom etro
er an
ĠS in
Ġr aj
ĠA st
ĠB h
Ġà¤ħ à¤²
Ð¸ÑĤ Ð¸
ĠØ® ÙĪØ¯
Ê¼ Ã©
w orth
Ġ áŀ¢
Ġd um
Ø§ Ûģ
Ġt eg
ĠØ§ ØŃ
ĠÒ ļ
áĥļ áĥĺáĥ¡
ĠJoh ann
ĠØ¥ ÙĦÙī
Ġsist ema
êµ Ń
ÑĤ Ð¸Ðº
Ġk ep
à¤µ à¤ķ
Ġà¬ ¥
Ãª u
Ãª da
Ġst ar
ĠJe an
ĠS ir
iy Ãª
Ð´Ð° Ð°
Ġmat eri
Ð°Ð½Ñĭ Ò£
Ġmilim etro
. -
Ġp li
áı Ĭ
ik as
Ð¿ Ðµ
à½ł à½Ĩ
Ġad olah
à½ĸà½Ģ à½ł
> >
n h
w ed
Å ĭ
Ġ áŀĩ
Ġg he
ĠJ er
à°¾ à°Ĥ
ĠÐ¡ Ð¾Ð²ÐµÑĤ
l Ã®
Ġr y
àµ Ī
ĠL ong
qu i
áĭ Ĭ
Ġ3 3
Ð¾Ð¼ Ð°
ke un
Ġmer upakan
ĠáĬĲ áĭį
l og
en c
Ġb ad
eg ov
ĠÚ© Ø´
Ġà¶ ĭ
Ø§ÙĦ Ùĩ
ez e
Ġad am
ĠAr t
emp er
Ġ194 8
Ð²ÐµÑĢ Ñģ
8 3
p es
z b
Ľ àº°
ĠÙħ Ø§Ø±
ĠÙĩ Úª
æł ¡
n Ã¡
§ àŃ
Ġ Õ¡Õ¶
Ġm om
is hi
Ġde k
ĠS ept
ti d
ĠK ong
ĠG od
Ġà§ ©
Ġ198 3
ĠÃ¤bin ons
ĠIndones ia
a ÅĤ
Ġ Ó¹
Ġà «
Ġk Ä«
ur y
ĠS il
áĥĲáĥ ļáĥĺ
st and
lar Ä±n
Ġper o
áĮ ĭ
à¾¡ à½¼à¼ĭ
çĲ ĥ
è į
Ġh Ã¤n
Ġe ar
ro pa
ĠÑĤ Ñı
ÑĨ Ñı
Ã¦ t
sk og
Ġsi Åıh
áĥ£áĥ łáĥ
ĠÑģÑĤ ÑĢ
Ø§ÙĤ Ø¹
ÑĪÑĤ Ó¹
Ġs ens
Ġp Ã³
Ð´ Ñĥ
Ġà¤ķ à¤°à¤¤
Ġ3 4
ĠCh rist
Ġ196 3
Ġ196 5
Ġ196 9
Ä±nd an
ĠØ§ÛĮØ± Ø§ÙĨ
j ad
al k
Ñį Ñī
os ti
áı ĺ
ent re
ĠÐ¾ Ð³
à½ĸà½¦ à½ĺ
aka u
ĠPro vin
ç§ ĳ
d in
f ord
Ġd Ã¤n
àº £
Ġb rit
Ø¯ ÛĮØ±
ĠD ep
áİ ·
Ġáĥ ¯
Ġáĥ ĸ
Ġen c
Äģ ng
ĠÙĤ Ø§Ø±
Ġth is
Ð¸Ñģ Ñģ
áĥĺáĥ¡ áĥ¢
Ġà¦Ĩ à¦¸
à¸¶ à¹Ī
å ĥ
Ġs ir
Ġn ep
Ġá ¹
à¬° à¬¤
aga uz
ĠÐ¨ ÐµÑĢÐ°Ð½
200 1
çĪ ¾
áĥĶáĥ¤ áĥĺáĥ¨
f en
Ġs unt
Ġc ara
Ġj adi
Ð°ÑĤ ÑĭÐ½
Ãª t
ich i
áŁī áŀ¶
Ð½ Ð¸ÑĤÐµ
à¨ «
ĠP Äģ
ĠD el
ĠÑĤ ÐµÐ¼
×Ļ× ŀ
ist as
à¤Ĺ à¤³
ĠÑħ Ò¯Ð½
Äį en
ih u
Ġpre z
Ġing k
çĻ ¾
S t
l ÉĻr
r ag
w yd
Ġv erd
li o
Ãł m
Ġpro b
Ġ×Ķ ×¨
Ġre o
×© ×¨
ori an
Ġ196 6
B S
o x
Ġl eki
ĠS om
Ùĥ Ûķ
ĠÙĤ Ø§ÙĨ
ly k
ĠÐ¾ÑĢ Ð³Ð°Ð½
à¾¤ à¾±à½¼
Ġà®ĩ à®°
æ ĩ
à° Ń
Ġw ob
ĠL as
Ġ7 5
Ð¾Ð½Ð³ Ð¾Ð»
Ð½ Ð°Ð½
áı ª
áı °
em ente
Ġàª ī
Ð± Ðµ
ĠØ¬ ÙĨÚ¯
×ĳ ×Ł
ÑĭÐ³ Ñĭ
ĠÑİ ÑħÐ°Ð½ÑĪÑĭÐ²
Ġhad ton
7 3
Ú ³
Ġl ia
Ġy oo
ĠH ann
amb i
ĠAs ia
æ¯ Ķ
ĠÐµÐ» Ð³Ð°
j Ã³
w ata
Å ±
Ġo st
Ġw ah
im an
ĠÐº Ò¯
à¦¾ à¦ģ
Ã¼ z
ci ja
Ð°Ð´ Ð·
ãĢĤ ãĢį
Ð½Ñĭ Ðµ
sh tÃ«
il and
ot ta
ÐµÑĢ Ðº
Äģ l
Õ¥ Öģ
Ġàº Ĺ
áĥĵ áĥĲ
Ù º
ë Ł
Ġp Äĵ
ti ve
ĠÐ½ Ð¾Ð²
ä¸ ĥ
ĠØª ÙĤ
Ġà¤ª à¤¦
ip un
ÙĨÚ Ī
f ar
h d
ang ka
ro g
ĠÑģ ÑĥÑĢ
ut an
Ã¼ h
ant an
ÑĭÑĢ Ð³
ĠØ® ÙĦ
Ê¼ ÃŃ
ĠÊ» O
Ġà²¬ à²°
ĠÐ£ ÑĢ
ĠÛĮ ÙĪ
Ġ195 6
ĠÒĽ Ò±
Ġllaq ta
n ost
y Ã®
Ġ à½ķ
il an
Ġe une
ĠP ri
he im
ĠÐ´ Ð¾Ðº
ĠV an
Ġ4 00
à¤¶ à¤ķ
Ġ5 5
ĠÐ¢ ÑĥÑĢ
ĠÐ°Ð· Ñĭ
ë© °
. ),
f as
Ġa Ã±
el se
Ġh on
ag s
Ġy az
áİ ¯áİ
ĠÚ© ÙĦ
à¦¿ à¥¤
Î¹ ÏĤ
Ġ196 1
à¤ĩ à¤¨
ÑĨÐ¸ Ð¸
d ah
í ĺ
Ð½ Ð¾Ð³
Ð² ÐµÑĤ
Ġi c
Ġj uga
ÙĪÙĦ Ø§Øª
ĠáĪ Ľ
à¹Ģà¸ ¡
æŃ »
çŁ ¥
ÑĤ ÑįÐ¹
Ġp ok
Ġn ab
at ta
Ġh un
ad s
ÃŃ o
áī ¶
sk ih
ĠØ§ÙĪ Ûģ
Ġá» Į
o is
z in
Ġa tu
ur in
Ð¾Ð´ Ð·
Ġku ti
ess o
Ġser v
Ġnisqa qa
8 2
Û ±Û
er st
Ġb om
Ġr is
ĠP ers
ĠÎ ¸
Äģ i
Ġà¤ª à¤¤
ĠØ§ÙĦ Ùģ
ĠÑħ Ð°Ð¼
end en
ĠØ¢ Ùħ
Ġtr ong
h Ã¡
z k
Ġt ill
el et
Ġf it
ĠR u
Ð¾ÑĢ Ð¾Ð´
à¾Ĵ à¾²à½´
ÙĨØ¯ Ø§
áĥ£áĥ ¨
ÑĭÑĪ Ñĭ
c ie
ÑĤ Ñį
Ġh ak
Ġf Ã©
ĠÙħ ÙĬ
Õ¥Õ ²
æł ¼
áıįáı Ķáıħ
ÙĬØº ÛĩØ±
Ð¾ Ñı
ar de
Ġm ont
al og
am en
à½Ĥ à½ĵà½Ħ
ĠÐ´ ÑĮ
ÏĦ Î·
×Ĳ ×¡
ĠØ¹ ÙĦÙĬ
Ø¯Ùī ØºØ§ÙĨ
Ġsv oj
Ã¡d Ã³Ã³
ë§ Į
j t
m es
Ġà¦ §
áĥĿáĥ ¨
ĠÐĲ Ð±
ĠAr g
Ġà¤Ľ à¤¨
æĹ ¶
Õ«Õ ½
z es
Ġs ov
Ð» Ð°ÑĪ
Ð´ ÑĭÐ½
Ð¼ Ð°Ð½Ð³
Ġr um
Ġj Ã¼
×Ļ× ¤
ĠW ind
Ġis a
Ø² Ø±
áĥĿáĥ ¤
ĠØ± Ø³
Å« n
à¤¼ à¥Ģ
d abin
Ġ íķĺ
àº ľ
ĠC u
à¤¹ à¤²
ib u
Ùĥ ÙĨ
à©Ģ à¥¤
ĠAr m
ĠWilli am
rind ra
Ġo z
Ġr ic
ĠÙħ ÛĮÙĦ
Ð¾Ð½ Ñĭ
Ġng i
à½Ĥà½¦ à½£
ala w
Ġë ĵ
Ġm ac
Ð³ Ñĸ
Ġin de
áİ ¨áıĴ
ĠI g
ĠH ind
ĠÐ² ÑĸÐ´
Ð°Ð¼ Ñĸ
ĠÐļ Ð¾Ð¼Ð¸
ÙĨØ¯ Ø±
are a
ÑįÒ» ÑįÐ½
] ,
è º
ÙĨ Ø§Ùħ
ĠS ec
Ġw en
ti a
Ø¦ ÛĴ
à·ļ .
è¦ ĭ
ÑĤ ÐµÐ½
Ñĭ Ð²Ð°
Ġh usi
ĠA lex
ra y
ĠÑģ Ð°Ð¹
ĠO m
ĠØ§ÙĦ ÙĦÙī
ĠAl l
Ġàº ŀ
Ø´Øª ÛĮ
à¤ķà¤° à¤£
ìł ģ
is me
Ġb Ã«
as sa
ĠM ur
te g
ĠC he
ĠÐ± ÑĥÐ³
Ġz ap
ĠF il
Ġdel s
ĠØ§ÛĮ Ûģ
Ãłn h
ÑĥÐ»ÑĮ ÑĤÑĥÑĢ
k ov
v Ã¤
è Ĺ
en u
ÃŃ l
ĠSt at
Ġvo e
ske j
æŃ ¦
Ġà¬ħ à¬¨
Ġpap ul
Ð»Ð°Ð¼ Ð°Ð½
èĲ ¬
ç· ļ
l ÉĻ
Ġ áŀı
Ġe ine
ad er
ak on
Ġi w
Ġj ul
re b
ĠØ¨ Ø®
ĠÑĤ Ð°Ð±
ip e
à¶» à¶¸
ĠFran ce
v y
y ÅĦ
Ġb li
ad da
ĠÐº Ð°Ð¼
ÛĮÙĨ Ø¯ÙĨ
áĥ£áĥ Ĺ
à²¸ à²²
åĲ Ħ
Ġgr ande
à¨¤ à¨°
so ci
áĥĶáĥ¤ áĥĺ
Ġà¨ī à¨¸
Ð´ Ð¸Ðº
áŁ ¡
ĠÑĤ Ð°Ð¼
ĠW h
ĠÑĢ Ð¾Ð·
åŃ Ĺ
Ġ194 2
Ġata u
ĠÐľÐ°ÑĢ Ð¸Ð¹
Ġn ya
Ðº ÑħÐ¾Ð»
Ã¨ in
à¾Ĵ à½¼
Ð°Ð± Ð¾ÑĤ
Ġ196 8
æĪ °
Ġreg i
Ġsig ni
ĠÓ ¨
m ag
Ġs ou
Ġm inn
Ġk az
Ġb isa
Ġh ir
à¤¤ à¤µ
ĠI b
ĠÐ¿ Ð¾Ð·
áĪ ģ
Î¿ Ïģ
Ġno i
Ġ194 6
Ð¼Ð°Ð½Ð³ Ð°Ð»Ð°Ð½
ÐºÑħÐ¾Ð» Ð»Ð°Ð¼Ð°Ð½
j Äģ
w are
in z
Ùī Ø²
ĠÐ¿ Ð°Ð»
ĠÑĥ Ð½Ð¸
Ġcom mun
ĠÚ¯ Ø¤
ell es
ĠØ® ÙĪØ±
çļ ĩ
a x
i Å¾
o ta
el n
ĠS ov
ãģ ı
ip edia
Î± Î»
Ġì ĸ
ini Ã±
chi Ã¡
à¾Ĳ à¾±à½¼
à¾³ à½²
Ġind rindra
ĠAug ust
Ġm ell
ĠI mp
Ġda e
ĠØ§ÙĦ Øµ
Ã² m
Ġsu a
Ä« n
áº¿ n
ĠÃ« shtÃ«
è ĺ
Ġd Ã¶r
Ġt rop
Ġn di
Ġn ome
ag atan
ĠT el
ĠÐ¸ Ð»Ð¸
ĠÑı ÐºÑĸ
Ġ196 4
Î¹Îº ÏĮ
i ed
m ÉĻ
Ġo an
Ġdi es
×Ļ ×ķ×ª
ĠÚ© ÛĮÙĦ
la ch
op s
up p
ali an
Ġx we
ĠÚĨ ÛĮ
Ġà²ħ à²°
Ġáīł áĬ
Ġà¤ıà¤ķ à¤°
áĬĲ áīµ
Î¯Î± ÏĤ
r ar
Ã ī
Ð ķ
ë ²
id as
ĠÙĪ ÙĨÙĩ
Ä« t
Ġáī Ģ
Ù¹ Ø±
ĠÙ ¼
Ð² Ð°ÑĤ
Ġen s
á» ĵ
Ù¾ ÙĦ
áŀĶ áŀĵ
Ġà¤¤ à¤¸
ill er
ĠÏĦ ÏīÎ½
à½ĸà½¤ à½ĳ
q t
Ġ ort
ĠÐº Ð¸Ð»
Ñħ Ð¾Ð´
Ñĩ Ñĥ
Ã¶ Ã¶
ĠÙĤ Ø·
Åį l
è¿ ĩ
8 7
m ek
Ð° Ð°
en da
Ġt on
Ġt ina
Ġl ar
Ġb re
Ġj ako
id es
ĠÐ¿ Ð¾Ðº
od h
ãĤ ¿
åı °
asa o
ĠÒ¯ Ð»
Ġà¤īà¤ª à¤²à¤¬
ĠDav id
E A
ĠI z
Ġch u
ci je
up u
ke hÄģ
à¸ģ à¸£
of t
áİª áıĹ
ĠÐ´Ð¸ ÑįÐ½
ĠÑģÐ¸ÑģÑĤ ÐµÐ¼
ĠPÄģ kehÄģ
z im
Ġp it
as Ä±nda
ter e
Ûĩ Ø´
åı į
isti an
à¾© à¼ĭ
ĠÐĲÐ» ÐµÐºÑģ
Ġplan et
) )
t et
in di
Ġs iya
Ġb ila
ĠÃ İ
ti ons
Ø§ÙĨ ÙĬ
ĠF e
×Ļ× ļ
ĠÞ ĸ
ĠÐ¸ Ð½Ð´
Ð¶ Ñĭ
av o
Ġáİł áİ
à¾¡ à½¼
Ġaw on
çŁ ³
u ar
Ġ ÉĻ
à¤° à¤²
ĠÑĤ Ð°Ð½
Ġpr ima
áĭ Ŀ
Ġà¤Ĩ à¤§
Ð¾Ð»Ð¾Ð³ Ð¸Ñı
f ica
n ak
Ġd v
Ġl ÄĽ
Ġo lan
Ã¤ Ã¤n
à§° à§°
Ê» a
Ïħ ÏĦ
Ġà²ª à²¨
if e
å· ²
ĠÚ¾ ÛķØ±
áıħ áıĵ
Ġdur ante
b ir
Ð Ĺ
Ġd Ã¨
Ġd Ã¢
Ġf Ã¸r
ĠS im
ĠP art
ĠÐº ÑĥÑĪ
Ġke essa
à¹Ģà¸ Ĥ
ÐµÐ² Ð°
ĠGe orge
Ġà¤°à¤¹ à¤²
ç± ³
ad z
Ġà¦ Ł
ĠM ari
ĠØ¨ Øª
Ø¹ Øª
Äį e
Î¼ Î±ÏĦ
f ur
g in
j ak
ë ª
es tiv
Ġde d
Ġf ot
Î¹ Î½
àº²àº ª
à´° à´¤
Ġáİ¤ áıįáıĹ
Ð²Ð» Ð°Ðº
àª¶ àª¨
æİ ¥
ar ar
Ġm Ã²
Ġf ue
ic z
ĠK ing
à¤ĸ à¤£
Ġàªª àª°
æµ ģ
ë¥ ´
Ú «
Ġn ÄĽ
Ðº ÑĢ
ĠÐº ÑĢÐ°
st ra
le a
est u
Äį a
Ġil s
ĠÏĢ Î¿Ïħ
çĽ ®
Ġble v
Ġnaf so
ok e
×Ļ× Ľ
Ġse o
Ð¾Ð» Ð±
ÙĤ Ø¯
ĠÕ Ħ
Ġku wa
Ó§ Ð½Ñĭ
ÙĪÙħ ÛĮ
áĢºáģ Ĭ
ĠÆ Ļ
Ġm ob
Ġb aba
ĠÐ¿ ÑĥÑĢ
Ð± Ð¸Ð»Ðµ
ÐµÑĢ ÑĤ
ĠÐ³ Ð¾
eb er
Ġáĭ ĺ
å° ¼
Ġ194 9
ĠáĥĲáĥ Ľ
Ġze uden
5 00
d Ä±r
áĥ ¤
Ġk ond
at in
il di
Ġv art
Ã¢ nd
ha a
Ġst and
ĠÙ¾ ÙĬ
Ġcon f
ÙĦÙī ÙĤÙī
Ġà¹ Ĥ
ãģĭ ãĤī
Ġn es
Ġl Ã¤s
Ġb io
or um
à³ Į
ĠÙĨ ÙģØ±
áŀĢ áŀĺ
Ġit o
Ġap p
Ġ194 7
ilay ah
or is
am h
Ġan Åį
Ġle at
ĠÐ¿ÑĢ Ð¾ÑĤ
ÙĨØ¯ Ùĩ
Ø´Øª Ø±
F A
i es
r us
Ù ¬
ar es
Ġk ara
Ġe urop
Ġse p
áī ĥ
Ġà¤ħ à¤ķ
Ġma in
Ð¸ÑĤ ÐµÐ»ÑĮ
ien te
Ġva i
ĠÑģÑĤ Ð°Ð½
ĠÐ±Ñĥ Ð¹
ĠÕ© Õ¾
Ġp ed
Ġh ol
Ġh ett
Ã© c
ĠK l
ĠÐ¸ ÑĢ
ung en
Ġet t
ĠÐ£ ÐºÑĢÐ°
Ġek s
à½ĳà½Ĥ à½ł
éĩ ı
0 4
Ġla wan
ĠÐ½ ÑįÑħÑĬ
ub u
ãĤ ģ
áĭ ĺ
à§° à¦£
ij as
Ġ×Ĳ ×ł
Ġmil it
àº´ à»Ī
ĠØ¦Ûķ Ùħ
à° «
ra el
Ġàª ļ
ÙĪØ± ÙĪ
Ġpar tic
Îµ Î»
Ġàº ¡
Ġà¸ Ĺ
åĪ Ĺ
Ġ194 3
Ġà¬¸ à¬®
Ġáİ¢ áİ¬
Ġeng ari
ĠLat in
en ne
un y
ĠP ak
ing er
ĠR ich
ĠH y
iy on
Ø¹ Ø©
áŀļ áŀĬ
Ġà§ ª
Ġáİ¦ áıĻ
ĠÛ² Û°
ĠÑıÐ· ÑĭÐº
ĠWor ld
' .
g Ä§
Ġs ia
ĠN ic
Ø§Ø± ÙĪ
az ione
di al
Ġà¤Ĺ à¤¯
à¸¹ à¹Ī
ì §
Ġd omin
Ġal b
ĠÄ ¡
Ġop p
ĠÐ° ÑĦ
ĠÚª Ø±ÙĬ
åĨ ħ
C h
æ ¹
Ġ ÏĨ
Ġs ic
Ġm any
Ġi eu
ĠM it
ĠÑĤ Ð¸ÑĢ
áĭ ®
ĠØ´ Ø§Ùĩ
à´¯ à´¤
àºĶ àºĹ
à¹Ģà¸ ¥
ÙĪÙħ Øª
à®± à®¤
ĠÏĥÏĦ Î·Î½
ç¥ ŀ
à¾Ń à¼ĭ
ĠÊ»O ku
g t
Ġn k
Ġw ird
Ġj Ã¨
ĠÐ± Ð°Ñģ
ĠØ¨ Ú¾
ek et
ĠG ar
ĠR h
Ð°ÑĤ ÑĤ
Ġng Ã¬n
Ġka i
ann u
æĹ ı
ÑįÑħ ÑįÑĢ
ĠÐ±Ð°Ð¹ Ð½Ð°
lÄ± q
Ġhu et
ĠtÄģ one
Õ Ń
ch es
Ġh og
Ġf j
Ð³ ÑĥÑĥÐ»
ĠA ra
ĠÚ ĩ
ĠC ensus
ĠÙĪ Ø§
ow o
Ð°Ñħ ÑĬ
ìĹ ¬
Ġ193 8
Ġtang ata
r Ã©
Ġs ap
un ya
ÙĦ Ø³
Ã« l
Ġpr os
Ġqu al
à¬° à¬°
ĠÑĢ ÐµÐ´
ĠÑĪ Ð°
Ãµ n
ĠìĿ ¼
çµ ±
à¥Īà¤Ĥ à¥¤
5 3
l ine
Ġ áŀħ
Ġs ha
Ġa ig
ia y
Ġ4 2
oc e
Ġáī ¥
ĠÐĿ Ð¸Ðº
ĠÛĮ Ûģ
è¨ Ń
u q
Ġm ana
ÙĨ ÛĮÙĨ
Ð°Ð½ Ð°Ð¹
ĠÐ¼ Ð¾Ð´
ĠY a
ĠÒ ĵ
Ġàº «
Ġind iv
ĠÏĢ Ïģ
Ð¸ÑĤÐµÑĢ Ð°ÑĤÑĥÑĢ
b es
à¤¿ à¤ĥ
ib h
ãĤ «
Ġon e
ÑĥÑĮ ÑĢ
å¯ ¹
Ġspe ci
A mer
v ille
Ġ áŀł
ol f
om h
à¤¿ .
Ùī Ùħ
Ġj en
Ġj anu
ĠÐº ÑĥÐ»
ĠÙĪ Ø§ÙĤØ¹
Ð± Ð¾ÑĢ
Ġcom pl
ĠÚ¯ ÛĮØ§
ĠáĪ Ŀ
à¾Ł à½ºà¼į
Ġà¸ ¡
Ġà¹ ĥ
ĠIs lam
è© ±
5 7
Ã ¿
ç ¿
Ġf al
Ð¼ Ðµ
Ġz av
ĠØ³ Ø§Ú©
Ð¶ Ð°
Ø§Ø «
ÓĻ Ð½Ðµ
ĠÐ· Ð°Ñģ
Ġwa ard
Ġà¨ĩ à¨¹
ogra ph
k al
æ ¿
ak Ã©
em er
ĠN ational
ĠØ¯ ÛķØ±
Ø´ Ú©
à¤¦ à¤¨
ĠÑĥ Ð½
ĠÑĥ Ð¾Ð½Ð½Ð°
à¤§ à¤¨
ÓĢ Ñĥ
Ġ195 4
áĥ® áĥķ
ìŀ ¥
Ġdipl om
f ri
j s
Ù ¿
em an
ĠB at
ĠK un
ap h
áŀļ áŀĺ
ĠÑĢ ÐµÐ³
Ò» Ð¸
Ġor a
Ġprogr am
8 6
s el
ç ¹
Ġs q
Ġk hi
et se
Ġdi fer
ĠC amp
st u
áĬ ĸ
ou w
ĠAn ton
å® ĺ
Ø§Ø¦ ÙĬÙĨ
Ġìŀ Ī
. [
5 2
¤ ĳ
Ð° Ñĥ
Ġs ont
Ðº ÓĢÑį
à²° à²µ
ĠJ ul
Ø§ÙĦ ÙĬ
ÛĲ Ø±
lan o
ĠÃ¶ t
è§ £
§ à³
Ġg az
ĠM c
ah l
Ð± Ð¸ÑĤ
à´¿ .
ĠØ´ Ø¯
ĠÐ¿ÑĢ ÐµÐ·
Ġ×ķ ×Ķ
Ò¯Ò¯ Ð½
àŃŁ à¬°
à±ĩ à°Ĥ
Ġsob re
K r
Ġ *
ÑĢ Ð¾Ñģ
it Å«
ĠB ud
ia i
ĠÕ Ģ
ãĤ £
áŀļ áŀĩ
ÑĥÑĢ ÑĥÐ´
ĠIn t
ĠÃ¨ n
à¤¼ à¤¾
áĥĶáĥľ áĥ¢
ĠØ¦Ûĩ ÙĬØºÛĩØ±
çľ ģ
Õ ©
Ġl y
Ġr eb
Ñħ Ð¸
Ġz ona
Ġch á¹³
Ġà²ħ à²¨
Ġà¦ī à¦ª
ç¨ ±
ĠJos eph
8 4
ī áģ
il ar
ti e
à¶» à¶º
ish t
Ġ195 7
ĠMa e
ĠÕ° Õ¡Õ´
m os
v r
Ò ĳ
al ist
Ñħ ÑįÑĢ
ĠÐ± ÑĭÐ´
ab ar
li che
Ġà´ Ń
áĥĺáĥ ĸ
ĠÙ¾ Ûİ
eng a
Ġet x
ach a
ĠÒ¯ Ð·
Ġ×¨ ×ĳ
ĠÕ¸ ÖĢ
ĠChar les
j Ã¡
å ŀ
is tic
Ñĥ ÑĥÑĢ
ÙĦ Ûķ
Ġ( Â«
ĠÐº ÄķÑĢ
ãģ Ŀ
Ð¾ÑĢ Ð¸Ñı
ĠÑħ ÑįÐ»
ĠÙĩ ØºÙĩ
Ġfr Ã¡
k ok
Ġs ama
Ġl ie
ib us
ĠÙĨ Ø´
Ġáĥľ áĥĲáĥĽ
ĠÙħØµ Ø±
ĠKab up
Ġà´Ĵ à´°
d t
d ad
t Ã³
Ġm Ã³
Ġe di
Ø§ÙĨ Ø§
Ġng ok
ĠÕ į
Ã§ e
Ġ×Ķ ×ª
ĠØ¹ Ùħ
ÚĨ ÛĮ
ĠØ· Ø±Ùģ
åĳ ¢
entr al
S C
b on
u we
Ð½ ÐµÐ½
ch te
Ġg ud
Ġw el
ĠB ern
Ä± y
Ð¸Ð½ Ð´Ðµ
ug al
Ð°Ð¼ Ð±
Ġì §Ģ
å¾ ŀ
æķ ħ
çķ Ģ
ĠÐĲÐ¼ ÐµÑĢÐ¸Ðº
k am
ë Ĳĺ
ÑĤ Ð¾Ð¼
Ġr Ãª
Ġw er
ĠÐº Ð¸Ð·
ĠC ap
ĠÐ± Ð°Ð»
op er
ãĤ ³
ja v
åħ §
ĠØ¹ Ø¨Ø¯
ÙĪÙħ Ùĩ
mo i
Ġl Ã¡
Ġb one
as on
à¬ µ
Ġg ara
ĠN eg
ÐµÐ½ Ð³
Ã¶ p
Ġta ona
Ïģ Î¯
Ġne i
Î¬ Î½
ĠÑĢÐµ ÐµÑģÑĤ
ĠÐĵÐµÑĢ Ð¼Ð°Ð½
h el
m al
Ë Ĳ
Ñ Ĵ
æ »
é ħ
Ġt ers
Ñģ ÐµÐ¼
Ġp ah
à¥į âĢį
am atan
ur es
ang u
ĠR ec
Ġan no
ib le
Ġmet er
Ġkom o
ĠgÃ¢ e
0 2
O r
Ðµ Ò£
ĠL ud
×Ļ ×Ļ
Ġan s
ĠÐ´ Ð²
ĠÐ´ ÓĻ
Ġle i
sk ich
Ġke i
Ġq ar
ĠÐŃ Ð»
Ġáİ¾áİ¥ áİ¢
M ar
h or
l Ã¡
in ci
ÑĤ Ð¾Ð¹
Ġp ub
Ġb ara
Ġi y
im it
ĠC ity
ÐµÐ½ ÐµÑĢ
ĠØ³ Ù¾
Ġà¤¨ à¤Ĺà¤°
ìĿ ¼
ĠÚ¯ ÙĪ
Ġso o
áĬķ áĭµ
ĠUn ited
ĠQ Ä±rÄ±m
à»Ģàº ¡
àº§ àº²àº¡
ÑģÑĤÐ¸ÑĤ ÑĥÑĤ
è Ħ
Ġs co
Ġe ff
ĠÑĤ ÐµÑħ
Ã¶ k
ion g
à²° à²®
Ã¢ s
áĥ£áĥ ¡
ĠÎº Î±ÏĦ
Ġwax aa
5 1
Ġs r
Ġj ir
ant aro
Ð°Ñģ ÑĭÐ½Ð´Ð°
ip a
ini ÅĪ
Ġà¤Ń à¤¯
Ġà²Ĩ à²°
éĽ Ĩ
ãģĵ ãģ¨
ĠDist rito
Ġs ien
áŀ ĭ
Ġt Ãª
Ġk ud
Ġw Ã³t
à½Ĥ à½¤
ĠÐº Ð°Ð´
Ġz ip
à¤¸ à¤¤
Ġà´ ¦
Ġà´ Ī
ĠJ ames
ĠÄ ī
Äĥ k
Ġre fer
à¨Ł à¨°
Ġcons ider
çĪ ²
r ak
Ġc are
Ġc unt
Ġh Ã¡
Ġj uo
ĠP ilipinas
ãģ į
ens ch
Åı k
ĠLond on
Ġd ua
Ġs aka
ar ra
Ġc las
Ùĩ ÙĨ
ĠA us
Ġj ag
ĠC am
ĠÙĪ Ø³
à¤µ à¤ª
end u
à¸£ à¸ĩ
Ð½Ñĭ Ñı
ÐµÐ· ÑĮ
Ù¹ ÛĮ
Ġtab ata
ar um
is ia
Ġh id
ĠS to
Ð°ÑĢ Ð°Ð½
ä¸ ¦
Ġst u
ÐµÐ» Ð°
ÞĤ Þĳ
Ð°ÑĪ Ðº
Ġx am
ĠAn im
Ġ195 8
Ġ195 9
7 9
Ġ à½¡
à¦ ĺ
àº ¢
el and
Ġv ien
Ð³ Ð¸Ð¹Ð½
ĠM uh
em ba
Ġcom me
Ġ×Ķ ×©
åĽ ŀ
ÎŃ Ïģ
C C
p ad
Ġ ÓĻ
Ġ É£
Ġt ch
Ġt Ã©ng
es is
Ġb un
Ġ1 000
ĠA rab
Ã« ch
àª¾ ,
ĠÙĨ Ùħ
ĠIn se
×ĺ ×¨
à¾Ł à½ºà¼ĭ
ä½ ĵ
æĶ ¾
à¸Ħ à¸§
ĠÕ©Õ¾ Õ¡Õ¯Õ¡Õ¶
h om
n um
Ð´ ÐµÐ¼
áı ķ
ĠÐ½ Ð°Ð¼
Å¡ Äĩ
ug g
åı ĳ
å¾ ©
à¦Ĺ à¦¤
Ð» Ð¸Ðº
Ð» Ð°Ð½Ð´
Ġt ara
Ð´ Ð°Ð»
ĠB ah
ĠÐ± Ð°Ð³
Ã¶ Ð½
áĥĶáĥ ¥
Ã® s
Ã½ a
Ġà¤Ĩ à¤ª
à°Ĥ ,
ĠÑı Ð»
Ġà¸ Ī
ĠÐĺ Ð²Ð°Ð½
Ġex p
Ġáİ¢ áı
é¦ Ļ
Ġ ÏĮ
Ġs ot
Ġm ic
Ġk n
áŁ Ĭ
Ġj in
ĠL in
ĠÐ´ ÑĢ
ĠØ§ÙĦ Ø®
ĠØ¦ Ø§Ø³
Ġes as
Ġta up
enn s
à»Ģàº Ĥ
ĠÐ°ÑĢ ÑĤ
Ġ×¤ ×¨
Ġ/ /
Ġprovin cia
c in
f el
i Äį
n ou
Ð½ Ñį
Ġb on
Ò¯ Ðº
ha an
Ð¾Ð² Ð¾
ĠØ± Ø§ÛĮ
ĠÐ¿ÑĢ Ð¸
Ġ×ŀ ×Ļ×ĺ
Ġol l
Ġ Õ¡Õµ
Ġd id
Ġa ba
Ġt ij
Ġm ani
Ġv as
Ġg am
ĠS um
Ùī ÙĤ
ĠR am
ĠÚ© ÙĨ
iy at
ĠÙĦ ÛĮ
ĠBer lin
Ġprof es
ĠJa wa
Ġtid ak
% .
Ġm ba
Ġb og
Ġb asa
Ø³ ÙĪ
ĠD om
ĠÐ¿ Ð¾ÑĢ
à¸²à¸ Ħ
Ġne w
Ġq il
Ġre h
à¸Ń à¸£
Ġáĭ¨ áī°
Ġsen esi
Ġinf lu
T C
Ñ ľ
Ġd ina
Ġv end
Ġi Å¡
ĠM ich
ĠB ra
ÃŃ c
à½ĺ à½¢
ap u
Ġà¤® à¤£
ĠÑĦ Ð¸Ð»
à°ķ à°°
Ø±Ø¯ Ùĩ
Ġà¤Ľ à¤Ĺ
olog y
ici al
ĠÐ°Ð´ Ð°Ð¼
Ġsar ong
ĠÚ¤ Ø¦
ener al
áĢ±áĢ« áĢº
s cz
ì £¼
à¥ ħ
is er
Ġb aley
Ġy ak
te in
ĠÐº Ð°
ing u
ĠR ev
Ò¯ Ð´
Ä« Å¡u
à®ķ à®ª
àº²àº Ĭ
oo ta
Ġgr ad
ĠÙĥ ÛĨ
ĠÃ¡ Ã¡dÃ³Ã³
Ġ×ŀ ×Ĳ
éģ ĭ
Ġkar o
ĠØ§ÙĨ Ú¯
áıħ áİ¯
ĠÏĥ Îµ
ĠAb d
Ð²ÐµÑĢÑģ Ð¸ÑĤÐµÑĤ
Ġtaup ori
S S
q i
y b
Õ ¹
Û ´
Ġn je
Ġk uri
Ġ19 19
áĪ ŀ
st ell
ĠÐ² ÑĢÐµÐ¼
Ġng u
Ġke u
Ó§ Ð¹
ĠÅ ½
Ġkom mun
×ĵ ×¨
ĠSo ci
ĠÃ¥ r
L a
c at
Ġ íķľ
Ġd ad
Ġt ari
Ġn Ã®
ÙĬ Ø§Øª
ÅĤ y
àª¯ àª¤
Ġfam Ã¼l
Ġí ĺ
Ġul an
åĵ ģ
Î¯Î½ Î±Î¹
l ant
t ra
w á»įn
í Ļ
Ġm Ã¨
Ġn Ã³
Ġl ui
ch s
ÑĪ Ðº
Ġà¶ Ķ
Ð¾Ð» Ð´
ä¸ ľ
Õ¡Õ ²
Ùĥ Ø§ÙĨ
Ġest ado
à¸§ à¸¢
ĠpÃ¶sod s
Ġt ime
Ġp end
Ġv ald
Ġg em
ĠB et
Ġàª ¡
ri an
Ġse in
iy ang
Ġha i
Ġà· ģ
à¹Ģà¸ ŀ
Ġpo z
åį ĥ
Ġind ustri
Ġlu yag
áĥĽ áĥĲ
ĠÃ¤bin Ã¤d
ĠrÄģ nei
a Ê¼
m is
w eng
un um
à¤° à¤ª
ĠØ¯ ÙĪÙĨ
áĥĲáĥ ĳ
ĠF re
à» Ŀ
Ð¶ Ó¹
Ø§ÙĦ Ø§Ø±
áŀļ áŀĸ
×ľ ×Ĳ
Ġáİ¤ áİŃ
áĢ» áĢ±áĢ¬
áĢ» áĢ¾
Ġge Ã§
ĠÅ¡ to
Ġpos s
ÃŁ e
Ġà®ĩ à®¨
emes ed
Ġfrug eti
ĠÃ¾Ç£ m
o e
al Ä±q
Ġl Ã¢u
us an
ag ue
ro k
ĠO kt
Ð°Ð² Ð°Ð¹
àºµ à»ī
ìĹ Īëĭ¤
ron om
ĠÐ³Ð¾Ð´ Ñĥ
áıģ áıĹ
0 5
Û ¶
Ġk y
Ð³ ÓĻÐ½
Ġna am
Ġst udi
à¸Ī à¸²à¸ģ
Ġcap it
å Ĺ
é ľ
Ġb us
Ġc il
à½¦ à½Ħà½¦
ul is
ĠT ra
Ġà¶ ·
Ã² i
à¦¤ à¦°
Ó§ Ñģ
áģ ĭ
ici Ã³n
gu Ã³k
à¾© à½¼
Ġcap ital
é Į
Ġs ana
ar p
Ġk tor
Ġf ost
Ġr Ã¨
Ġ19 17
Ġen n
Ġta ua
ĠØ´ Ø¯Ùĩ
Ġac tu
à¸« à¸¥
% à¥¤
8 1
c ep
Ð½ ÐµÐ¼
Ġk ri
Ġb ÃŃ
it os
Ġg amp
ag es
Ûķ Ú¾
Ġdi f
Ò¯ Ñģ
ĠÐ¼ Ð°ÑĪ
Ø³Øª ÛĮ
à¦ķ à¦²
ÑĭÑĪ ÑĤ
éĸ Ģ
å½ ¢
à»ĥ àºĻàº
ç¨ ®
Ġáİ¬ áıĻáıĹ
d em
Ð» Ð°Ð½Ñĭ
Ġk ann
Ġb anda
à¦¾ à¥¤
ĠÑģ Ó©
ent al
ĠF eder
ĠÐ¼ Ð°Ð½
Ġë ¶Ģ
à®Ł à®¤
Ġà¦ı à¦°
Õ«Õ ¯
à½ĺà½Ĳ à½ł
ç¨ ĭ
è« ¸
Ġn z
Ùī ÚŃ
ĠC oll
ĠÑģ Ð¸ÑĢ
Ð± Ð¸
ĠÐ½ Ð°Ð²
ĠÑħ Ò¯ÑĢ
ez h
ĠÐľ Ð¾ÑģÐº
Ð°Ñħ Ð°
Ġx a
ÐµÐ² Ð¸Ñĩ
Ġeb ile
ĠÏĥÏĦ Î¿
ìĽ Ĳ
ĠInse cta
g ra
v v
Ġm ama
us en
Ġàª §
Ġà´ ¶
ĠØ§ÙĦ ÙĪ
Ġì ĥ
Ġà¤Ĩ à¤£
ĠáĥĽ áĥĿáĥ
Ûİ Ú©ÛĮ
Ġâ ĸº
Ð½Ð¾ÑģÑĤ Ð¸
ÑįÐ¶ Ñį
b et
ë ¯
Ġ à½Ĩ
al eg
ÛĮ Ûķ
Ġv ie
Ġá º
ay i
ot en
ĠÚ© ÛĨ
ĠÐ¼ Ð¾ÑĢ
sk om
to y
we e
áŀĦ áŀĳ
v il
Ġl or
ĠS lov
Ð² Ð¾Ð´
ĠÚ Ī
ĠÐº Ð¾
ay Ãª
ci as
Ġ3 9
Ø§Ø¯ ÙĬ
Äķ ng
Î¿Ïħ ÏĤ
lik e
Ġpag s
Ġà§¨ à§¦à§¦
ĠWal ay
ĠÑĪÐº Ð¾Ð»
èº «
] .
l or
s d
Û ·
Þ Ĵ
é Ħ
ch ter
Ġr ol
Ġj am
ĠE in
ov al
ÑĥÐ½ Ñĥ
ĠÑĩ Ð°Ñģ
che a
Ġsi ÄĻ
ard s
àª¯ àª¨
áŀ¢ áŀĦ
Ġmod ern
r um
à¥ ¯
Ġd ata
Ġt ru
ĠB and
ĠB ots
ent uk
up okan
Ġì ¡
sa a
hi i
ung u
ä» ¤
áĢ¼ áĢŃáĢ¯áĢ·
Ġ193 7
à©ģ à©°
Ġà¦ĩ à¦īà¦¨
Ġs olo
Ġk amp
un tu
Ġy ew
ĠB la
re is
op i
Ġmar upokan
unt y
ä¿ Ŀ
Ð½ Ð¾Ñģ
Ġp ale
al ek
as ter
Ġh ist
Ġf eder
ĠÐº ÑĭÐ²
ĠH al
ja an
åħ ©
Ġq o
ĠY e
ĠÒ¯ Ð¹Ð»
Ġkon tr
èĩ º
i Ñģ
w l
w ie
Ġt Ã³
Ġk erd
Ġl Äģ
Ġh um
Ġg ada
ĠÐ¿ Ð¾Ð¿
áĬ ĳ
av i
ÛĮØ± ÛĮ
ĠFran s
olog ie
Ġmil li
ĠÑĤÑĥÑĢ Ð°ÑĢ
Ã¼m Ã¼
ĠáĬ¥áĬķ áĭ°
am enti
Ġe us
Ð°Ð» Ð¾
ĠÐ¼ ÐµÑĤÑĢ
ĠØª ÙĨ
×ķ× Ĵ
Ġáı ļ
Ã¹ i
emb ra
áĥ£áĥ ĵ
ĠSt ate
Ġord o
Õ¡Õ½ Õ¿
Ġv ic
Ã© va
ĠK or
Ø§Ø ¤
Ã´ d
ĠÑĩ ÑĭÐ»
ih an
ĠÃ© t
Ġ195 2
ĠÓ© Ó©ÑĢ
ĠiÃ§ in
× £
ar na
Ġp rav
Ġm asa
it el
Ðº ÓĻ
Ġv oj
ĠØ§ Ø±
ĠM es
à½ĸ à½ĳà½Ĥ
ĠØ¨ ÛĮÙĨ
ing ga
Ġu ta
ĠØ¦ ÛĪ
ĠCh ina
ess atti
å° ĳ
ĠFran cis
ĠIt alia
Ġid iay
Ð¸Ñĺ Ðµ
ç¾ ©
Ġs Ã«
Ġa Å¾
Ðº ÑĮ
Ġà² ¡
ĠT om
ib il
ãĥ ī
Ûĩ Ùħ
Ġta ea
Ġ195 5
ĠáĢ¡ áĢĻ
ĠáĥĴ áĥĲáĥĽ
è¿ ĳ
ĠÛ±Û ³Û
à¾Ĺ à½¼
ĠÎ³ Î¹Î±
y j
ç ĩ
Ġ ï
Ġd Ã´
Ġn ez
Ġk ans
ĠM un
ĠÐº Ð°Ñģ
Ø§ÙĨ Ú¯
Ð°Ð´ Ð¸Ð½
ãĥ ķ
Î· Î¼
Ġ195 3
Ġà¨² à¨Ī
æĮ ģ
r Ã¥
v od
Ġm me
Ġm uri
Ġy ok
ĠØ¯ ÙĪÙĦ
Ã¨ int
Ġar i
Ġel ec
Ġel ler
Ġ×Ĵ ×¨
Ġà¬ı à¬ķ
àºŀ àº°
ĠEng lish
Ġs n
Ġs ett
is ha
à¾ ķ
us se
Ġz ur
ĠÐ½ Ð¸Ð¼
Ð°Ð´ ÐµÐ¼
Øº Ûĩ
ÐµÐ³ ÑĮ
olog ia
Ġtot oo
p at
¢ à¼
Ġs amp
Ġm uk
Ġb Ã¡
Ġg ev
ĠP en
ÙĤ Ø©
ĠW henua
ant al
ĠÕ ·
ĠÐ¹ Ã¦
à´Ļ àµ¾
S a
r id
Þ ķ
Ġb ras
or ta
ÙĦ Ø¹
ĠÐ¿ Ñģ
Ġon der
à´° à´®
ĠÒ ·
Ø§ÙĪ Ûķ
200 6
Ġbil ang
ĠØ¦Ùī Ø´
ĠÚ¤ ÙĪÙĦØ§Øª
ĠkÄģ ore
ÓĻÐ» ÓĻÑĢ
Ġk ak
Ġf Ã¸
ol it
Ġr od
ĠÐº ÑĥÐ»ÑĮÑĤÑĥÑĢ
Ġ19 00
Ġz ien
à½£ à½Ĥ
ĠÙĤ Ø¨
áŀĦ áŀĵ
Ġ193 6
Ġlang u
è« ĸ
b h
an za
Ġk uk
ÙĦ ÛķØª
Ġi f
àµ ĥ
ĠB ang
Ġz b
ĠH i
Ġan y
ĠÕ Ń
ip o
eb a
Ġ4 3
å§ Ķ
ÙĢ ÙĢ
Ġmg be
j os
Ġb ud
as tr
el de
ĠP ier
à« Ī
ĠN orth
st ant
à¤ª à¤¦
ers k
sk ap
ran e
Ġko ja
ĠÐ» ÐµÐ¼
×ĺ ×Ĳ
Ġ192 9
ÑįÐ´ ÑįÐ³
Ġàª® àª¹
æ¼ ¢
áıįáıĽ áİ©
Ġnoho ia
loc ality
5 9
Ġt inan
Ñį ÑģÑĮ
Ġw on
ĠD ar
à¤® à¤§
à¤¹ à¤£
áĭ İáī½
ãĥ Ń
ij os
ika i
uv v
åĬ Ł
Ġbil an
ĠTo itÅ«
Ð»ÑĬ ÑĥÐ»
d es
ÑĢ Ñĥ
Ġi e
ĠP ic
Ñĸ ÑĨ
Ù¾ Ø§Ø±Ùĩ
áĮ ī
áģ Ģ
ĠáĪ °
Ġwo on
ĠÐ¤ ÐµÐ´ÐµÑĢ
ĠSo uth
B C
Ð½ Ð°Ðº
ÑĢ Ð³
ar l
Ġp ent
Ġm aga
ĠM ir
ia c
áĥĲáĥ £áĥ
ug e
àª® àª®
aj i
à¹Ģà¸ ª
ÐµÑģÐ¿ÑĥÐ±Ð» Ð¸ÐºÐ°
t as
Ġg in
ĠN av
Ġà¤¤ à¤¤
å¹ ¶
×ł ×Ķ
ÐµÐ³ ÐµÐ½
à¤°à¤¤ à¤¯
Ġáİłáı °áİµ
ÐµÑĨ ÑĨÐ°
Æ°á» Ľ
ç ¢
et z
Ġh ie
Ġh az
ad de
ĠÑģ Ð°ÑĢ
ĠÐ³ Ð°Ð»
ĠÐ¶ ÐµÑĢ
Ġ12 0
Ġà¦Ĩ à¦Ľ
ä¿ ¡
áĥĲáĥł áĥĺ
à¶« à¶º
ìĭ ł
ÛĮÙĦÛĮ Ø³
æı Ĳ
b el
w Ã©
w eg
Í ĺ
Ġ ong
Ġc ast
ĠÙħ ÛĮÙĨ
ãģ Ĭ
ĠÐ¼ Ð¸Ð½
Ġà¤ħ à¤µà¤¸
à·Ģ à¶½
Ġpo Äį
Î» Î¿
Ġà²¸ à²®
ĠPar k
Ġà¬® à¬§
æĮ ĩ
) à¥¤
an ka
ÑĢ Ð¸ÑģÑĤ
Ġa in
Ġb osh
it ta
à¬ ŀ
Ġg Ã¼
ĠP eter
Ð· Ñį
ĠÐ¿ Ð¾Ð¼
ĠÑĤ Ð¾Ð»
ci u
ĠV o
ĠÐ· Ð°ÑĢ
Ø® Ø±
ĠÐ½Ð° Ñĺ
Õ¸ÖĤÕ µ
à¸§ à¸Ļ
Ġà¤¸à¤® à¤¯
F ran
m s
Õ ²
an ja
Ġn Ãª
Ðº ÓĢ
om es
ag er
ĠÐº Ð¸Ð½
ĠÐ³ I
à¤¹ à¤¨
à²² à²µ
Ùĥ ÛķÙĨ
Ġ4 6
und an
Ã» i
Ġ×ľ ×ŀ
Ð°ÑĢÑĭÐ½ ÑĭÒ£
201 1
alif orn
B A
Ġ Ïħ
Ġd ra
Ġp is
Ġm ek
Ġn iv
Ġk ata
il en
ĠØª Ú©
ĠÐ» Ð¸ÑĤÐµÑĢÐ°ÑĤÑĥÑĢ
Ġë ¶
Ãµ l
ĠÚĨ Ùĩ
Ġà¶ħ à¶Ńà¶»
P A
Ú ħ
à² «
it ra
Ñħ Ñĥ
ĠÐ½ Ð°Ð´
ĠÎ ®
ĠÎ ĵ
Ġcon stru
Ġà¤Ń à¤ıà¤ķ
Ġq al
ÑĭÑĢ Ð°
Ã» t
any ÅĪ
éģ Ķ
à¸ª à¸¡
ĠØ¦Ûķ ÙĪ
é ¾
Ġa ÅĤ
um ba
ia p
à¤® à¤£
ĠÐļ Ð¾Ð½
Ġà¤Ĩ à¤«
à¸Ń à¸¡
èĢ ģ
Ġà¤ĸ à¤¨
Ġà²¨ à²¡
ĠÄ« r
n Ä±Ã±
Ð½ Äĥ
ĠS ing
Ġr ag
Ġw ill
od y
Ġu ch
ĠÐ¼ Ð¾Ð»
ach d
ff e
ÏĮ ÏĤ
ĠÃ½ er
Ñļ Ð°
å³ ¶
z ione
in to
Ġm Ãª
Ġh ono
ĠØ§ Øµ
ek tor
ĠÑĤ Ð¸
ãĤ ¸
Î¹ Ïĥ
Ø¦ Ùĩ
Ġà¤¹ à¤°
Ó§ Ð¼Ð°
Ġad da
Ġmet ros
ĠLe on
Ø§Øµ ÙĦ
Ġp ie
Ġk ultur
or te
à½¢ à½ĸà½¦
ĠÐ¿ Ð°Ð¹
Ã¦ Ñģ
ma q
Ù¾ Ø±
ĠY ea
ĠÐ¶ ÑĥÑĢ
ÐµÑģ Ð°
ÄŁ a
Ġà» ĥ
Ġ192 1
Ġáı¥áıĦ áıįáıĽáİ©
èı ¯
G C
an Ãª
Ġk ong
Ð°Ð½ Ð½Ñı
à¤ª à¤ķ
Ġáİ¤ áİ¾
Ġmen en
Ġà¦ħ à¦¤
Ġbol up
å¯ ¦
Ġhem an
çģ £
ĠÛ²Û° Û°Û
é §
Ġp le
àª Ī
ir es
ag en
Ġy ap
Ġy ou
Ð°ÑĢ Ñħ
à¤¤ à¤¯
áº ĵ
Ïĥ ÎµÎ¹
ft ir
áĢ° áĢ¸
ĠRep ubl
a q
is wa
Ġh ier
Ġi he
áİ ®
ĠN ag
ÑģÐº Ñĥ
Ġka w
ort s
Ġq ur
any ak
Ø§Ø¨ ÙĦ
Äħ Ê¼
ÙĨÙĩ Ø§
áİ¯ áı³
Ð´Ð¼ ÑĥÑĢÑĤ
o ur
Ġn Å«
Ø± ØŃ
Ðº ÐµÐ½
Ûķ Ø³
ĠD h
ri Ã°
ĠÐ½ ÐµÐ¼
ĠÐ¼ ÑĥÐ½
ĠÎ Ĵ
×¢ ×¡
ĠÏĦ Î±
sch t
Ġnga ahi
ÎŃ Î½
àµ¼ à´¤
è¨ Ī
ĠÕ´ Õ¥Õ
Ġáİ¾áıįáİ© áİ¾áİ¢
Ġà¤ Ĳ
áİ ł
ãģ ĳ
ĠÐ´ ÑįÑįÑĢ
Ġpr em
ĠÐĴ Ð°Ñģ
ĠÐł Ð°
å± ķ
à½ĳà½ĺ à½Ĥ
à¬¼ à¬¿
ĠBots wana
c s
æ ¶
à¼ ½
ĠÚ Ģ
ĠÐº Ñĭ
Ð°Ð» Ðµ
ab at
Ġz am
je c
Ãº bl
Ġme Ã°
art h
ond er
ĠáĪ ĭ
ĠÅ į
áĥĶáĥł áĥĺ
Ġìŀ Ĳ
áĥłáĥ Ĺ
ĠÑĢÐ¾Ðº Ñĥ
Ġnya Ã©ta
Ġnafso oba
a in
an j
an se
Ġd Ã³
Ġd Ã«
Ð² Ð¾
Ã© i
à¤¨ à¤¸
Ã¡ ch
li z
ĠØ³ ÙĪØ±
ĠÐ¾ Ò¥
ĠJ i
Ûĩ Ø±Ùī
äº ŀ
à´ķ à´¯
200 8
ÉĻr ÉĻ
å¼ Ģ
Õ¡ÖĢÕ ¤
ĠÐŀÐ± ÑĮ
à¦°à¦¸ à¦Ń
b ro
Ð½ Ð°Ð³Ð°
Ġp om
Ġl ak
áı ¥
ti i
Ġj ar
Ã¡ la
ĠC re
Ð· Ñĭ
à¤® à¤¤
ĠØª Ø§Ø±
Ġst or
ĠÙĦ ÙĬ
áĥ£áĥ Ľ
áĥĶáĥĳ áĥ£áĥļáĥĺ
ĠÑİ Ñħ
ç¾ ħ
áŀ Ī
Ġk ala
à¥į ,
à¨ ı
Ġv ill
ol as
Ð± Ð°Ð¹
Ø¨ Ûķ
àµį âĢĮ
ĠJ uan
je j
ÑĥÑĢ Ð°
ran n
ĠØ± ÛĮ
Ãµ s
å± ħ
ĠÎµ Î¯Î½Î±Î¹
ĠOr om
Ġup p
ìł ķ
Ġb ec
Ðº Ð¾Ð¼
ĠA ut
od en
Ñĩ ÑĭÐ»
à±į âĢĮ
ÑģÐº Ð¾
ord s
ĠØ§Ø³ ÙĦØ§Ùħ
Ð³ÑĬ Ð°Ð½Ð´Ñĭ
ĠÐķ Ð»
201 4
ìĦ ±
ric t
A fr
Ġr it
ĠT al
àŃ ±
ĠH ul
ãĥ ŀ
Ð¸Ð» ÐµÑĢ
sch aft
à»Ģàº ŀ
Ò³ Ð¾
mu ÅŁ
Ġhabit antaro
ç½ ®
Ġcir c
Ġlifay els
ĠÐ Ī
Ġs ah
Ġm ind
Ġm Ã¥
ĠS pe
Ġi i
ti co
áĪ ±
ĠÚ© Ø§ÙĦ
ĠÐ¸ ÑĪ
ĠáĢ Ĵ
eb i
ĠÐ¡ Ð¡Ð¡Ðł
ÐµÐº Ð°
áĢ½ áĢ²
agh yn
Ġye ar
ĠÃ½ yl
ĠÅŁ e
ç© º
w ak
å Ļ
Ġc oll
Ġc ultur
ta in
ĠÙħ Ø±Ø¯
ĠH istor
ib o
Ġì °
Ùĥ Øª
Ġë ¬
ÛĨ ÛĮ
Ã¡n ÃŃ
à¸§ à¸ĩ
Ġàªª àª¶
Ð³ÑĬ Ð°Ð½
íķĺ ìĺĢ
Ľ Ħ
Ð¼ Ð°Ð´
im ba
ĠÑģ ÑĮ
ek en
ĠR ober
Ġà´ Ĺ
iy et
ĠÙģ Ø§Ø±
Ġor bit
ure u
àªľ àª°
Ġà²ľ à²¨
ĠáĬĲ áīł
áºŃ p
r Ã³
Ġn iya
Ġl le
à§ İ
Ġi ka
ta c
ĠN ik
ap on
ĠJ anu
ĠØ¦ Ø§Ø±
ĠÐ· Ð°Ñħ
Ð¸ÑĢ Ð¾Ð²
Ġne u
áŀĦ áŀŁ
Ò£ Ð³
åĲ Ľ
à¶¸ à¶§
à®© à®°
rop oda
ĠÐ°Ð´ Ð¼
Ġà°¸ à°®
Äĳ u
ÅŁt ir
ĠÕ« ÖĢ
Ġd Ãª
Ġb lo
it ud
ĠS z
ed y
à½Ĥ à½ĵ
Ġj um
Ø¨ Ø§
ĠÑĥ Ð·
ĠØ´ ÛĮ
ier i
ete Ä©
àº· à»ī
Ġorgan is
ĠUk ra
g et
Ġa ga
Ġw est
à¶ ·
ĠM ic
em as
Ġj ak
id z
Ä± lar
à¥ĭ .
Ú© ÛĲ
ĠÑĥ Ð²
åı ĸ
Ġàªķàª° àªµ
0 6
k el
Ġd Ä±
Ġs Ã¼
Ġt un
at r
Ø± ÙĨ
ĠÐ¼ Ð¾Ð½
ĠV il
ob e
ĠÄ Ń
Ġà¤Ĺ à¤¢
åį ³
ÅĨ u
Ð»Ð°ÑĤ Ð¸Ð½
áİ¦áı ĺ
Ġ íķ
Ġs ala
at ak
Ġe asti
Ġf em
Ùĩ Ùħ
ĠÐ´ Ð¾Ð»
ĠØ³ Ø§Úµ
Õ¡Õ ¤
ĠÄ §
eb u
Ġì Īĺ
à¸²à¸ Ĺ
Ð¸Ñı Ð±
à¦² à¦ķ
Ġto er
Ġth oma
ä¸Ń åľĭ
ï¼ī ãĢĤ
Ġseg u
ĠIt al
à»ĥ àºĻ
Ġwax ay
ï¯© ï»
y sk
Ð½ Ð°ÑĤ
er os
er ie
Ðµ ÑĦ
Ġl ip
ĠÃ Ĵ
Ð³ Ò¯Ð¹
Ġz itu
ĠÙ¾ ÙĪØ±
ara q
×¢ ×Ĵ
eng i
ÅĤ e
Ġà¤Ń à¤µà¤¤
Ġest is
ÑįÐ´ Ñį
Ð°Ð»Ñĭ ÒĽ
åĶ Ķ
p re
à¦ ı
Ġo et
áı ¨
ĠM y
ĠC e
à½Ħ à½ĵ
ĠH or
ÑģÑĤ Ñĭ
ĠÙ¾ Ûģ
Ù¾ Ùĩ
ĠÑĩ I
ĠÑĩ ÐµÑĢ
Ð°Ð± ÑĢ
Ġdes ign
pa Ã±
ĠØ¨ÙĪÙĦ ØºØ§ÙĨ
f on
å ļ
Ġd adi
Ġs Ã¥
ol s
ĠB ras
iy ar
ĠÙĨ Ùģ
ĠÙĦ Ø§
ĠÑį Ñħ
à¸ģ à¸©
ĠÐĺ ÑĢ
áŀľ áŀı
Ġáİ¾ áıįáı
à²Ĺà²³ à²²
ĠÅ¾ e
åī ĩ
ç§ °
ç¸ ½
ĠAnim alia
u al
Ġs á»ĳ
Ð» Ð¸Ð½
ĠP os
Ã¡ z
ay y
Ġar te
ĠÑĥ ÑĤ
ÏĦ Î±Î½
ÖĢ Õ¡Õ¶
ĠÐ¿ÑĢ Ð¾Ð´
à²¯ à²ķ
çĶ °
Ġ×ĵ ×¢×Ŀ
ĠáĬ¥ áĬĵ
ĠÑħÑĥÑĮ ÑĢ
Ġling u
Ġgad Äģ
d ur
Ġ à½ŀ
ÑĢ ÐµÑĤ
ĠA ss
ĠØ§ Ø¬
ÃŃ v
ĠÐ² Ð¾Ð·
Ġà° ¶
ĠØ³ ÙĨÚ¯
ĠJ uli
ĠáĢ ĺ
ĠU s
Ð¾Ð¼ Ð°Ð½
Ġáĭ °
Ġà¸ Ń
Ġà¶ħ à¶±
ĠAmer ican
àº¹ à»ī
ĠØ®ÙĪ Ø´
Ġfir st
Ġê² ĥ
Ġec onom
Ġsuk at
Ġking dom
Ġmw aka
Ġgamp Ã´ng
in st
Ġs iv
Ġn ur
Ġw ilayah
Ġdi j
ro e
ÑĭÐ½ ÑĭÐ½
ĠU ni
ĠÐ¶ ÓĻÐ½Ðµ
ĠÑį Ñģ
à·Ģ à¶º
Ġfr Ã¥
àº» à»Ī
ÑįÐ³ Ð´
Ġfil um
É£ en
Ġsal ah
ç» ı
Ġê° Ģ
Ð¾ÑĢÐ´ Ð¾Ð²
ĠWik ipedia
l ang
w ah
Ñĥ Ð´Ð°
Ġà´ ²
×ķ× ĺ
à¬° à¬ķ
Ġthe ir
à¤· à¤¯
ÑĥÐ½ Ð´Ð°
Ġ×Ķ ×Ĺ
iss ion
ØªØ± ÛĮÙĨ
Ġkilom et
s Ã¥
Ġn ok
Ġr an
ĠA li
à³į à²Ĥ
Ġdi c
ĠÑĤ Ð¾Ð³
Ġle is
ãĤ Ń
Ġ4 7
ÐµÐ´ Ð¸Ð½
áŀŁ áŀĵ
Ġà¤ī à¤¨à¤ķ
ĠØŃ Ú©
Ġà¥¨ à¥¦
Ġngwagengk golo
y al
Ġ à½Ĳ
in os
er na
Ġl Ã¤
Ġb ase
or en
Ġh ans
ĠÐ¿ Ð°Ñĩ
eb Ã©
Ð¸ÑĤ ÐµÐ»
ÙĨØ¯ ÙĬ
ÐµÐ· Ð´
Ø§Ø³ Ùī
Ġà²ħ à²µ
Ġwerd en
0 3
d at
k it
â µ
æ §
æ į
er al
Ġa Ã§
Ġt v
Ġm ug
Ñĭ ÑĨ
ĠÃ Ī
Ð°ÑĢ Ð°Ð±
áİ ¥
ĠK ap
Ð¿ Ð¾Ð»
Ġper m
ĠÑį Ðº
Ð¸Ð³ Ð¸
Ġloc al
t ing
z an
Ð½ ÐµÑģ
ĠØ¨ Ú¾ÛĮ
ent ina
ot ball
ĠÐ² Ð¾Ð¹
Ġer e
Ïģ Ïĩ
Æ°á» Ŀi
ç ĸ
ì ²
Ġl ane
Ġb uk
or de
Ġv Ã¦
ĠÐ± ÑĭÐ»Ð°
ĠØ¨ ÙĬÙĨ
Ñĸ Ð½Ð´
Ġla in
az ion
ore a
à¾Ĳ à½´
ĠÐĺ Ð·
ÛĪ Ø´
æĪ ĺ
Ø§Ø² ÛĮ
Ġsk up
Ġkas ar
åĨ į
áıģ áİ¸
æ´ »
èī ²
ĠpÃ¤ iv
à»ĢàºĹ àºĶ
à¸Ħà¸§ à¸²à¸¡
ĠM icha
Ġy m
ĠB ik
Ø´ Ø§Ø±
ÅŁ Ä±
ĠØ± Ûģ
Ġav ou
ĠÙĥ Ùī
Ġcu i
ĠáĥĽ áĥĲ
ĠUn ong
Ġ195 1
Î³ Îº
Ø° Ùĩ
ãģ§ ãģĤãĤĭ
Ġmay sa
ĠØ³ÙĨ Ø©
ë© ´
Ġs imb
Ġa va
Ġn uk
à¸ Ł
il os
ĠS ab
ĠS erb
Ġj wa
ra u
ĠÐ± Ð¾Ð¹
ĠH is
Ã¨ u
ĠÐ¾ Ð²
ĠØª ÛķØ±
ĠØ§ÙĦ ÙĦ
à¸²à¸ ª
Ø® Øµ
ĠÙĤ Ûķ
à¤¬ à¤¨
Øµ Ø±
ÑĥÐ³ ÑĬ
eder b
ĠGe org
ĠkÃ¶ z
Ġpapul asyon
ÛĮÙĦÛĮØ³ Ø¬Ùĩ
c Äģ
Ö ¼
à¥ ¯à¥
Ġd ass
áĢ ĩ
at y
à¤° à¤¶
ol ong
ed es
ĠÐº ÑĥÐ½
og en
op tera
Ġte am
ĠÐĴ Ð¾
æĪ ĳ
ĠMe x
Ġingk ang
Ð §
Ġn ame
Ġc ost
ad n
Ġj ez
ĠL ab
ĠK am
Ãª l
ob i
Äķ ÑĪ
sh ip
Î» Î±
man uel
áĢ½ áĢ¬áĢ¸
ĠÑĥÐ» Ð°Ñģ
à¦ĸ à¦¨
Ġaut or
ĠÐ±Ð°ÑģÑģÐµÐ¹Ð½ Äķ
ĠArth ropoda
v ent
Ġm pe
as p
et tu
Ġf as
Øª ÙĪÙĨ
ak y
áı Ĩ
à± ĥ
ĠØ¯ Ùħ
ĠR esp
av on
Ġà¤ı à¤¹
Ġnom bre
Ġà²ī à²ª
×ķ×Ĳ ×¨
ĠØ¨ÙĪÙĦ ÛĩÙ¾
áº¿ t
m us
ÑĤ Ñĥ
Ġn icht
Ġl ek
ch an
Ġh á»į
ĠÐ± Ð¾ÑĢ
Ø§ÙĨ Ùī
ĠÑĤ Ð°Ð¹
ĠÐ½ Ð°Ð»
ĠÐ½ ÐµÐº
ĠØ¬ ÙĨÙĩÙĨ
âĢĭ âĢĭ
ÞĤ Þİ
ĠÐ¿ÑĢ Ð¾Ð³
Ġàº Ń
áĥķ áĥĶáĥļ
éĢ ł
200 5
ÑĸÐ½Ñĸ Ò£
l ic
q s
w est
Ġn ec
Ð´ ÐµÐ»
à½Ĥ à½¢
ng Ã®
ĠÐ´ Ð¾Ð½
ĠF ilm
Ð¸Ð½ Ð¸Ð½
la w
ĠÙĤ Ø§ÙĦ
ÙĪÙĦ ÙĬ
pi u
Ġ193 4
æĿ ĳ
éĥ ¡
© Ù
à´ ĸ
Ð³ ÑĢ
Ġan nu
Õ¡Õ ¢
Õ¡Õ Ń
ĠÑĥ Ñģ
Ġà¥ ª
ÑģÐº Ð°Ð³Ð°
ĠÐļ Ð°Ð½
å® ¢
áĥĲáĥľ áĥĺ
áĥĶáĥĳ áĥ¡
ĠCom m
èĳ Ĺ
d s
¹ Ħ
Â ´
at as
Ġv ide
Ġf et
ĠÃ ĵ
Ġw ho
ik l
Ġ19 14
ĠØ¨ Ø¹
ĠÎ Ĺ
áĥĺáĥ ķ
ha x
à¦¨ à¦¨
Ġà¤¬ à¤¸
Ú¾ Ø§
sch en
ÏĮ Î½
oma al
áİ¯ áıįáıĹ
Ġfin al
Î¹Îº Î¬
Ġà¶ĳ à¶ļ
à½ĳà½Ģ à½¢
Ġ×ķ×ķ×¢ ×ľ
] âĢĭ
h it
Ġm Äģ
Ġk Ãµ
Ġk iye
il y
Ġv á»Ľi
Ġi Ã°
à¤¤ à¤¤
à¤¯ à¤ª
Ð¸Ð¹ Ñĭ
Ïģ Î¬
ĠØ¢ Ø²
all o
àº° àº«
ĠÑĦ Ð¾ÑĢÐ¼
Ġur u
m Ã¤
ĠM use
ti ma
ĠL uc
ig r
ĠG ri
st ad
ĠÐ¾ Ð½Ñĭ
ÑįÑĢ Ð¸
Ãº r
ĠØ¹ ÙĦÛĮ
áŀĻ áŀĵ
×ĵ ×Ļ
à½ĺà½ģ à½ĵ
ĠMart in
ïºİ ï»
ederb Ã¶rd
æ £
ç ĳ
Ġd d
Ġà¤ħ à¤Ĺ
áĥĲáĥľ áĥ¡
Ð°Ð¶ Ð°
ament u
ĠÏĢ ÎµÏģ
×¢×ł ×¢×Ł
é« Ķ
b ula
ļ Į
ÙĦ Ø±ÛĮ
Ġg ans
ĠS ikato
ĠØ¯ Ùī
ĠÙĦ Ø±ÙĬ
ĠÐĲ Ðº
à·Ģ à¶ļ
I t
M A
Ġs eri
àª «
ag t
ĠP ap
à« ĥ
Ð± Ð°ÑĢ
áĪ ļ
ug i
Ġel la
Ã± o
Ġser b
Ġáīł áĪĺ
200 4
ĠÔ ²
Ð»Ñĭ ÑģÑĮ
ĠÐ¿ÑĢÐ¾ Ð¸Ð·
Õ´ Õ¡Õ¶
ĠXV III
Õ ·
Ġt ing
on ti
Ġv ot
Ã¶ Ð¼
ÉĻ d
ĠØ¬ ÙħØ¹
ran i
Â» ØĮ
áĢ¼ áĢ¯
áĢ½ áĢ±
à½ī à½ĺà½¦
200 7
Ġwal ad
Ġnafsooba alchaa
à¸ Ĳ
Ġw Ãª
ĠM aj
ik t
ag at
ĠD ay
and ro
ÃŃ d
ĠØ³ Ûķ
ĠÑħ Ð°Ð¹
ÉĻ h
Ã± e
àºĶ àºį
ĠÐ£ Ð»
Ġinter n
Ġmer k
Ġà¹Ģà¸ Ľ
à½ĺà½ģ à½¦
èŃ °
Ġà®ī à®³
j am
us te
ta i
Ġáĥ łáĥ
à½ĵ à½Ĥ
ĠÙĪ Ø§Ø±
ÐµÑĢ Ð½
Ã§ i
à¸²à¸ ŀ
Ġ4 9
Ġà²ħ à²µà²°
à¾£ à¼ĭ
ĠFri ed
ÓĵÐ» ÑĤ
Ġá¹ £
ĠÐºÄķÑĢ ÐµÑĤ
0 9
Ġm ie
Ġm az
as k
Ðº Ð°Ð¹
ur it
à½Ħ à½Ĥ
ĠE w
ie f
Õ¡Õ ·
ĠÑĥ Ð¼
ĠÙ¾ Ø§Ú©
Ġà¤Ĩ à¤¯
áį ¡
à½ļ à½ĳ
Ġà¸ Ľ
à½Ł à½ĳ
d et
f al
l it
l Ã¤
Ġt la
at ori
ĠØ§ Ø¤
ĠV ic
Ãł t
ĠÙ¾ ÙĨØ¬
ev o
Ð°Ð· Ñĭ
ua ir
Ġàº Ī
land i
çļ Ĩ
ĠÓ© Ð¹
Ġah n
wo od
ĠØ¨Ø± Ø§ÛĮ
Ġpopul ation
Ġáĥŀ áĥł
Ġëĭ ¤
ÓĻÑģ ÓĻÐ¹
z ten
Ġ à½ĳà½Ĥ
Ġs lu
Ġa ki
Ġt Ã¨
Ġp oh
Ø± Ø©
om er
ut ang
ĠÙĪ Ø²
áī ¡
ĠÑħ ÑįÑĢÑįÐ³
à²¦ à²¨
ĠU t
ny s
Ġà¼ ¡à¼
Ġok t
Ø§ÙĪ ÛĮ
Ġ192 4
Õ¥ÖĢ Õ«
àªĹ àª®
ĠCo unty
a an
g ang
v oj
Ġp s
Ġm end
Ġn ama
Ġh Ã´
ĠÚ Ĭ
ĠP ra
ĠP ada
ĠÐº ÑĭÑĤ
ĠÐ± ÑĥÐº
ig in
ĠÑĤ Ð¾Ð½
Ùģ ÛĮ
Ġko h
ĠÚ¯ Ùĩ
ĠAn n
åľ Ł
áĬķ áĮį
ï» ®
à¹Ħ à¸Ľ
Ġcl ub
à½ĳà½Ķ à½£
ĠXV I
ĠàŃ §àŃ
ç¦ ı
ĠÑĤÐµÑĢÑĢÐ¸ÑĤÐ¾ÑĢ Ð¸Ñı
ĠÑĥÐ½Ð¸ Ð²ÐµÑĢÑģÐ¸ÑĤÐµÑĤ
c ar
j Ãº
Ĳ ľ
áĥ ¯
Ð» Ð°ÑĢÑĭÐ½
Ġk ale
am it
áı ī
ĠP lat
Ã¨ e
ĠÑĢ ÐµÐº
Î¹ Î¬
ĠÐ¡ Ð¾
si Äģ
Ġà¤¬ à¤°
rit z
à´° à´£
Ġkab aleg
ĠØ±ÙĪ Ø²
Ġllaqta pi
n ica
Ġs uka
Ġn ou
Ġv ul
ÑĮ Ñİ
ĠP od
ig s
ĠF orm
×Ļ× ĸ
Ø§Øª ÙĪ
ĠÙģ Ø±Ùĩ
int s
ÐµÐ² Ð¸
ĠUn idos
áİ´ áıħáıĵ
ä¿ ®
éĿ ŀ
á»ĩ n
ìļ °
Ĭ ¸
ad in
Ġi ch
ĠÐ½ Ð¸
ÑĭÐ½ ÑģÐ°
ĠÐ³ Ðµ
Ã® t
Ġma a
ÑĦ Ð¾ÑĢÐ¼
Ġ6 00
ĠÛĮ ÛķÚ©
Ġtel ah
Ġkel as
ĠÐ¾Ñģ Ð½Ð¾Ð²
åķ Ĩ
Ġà¤Ĺà¤¢ à¤µ
y z
× ¥
Ú Į
Ġp Ã´
Ġp ow
Ġk esk
Ġb á»¥
à¨ ī
Ġw Ã¤
ak en
Ð°Ðº Ð°
ij iet
Ġáı Ļ
áŀĦ áŀĸ
Õ¸ÖĤÕ ½
ult an
ĠÐ°Ð» ÑĮ
å¸ ĥ
åĳ ¨
à½± à¼ĭ
ĠLou is
ĠRober to
ÑĢ Ð¾Ð²
Ġp eteÄ©
Ġb Ã©
ĠÃ µ
ak in
ĠK en
ĠØ¨ Ø§ÙĬ
Ġla v
Ġle v
à¸ģ à¸¥
Õ¡Õ¶ Õ«
Ġà¤¶ à¤ķ
Ġ193 5
Õ¸Õ ½
ĠÏĦÎ¿Ïħ ÏĤ
Ġlug ar
ÐºÐ¾Ð½ Ð¾Ð¼
áº§ n
Ġnw ere
n n
Ġo yo
Ġf yri
Ġw ol
Ø¯ ÛĲ
ĠR od
ĠâĢ ł
ov en
Ð°Ð³ I
Å¾ a
ĠØ± Ø§Ø³
à¨° à¨®
Ð¾Ðº Ñģ
à®ª à®¤
rat ti
áıĵ áİµ
Ġbat ho
Ġd ze
Ø§ Úª
Ø¯ ÛĴ
ĠP ed
ĠP ang
ĠÐ± ÑĥÑĢ
Ġen w
ĠÐ¸ Ñħ
Äĥ Ð»
und er
Ġre aliz
Î· ÏĤ
ĠÐł ÓĻÑģÓĻÐ¹
Ġmo un
ĠÃ¡ l
áĢĽ áĢĦ
hu an
Ġfil os
Ġ192 8
ĠØ¨ÛĮ Ùĩ
ĠTa i
ĠÐ³ÑĮ Ð°Ð±
ĠÙĨÛĮ Úº
ĠÐ¿ÑĢÐ¾ ÑĦ
êµ ¬
S E
Ġs uku
Ġm ost
Ġc ikin
Ã³ i
ab aw
ĠÙħ Ùħ
Ġng Æ°á»Ŀi
Ġáĭ į
Ġpa ÃŃs
ÑĥÐº ÑĬ
Ġ193 3
Ġí ĥ
Ø° Ø§
à»ģ àº¥àº°
à»Ħ àºĽ
p is
s id
ç ĭ
en en
Ð½ Ð°ÑĪ
on as
Ð² ÐµÐ»
us ia
Ø¯ ÛĮØ§
ĠÑģ Ñĭ
ĠN as
ĠØ¯ ÛĨ
ĠR ed
ĠØª ÙĪØ±
×ķ× Ĺ
Ġar r
lar yÅĪ
ĠÐ¶ Ðµ
Ã©n t
ĠPh ilip
éĹ ľ
ĠNob el
ĠØ³Ø§Ø² ÙħØ§ÙĨ
ĠWind ows
c ed
n ja
z w
Ġ ÖĦ
ÑĤ ÑįÐ½
Ġb Ã»
Ġg ri
om u
ak ten
ãģ ¤
×ķ× ĸ
Ġter it
Ġpop ol
azi un
Ġcl ass
ĠÑįÐ¼ Ð´Ð°
ÑĨÐ¸Ñĺ Ð°
s yn
y tt
É Ĺ
or io
Ġc os
ĠN at
ĠG ran
Ð°ÑĤ Ð¸Ð²
Ġà¤¸ à¤¦
à¦¤ à¦¨
ĠØ´ ÙĪØ±
Ø§Øª Ø§
Õ¶ Õ¥ÖĢÕ¨
Ġak an
Ġà¦ı à¦Ł
ëĭ ¨
Ġdis p
uw en
Ã¬n h
ĠÐ°Ð¹ Ð¼
ĠÙħØ± Ú©
ÑĢ Ð»
Ġh oj
Ġg ou
Ð³ Ð°Ð»
ĠØ¯ ÙĦ
ĠÑĤ ÑįÑĢ
ĠÐ½ ÑįÑĢ
Ò¯ Ð¿
li f
Ġpr esi
åı ·
enn u
Ġbh ÃŃ
ä¸ĸ çķĮ
ĠØ¦ÛĨ Øª
ĠÙĤØ± Ø§Ø±
Ġpach ak
f un
l ja
Ġt ako
Ġb Ã¶l
or b
Ġf Ãł
Ð² ÐµÐ½
Ġin k
Ġy il
Ã¨ k
Ð¸Ð½ ÑĩÐ¸
Ġal la
ĠW ash
Ġà¥ ¬
Ġ4 1
Ġam p
Ġ×Ĳ ×ĸ
Ïģ Î³
ell er
sch a
Ġex emp
Ġ192 2
áŁī áŀ»
i je
n Ã½
s ome
Ġp ast
at ro
Ġo ko
ta hi
ĠT Ä«
ĠÞ ¢
je ct
à²¤ à²µ
áŀĺ áŀĵ
emb ro
à¸µ à¹ī
Åį r
éģ Ĥ
Ġ193 2
ĠáĥĲáĥ ł
ĠÃ½ a
ustr ia
Ġb ug
Ð´ ÑįÐ³
Ġo w
Ð³ ÑĮ
te e
áĪ Į
ĠF i
à½ģ à½ĺà½¦
à¹Ģà¸ Ī
Ġman ip
Ġà²ħ à²¤
ÑĨÐ¸ Ð°Ð»
Ġ192 6
Òķ Ð°
Õ¾ Õ¡Õ®
dabin ons
h es
m ir
Ġs Äĥ
al de
àª ı
ĠS eb
Ùī Øª
Ø´ Ø§Ùĩ
ĠØ¦ ÙĪØ±
Ùģ Ùĩ
áŀĦ áŀĶ
ĠÃ¡ r
ĠÐ°ÑĢ ÑĭÐ½
aro a
Ġáĥ¡ áĥĲáĥĽ
Ġess et
ìļ ©
q ar
Ġm Ãł
Ġm ins
Ġf ebru
Ġw ot
ĠÑĤ Ð¾Ð¼
ing an
ĠÙĪ ÙĤØª
ĠG ir
à½ł à½Ĳ
Ġì §
à¦² à¦¯
Ġmin angka
ÙĦØ§Ø± ÙĨÙīÚŃ
à»ģ àº¡
Ġ×ĸ ×Ļ×ļ
ĠÚ©ÙĬ ÚĸÙĬ
Ġbah in
áĢĿ áĢĦ
è¶ Ĭ
æĥ ħ
áĪĨ áĬķ
ĠÚ©Ø´ ÙĪØ±
2 000
m ay
Ġ Ð°Ð³Ð°
Ġs Ã£
Ġv in
Ġe it
Ġr at
ag na
Ä± ld
ĠL iet
ĠÑĤ ÓĢ
ÑĬ ÑħÑĮ
Ġáİ £
ĠÐ´ ÐµÐ½Ðµ
ĠÚ© ÙĪØ±
ĠÐ³ ÐµÑĢ
ĠÐ³ Ð¾ÑĢ
Ġno ong
Ġon ye
à´¯ à´®
ĠÃ¤ l
àºĻàº ª
ÑĥÐ¼ Ð°
Ġhan esan
ÅŃ ng
×Ļ×ł ×¢
àº½ àºĩ
Ġà¹ĥ à¸Ļ
w ard
Ġd od
Ð» Ò¯Ð¼
Ġc s
Ð³ Ñį
ĠÙĪ Ø´
ĠØ§ÙĦ ÙĦÙĩ
Ġì ļ
à¦¤ à§°
Ġma x
Ġko Ê»
ĠÐŁ Ð°ÑĢ
Ġmen jadi
ĠáıĤ áİ¦
åı¯ ä»¥
Ð´Ð°Ð³ Ñĭ
khi Ã©u
l um
y w
Ġ à½łà½ĳ
Ġt wo
Ġk Ã»ng
Ñĭ ÑĤÐ°
Ġb ere
áı Ķáıħ
ĠT Ã¡
ĠL ev
Ø¨ ÙĨ
à¤® à¤²
ant on
Ġà¤ħ à¤¶
ĠÐļ Ð¾Ð»
oo f
ĠÅ ļ
Ø· Ø§ÙĨ
Ġ×© ×Ķ
Ġcont in
áĥĶáĥ¤ áĥ¡
ĠNgwagak ete
Ġdhi worth
ÑĥÑĢÑĥÐ´ Ð³Ð¾
d el
s ti
è °
Ġa te
áŀ ĥ
Ġm ud
Ġh il
Ġg Ã³
Ġg ot
Ã¡ ny
Ġu ku
ie w
ion a
à²¨ à²²
Ã° ar
Ġdes de
Î® ÏĤ
ros s
æ¨ Ĥ
Ġngwageng some
chh Ä«
ÑįÐº ÓĢ
Ġngwagengk ete
ĠNgwagak golo
c tion
Ġs emp
Ġp av
Ġk rit
al er
à° ĸ
ĠS ic
ĠB ill
ĠÑģ ÐµÐº
ah e
ÑĨ Ñİ
ĠÎ »
Ã¢ y
ĠÐ¡ Ð¾Ð»
Ġà¤¨ à¤¦
Â» )
Î¿Ïħ Î½
à°µ à°¸
201 2
Ġvol t
ĠØ¨ÛĲ Ø±Ùī
0 7
Ġl agu
is ce
Ġh Ã¸
os sa
Ø¯ ÙĪØ¯
ĠP re
ÑĪ Ð¾
ĠÑģ Ð»Ñĥ
ĠØ¯ Ø³
Ġan ni
uk k
ĠØ¬ Ø³
à¨° à¨¸
Ãµ q
Ġà¸ «
amp ion
Ġí ı
Ġann s
Úĵ Ùĩ
ĠÐŃ ÑĢ
ĠìĿ ¸
Ġray on
0 8
d ag
h eng
Ø§ ÚŃ
Ġa uch
Ġp ure
us c
ĠÑģ Ð¸
ĠÑģ Ð»
ĠÐ± Ò¯ÑĢ
à½ĺ à½ī
da w
ĠáĢ ļ
se e
Ġqu a
Ø¹ ÙĨ
ou a
Ġ×Ķ ×ł
ÚĨ Ùĩ
áĢ¼ áĢ¬áĢ¸
àº± à»Ī
ĠÅ º
ĠUn ion
Ġmen y
Ġ193 1
Æ°á» Ŀ
Ġklas e
Ġà¥¨à¥¦à¥ §à¥
áĭļ áĪħ
g ro
v as
å ´
Ġp ubl
ĠÙ ¢
ch ri
ĠÐº Ðº
ĠT an
ĠC BS
Ġz d
ap ada
×Ļ× ¦
Ġà¤ħ à¤µ
à°¿ ,
×© ×ľ
Ð¸Ð´ Ðµ
ĠØ¬ÙĬ Úª
ĠÐ¸Ð· Ð´
è¾ °
Ġpachak wata
A R
Ĥ àºŃàºĩ
Ġn n
Ġl ud
Ġg n
Ġf iv
ĠØ¨ Ø§Ø¨
ĠÙĪ ÙĬÙĪ
àª¾ .
Ġpr v
áĬ ¥
ÑģÐº Ð°ÑĤÐ°
Ã» r
áĢ½ áĢ¾
Ġ×© ×ł
à¬¬ à¬°
å¸ «
Ġsc rit
Ġáĭ¨ áĬł
ÑĥÑĮ Ð½
à¸Ī à¸°
ĠÙĪÛĮ Ú©ÛĮ
ìĽ Ķ
Ġartik el
é¦Ļ æ¸¯
ĠÙ ½
Ġb esk
as in
Ġo tor
Ġg ab
Ġe is
ĠI ni
Ġst Ãł
ĠÐľ Ð°Ðº
Ġak k
ĠÚª ÙĬ
ador es
ëį °
Ð»ÐµÐº ÐµÑĤ
' re
- -
Ġn Ã¨
Ñĥ Ñĭ
à¤° à¤ľ
ĠÃ Ŀ
ĠT ok
ĠT rans
Î¿ Î¼
ĠÛ °
Ø² ÙĪ
Ð´Ð° Ð°ÑģÑĤ
ÐµÐ´ Ñĸ
ĠSch ool
à¬ª à¬°
idad es
ĠÐ±ÑĥÐ¹ ÑĭÐ½ÑģÐ°
X X
i Å¡
m ark
t in
er ing
áı Ĳ
ic y
Ġà¤¸ à¤¤
ĠV I
áĥĺáĥ Ĵ
ĠÙĨ ÙĤ
ug o
ãĤ ı
Ø¬ ÙĨ
ĠÐĲ Ð´
Ġáİł áİµ
à¹Ģà¸ «
Ġ×ĳ ×¨
ĠÃł wá»įn
ĠÚª ÙĬÙĪ
àº½ àº§
Ġà³ §à³
Ġìĭ ľ
g el
u un
z as
Û ³
Ġl ÃŃ
ch Ã©
ĠB il
ĠD ir
Ġna Ê»e
à¤ª à¤¯
Ø¦ Ùħ
Ġya ÅŁ
ĠÐĲ ÑĤ
Å¼ i
Úĵ ÙĬ
ike un
Ġrel ig
ĠÐłÐ¾ÑģÑģ Ð¸Ñı
b ayan
r il
u va
Ġà¤ ĳ
Ġs Ã´
al ta
ĠA qu
Ã³ p
ĠÑĤ ÑĥÑħ
ĠÐ· Ð²
Õ« ÖĢ
Ġim per
aka i
Ġki ÅŁi
Ġà» Ĥ
bu ah
ĠÅ¡ t
áİ³ áıĹ
Ġrev en
Ġà¦ľà¦¨ à¦¸
çł Ķ
Ã§Ã§ ÐµÐ¹
ĠÐłÑĥÑģ Ð¸Ñı
Ġp oc
at ar
or gan
el ek
un ci
ag al
ĠÑģ Ð¾ÑģÑĤ
ĠÑĤ Ð¸Ðº
ĠÙĪ Øª
áĥĲáĥ ¬
Ñĩ Ð¸Ð»
à¤¸ à¤²
Ã¢ âģ¿
Ú¯ ÙĪ
Ġsp ec
oj u
à²¸ à²°
Ġ8 00
any o
ĠÒ¯ Ó©ÑĢ
à»Ģàº ¥
æŃ Į
Ġ×Ĳ×Ļ× ł
æ° ı
Ġfar itr
ĠÐ¿ÑĢÐ¾ ÑĨ
ĠáĪĭ áĭŃ
h ad
Ġr ÄĽ
Ã¶ tt
og n
Ġsa u
ĠÑĥ ÑĭÐ´
ac c
Ġke essatti
à¤· à¤ķ
ĠÑĩ Ð¸
ĠÚĨ ÙĬ
200 9
ĠÏĢ ÏģÎ¿
ron an
æ³ ¢
ĠÄ« pan
Ġlat er
Ã¦Ð¹ Ñĭ
Ġgener al
Ġnyo e
z et
es ar
or ie
Ġc Ã¼mÃ¼
Ġr ive
ig t
ĠÙħ ÙīÙĦ
ĠH it
ĠH et
ĠÐ² Ð¸ÑĢ
Ġà° Ī
à¸²à¸ Ī
à²ķ à²°
ĠÙĤ Ø§Øª
ans el
Ø§ÛĮ Øª
à¦¬ à¦²
Ð³Ð° Ð°
Ġmag nit
ĠEm manuel
d Ä±n
Ġs ad
Ġs ho
Ġp ea
at n
Ð² ÑĭÐ²
ĠÐº ÑĭÑĢ
Ð°Ð» Ð³
ĠØ¯ Ø³Øª
ĠáĢ Ŀ
áĭ Ľ
az e
ĠÙĦ Ùħ
Äį Äį
àª° àª®
ĠÑĩ ÑĤÐ¾
ĠÐ» Ð°ÑĤ
ÙĪÙħ ØªØ±
Ġmar ka
Ø±Ø¯ ÙĨ
Ġsk ri
ïº Ń
Ġà²ĩ à²¤
ÓĻÑĢ Ðµ
ĠÐºÐ¾Ð¼ Ð¸
Ġkl ub
ç´ Ħ
Õ¸ÖĤÕ©ÕµÕ¸ÖĤÕ¶ Õ¨
ÎµÏĦ Î±Î¹
ĠSept ember
Ġt ik
Ġl j
es ia
à§ ¯à§
Ġv ÄĹ
ĠB ab
ĠØ¨ ÛĬ
eg h
ĠÑĤ ÑĥÑģ
Ð¸Ð½ Ð´
Ġì ²
×Ĳ ×¤
à½Ĩ à½Ĥà½¦
ĠÐ¶ Ð°
Ãµ h
æĺ Ł
amm ad
Ġáİ¤áı ¤áİµ
sc zi
Ġìĺ ¤
ĠÐºÐ°Ðº Ð¾
ëŁ ¬
b ul
f Ã¸
Ġt ud
Ġm um
Ġk ill
Ġw Ã³
Ġw ara
ĠD in
ĠO ri
ÅĤ u
ĠÐľ Ð¾Ð½Ð³Ð¾Ð»
Ġà¤Ĩ à¤µ
àº° àº¥
áŀĬ áŀĽ
ÑĭÑģ Ñĭ
å¼ µ
ĠÐºÐ¸ Ò»Ð¸
ÌĤ -
ÄĹj ÄĹs
Ġà®Ĵ à®°
ĠDip tera
Ġm est
Ġb adan
ĠÐ´ ÐµÑĢ
ĠØª ÛĲ
ers on
Å« r
Ó¹ ÑĨ
ĠÛĮ Ø¦
ĠGr and
ĠAmer ica
çĻ ½
ĠTim Ã³r
ç¸ £
f n
h ib
è Į
Ð½ Ð¸Ð¼
Ġs Ã¼nd
Ð» Ð°ÑĢÑĭ
Ġt ub
Ġk le
es ha
Ġb iri
Ġe w
em s
Ø³ ÛķØ±
ĠÐº ÑĥÑĤ
ĠK er
ĠÑģ ÐµÐ»
ĠI d
ut ti
ĠÐ¼ Ð°Ñģ
ĠW ill
à¤Ĺ à¤®
ib wa
ob h
Ð¾Ð´ Ð¸
ĠÐĲ Ð½Ð´
ĠÑĩ ÓĢ
ga u
ÒĽ Ð°Ð½
ĠÅĤ e
Ġold u
ĠÐ¾Ò¥ Ð¾ÑĢ
p in
Ġm Ã©s
Ġm ula
Ġr im
Ġr ip
Ġj az
ĠÐº ÑĭÐ·
ĠÐº Ð¸Ð¶
Ã¡ in
ro o
Ġz ijn
ĠH ans
ri z
Ġse buah
×¢ ×ŀ
ĠÙĦ Ø¦ÛĮ
Ġsu ur
Ġha avon
Ġàº ķ
à»Ģàº Ĭ
ĠÃ¾ Äģ
æŀ ľ
ĠÕ¥ ÖĢÕ
Ġìł ľ
adr ado
Ġhog y
" ).
E urop
l ap
w anda
Ð½ Ñİ
Ð¼ Ð°Ð»
ĠM ill
ik h
ĠN ac
ĠE nd
Ð°Ð¹ Ð´Ñĭ
Ð¾Ð² Ðµ
ÑģÐº Ð¸Ñħ
Ð¾Ð¼ Ð¾Ð½
Ġth u
Ð¸Ð· Ð°
ä¸Ģ åĢĭ
Ġ192 3
Ġà¶º à¶±
Ð±ÑĥÑĢ Ð³
a Ã°
v ver
Ġ Äģ
Ġc ari
Ð¼ Ð°ÑĢ
Ġj er
ĠB on
ĠP enns
ĠC D
op le
ĠØª ÛĮ
Ã¦ g
Ûģ Ø±
à»Ģàº §
éģ ¸
Ġvi et
æĶ ¯
ĠÐ°Ð² ÑĤÐ¾ÑĢ
ãģ§ ãģ¯
lah t
lig i
Ġ ?
an ske
ia h
ĠL is
à¥Ģ -
ah ay
eg r
ĠÑĤ ÐµÐ»
ĠÑĤ ÄĥÑĢ
ĠØ¦ Ø§ÙĬ
ow ych
Ùĥ ÙĦ
Ð°Ñħ Ð°ÑĢ
Ġ×Ķ ×§
Äĵ o
à·Ģ à·ĥ
áĥĲáĥľ áĥĵ
à½łà½ĳ à½¦
éĢ £
Ġ192 7
Ġà¥§à¥ ®
à¹Ħ à¸¡
Ġ×Ľ ×Ļ×ł×¢
æ´ ²
Ġprof ess
áĥĺáĥĿ áĥľ
ĠGreg orian
Ġhev ur
y un
Ù «
Ĩ Į
Ġs is
Ġt ant
Ġp Ã³d
al ik
à´ «
Ġo x
am me
Øª ÛĴ
Ġi me
Ġj ur
Ð°Ð¹ Ñĭ
Ð¶ Ð°Ð²
ĠÙĦ Ù¾Ø§Ø±Ùĩ
Ã° u
ä½ ķ
×Ļ×Ļ× ľ
Ġ25 0
Ġ×Ļ ×Ĳ×¨
ìł ľ
Ø³ÙĦ Ø§Ùħ
ç½ Ĺ
ĠWash ington
l jen
w on
Ġm ap
Ðº Ð»
ĠS ek
us to
id n
ĠD iv
Ġà¨ Ł
ra f
ĠK os
ĠÑģ ÑĳÑĢ
Ġz at
áĪ Ĭ
ĠF ilip
ĠØ³ ÛĮØ§
ĠØ¬ Ùħ
ãĥ Ĩ
áŀĶ áŀĦ
ĠÙĤ ÙĪ
Ġmet atra
à¤ı à¤²
ĠáĥĲáĥ ĵ
Ġpri v
à°¬ à°¡
k ap
Ġm yr
Ġn ti
Ùī Ù¾
Ġj Ã¤r
à¦¾ )
ĠÑĤ Ð¾Ð´
áĥĲáĥ ¦
Ð¿ Ð¾Ð½
ĠF ritz
ãĤ Ħ
ÙĦÙī ÙĨÙī
áį ¤
Ġav ec
Î» Îµ
ĠÚª ØªØ§Ø¨
ĠØ£ ÙĪ
Ġmay or
ÅĨ a
A N
k ir
ÑĢ ÑĭÐ¼
Ġs ame
áĢ ī
Ġa Ã½
Ġt Ä«
es u
is Ã«
Ġg at
Ġw ali
ÑĮ Ðº
ĠÙĪ Ùģ
Ø´ Ùħ
Ġma oy
oc rat
Ġon a
ĠØŃ Ø³
à¬¤ à¬°
ĠÒ¯ Ð½Ð´
ash on
ÙīÙĦ ÛķØ±
ĠÎ± ÏĢÎ¿
Õ«Õ ¿
lad Ä±
àºĦ àº§àº²àº¡
ĠRep ublik
Ġplan Ã©t
jar ah
Ġkont ak
Ġà¶ļà¶» à¶±
aliforn ia
F L
I ng
{ {
ķ áİ¸
Ġt iene
Ġm ann
am is
Ġv eri
Ð³ Ó©
ĠÐ± Ò¯ÑĤ
ay na
ĠÐ² ÑĭÑĢ
ĠV u
Ġle h
Ġsu v
Ġet c
æľ ª
à¤¥ à¤®
ĠÕ° Õ¥Õ¿
Ġáĥĺ áĥľ
Ġik ke
áĥĶáĥļ áĥ¡
ĠÑģÐ² Ð¾
çµ Ĳ
Ġnah im
Ġìł ķ
Ġà¦ıà¦ķ à¦Ł
á»± c
ç® ¡
ĠÐ±Ð¾Ð»Ð³ Ð°ÑĪ
g un
k Ã²
} }
Ġl ahi
Ġf os
ic us
ent os
à¤µ à¤®
le e
ĠÚ© Ùī
Õ¡ ÖĦ
ĠØ¬ Ø§Ùħ
Å¾ u
à½Ĥà½¦ à½¢
Ġ5 3
Ġmo om
ĠÒ¯ Ñĩ
Ġok anye
ĠÐ¾Ð± Ñī
Ġnahim utang
b t
Ġk wi
Ġl Ãª
ag ne
id in
im at
ĠT re
ek Ã®
ĠÙħ Ø§Ø¯
ĠÐ´ ÐµÐ»
Ġar d
ãĤ °
à¤Ł à¤²
Ġbe en
ĠMar c
Ø§Ø² Ùĩ
amm en
æĻ ®
Ġà¥§ à¥¦
f Ã¬
s erv
Ñ ĵ
Ġt est
Ġk ali
ĠS em
Ã¤ Ã¤r
ĠC as
ĠF ern
ana a
Ġpro te
à¸Ļ à¸Ļ
àª° àªķ
Ġil dÉĻ
ĠSt ates
Ġap ar
Ġgu erra
ÛķÚ© ÛĮ
æĽ ´
Ġ×Ļ ×©
Ġà¤®à¤¹ à¤¤
Ø®Øª ÙĦÙģ
Ġà¨Ĩ à¨ª
é ½
Ġs ug
Ġs atu
it ur
ed z
Ð¸Ð½ Ñĭ
iy y
ĠÙ¾ Ø³
Ø¬ Ø§Ø±
ÛĲ ØªÙī
tr es
Ġog sÃ¥
àªµ àª¸
Ġac tiv
à¨¼ à©Ģ
Ġson ra
åĮ ħ
ĠTh omas
ĠÐĲÐ»ÐµÐºÑģ Ð°Ð½Ð´
Ġn na
it is
Ġw y
ĠC ons
ng Ã¬n
ĠE ur
Ø¨ Ø§ÙĦ
li p
ĠÐ¸ ÑģÐ¿
Ġst re
ĠÙĩ Ø¦
ĠÙĤ Ø¯
Ġcom u
Ġ5 4
à²¡ à²²
ĠØ® ÛķÙĦ
Ġil ÉĻ
Ø§Ø³ ÙĬ
Ġum i
Ð²Ð»Óĵ Ð½
Ġfyr ir
g j
Ð½ Ð°Ñģ
ĠB und
and in
ng á¹³
ĠÐ¿ Ð°ÑĪ
ĠÚ© ÙĪÙĦ
à¬° à¬®
Ġko je
ind o
à½Ĩ à½ĳ
ier a
áĮ ħ
ĠÚĨ Ø§Ø±
Ġ. ..
ÐµÑĪ Ðµ
ÅĽ e
ÛķÚ© Ûķ
à¾Ļ à½º
Ġpun ika
Ġpou or
ĠÙ¾ÛĮ Ø´
ĠboÊ» l
Ġmarc apada
Ġk all
Ġb ien
à® ¸
ik at
Ġà² «
ang er
ĠD ec
ĠT V
Ð¿ Ð°Ð»
Ø¹ Ø±
à¸²à¸ ¥
áıį áİ¦
Ġak tiv
ĠØŃ Ø§ÙĦ
ĠÃ§ ÑĥÐ»
à¸Ĺ à¸¢
áŀľ áŀĶ
ĠØ§ÛĮ Ø³
sp ort
ĠÐ¿Ð¾Ð» Ð¸ÑĤ
ĠnÃ© bula
Ġolar ak
g as
Û ¹
Ġ ureu
Ġd Ã¼
áĥ Ł
Ñģ Ð°ÑĢ
Ġp Ã©
Ġk Ã³
Ġv od
ia ÅĦ
ĠÑĤ I
ĠÐ´ Ð°Ð²
ĠV iren
ĠÑħ ÑĥÐ´
áŀĵ áŀŁ
à¸²à¸ ķ
Ġà¤ľ à¤®
ine a
ord in
àº²àº Ĺ
Ġáİł áİ¾
áĢĲ áĢħ
ĠÚĨ ÙĪÙĨ
ĠáĪ į
Ñĳ Ð²
Óĵ ÑĢ
ĠÚª Ø±
ĠPar ti
uss en
Ġ×Ķ×Ĳ ×ĳ×Ł
Ġà°® à°°
Ġà¨ī à¨¹
Ġà°ħ à°¨
éķ ¿
zÃ« b
stit ut
ĠØ³ÙĨØ¯ Ø³
ç Į
Ġd ÄĹ
Ð½ ÐµÑĢ
ÙĨ Ø³
Ġb Ä§
el wa
Ġc ab
il gan
Ġv et
Ġv og
Ġv iz
Ġe erste
Ð¼ Ð¾
Ø¯ ÙĪØ±
áŁ Ĺ
id de
ĠR es
ĠÐ´ Ð¾Ð±
ĠÐ¼ Ð¾ÐºÑĪ
ow i
Ġta x
Ø¬ ÙĪ
lar dan
àªµ àª¨
à¸´ à¹Ī
ĠKar l
Ġcir ca
ĠÐ¿ÑĭÑĢ ÑĭÑĪÑĭ
s ia
Ġv Ã¡
Ġg b
im ento
ĠT am
Ġan ca
ri u
ion ale
ĠÙĨ Ø¦
Ġà¥ Ń
Ġì Ļ
à¤ļ à¤²
ill o
ier en
yd h
ĠÑĨ ÐµÐ½ÑĤ
Ã¢n t
Ġ192 5
éł ĺ
ãģķãĤĮ ãģŁ
ĠMicha el
o ir
t it
Ð½ Ð¸ÐºÐ°
Ġo ther
Ġe ftir
áı ¬
ĠP lan
ĠÑĤ ÑĥÑĤ
Ð± ÐµÑĢ
ĠH ab
ĠÚ© ØªØ§Ø¨
ĠF u
ĠØ¦ ÙĬ
ann oo
Ġsp ort
ĠÐ¶ Ð¸Ð²
Ġso cial
ä» ¶
ond ronan
Ġter min
ÑįÑħ Ñį
è¨ ĺ
Ġpopul ar
ĠEst ados
æĶ¿ åºľ
åĤ ³
ĠNeder land
Ġfiv ondronan
w let
Û ±
ì °
in sa
Ġs end
áĢ ĵ
Ð´ Ó¹
Ġh r
Ã© an
Ã¡ b
Ġáĥ °
Ġu gu
Ġà¤¸ à¤Ļ
áĥĶáĥ Ļ
Ġst Ãª
ĠÛ ´
Å¾ o
Ð¸ÑĤ Ð°
we un
Äĵ t
áį ĭ
pl ic
áĥķ áĥĺáĥ¡
Ð½Ñĥ Ñİ
éļ Ľ
ç© ¶
ĠJos Ã©
á»ģ u
d n
at et
Ġg ia
áı Ķ
ti p
Ġj as
ĠÐº ÑĥÐ´
Ġ19 10
ĠF ar
×ķ× Ľ
ĠÐ³ ÑĥÐ±
up o
Ġst ro
Î± Ïĥ
ÙĦÙī Ù¾
áº ¯
å® £
Ø· Ùĩ
ÙĨÙĩ ÙĨØ¬
áĥķ áĥĲáĥļ
å· Ŀ
à¸ļ à¸£
Ġà²µ à²°
ìĿ´ ëĭ¤
áĥĿáĥĳ áĥĲ
Ġprod uk
ĠKabup at
A m
b ra
w ara
Ä °
Ö ĥ
ĠÐ «
Ġd itu
Ġt ure
Ġb ers
it iv
um in
ia e
ĠK im
ay u
Ø´ Ùĩ
ĠÐ¼ ÐµÑģÑĤ
Ġà´ ¯
Ġda a
ĠØ³ Ø§Ùħ
ĠJ ep
ĠáĢ Ĺ
ĠÐļ Ð°Ð·
ann t
Ġà¤¬ à¤²
à®° à®®
à¦¬ à¦°
Øµ ÙĪ
ĠÃ§ he
Ġáīł áĬł
ĠPro gr
Ġrad yo
Ġparl ament
c Ä±
l Ä«
Ġg Ãł
ĠÑģ ÑĥÐ»
eg ua
ĠØ³ Ú©
ãĤ µ
áŀĵ áŀĳ
àª° àª£
à®Ł à®®
à»Ģàº ª
ÛķØª ÛĮ
Ð¸Ñħ ÑĬ
Ġmin ist
ÅĽ ci
ĠÐ¸Ð½ ÑģÑĤÐ¸ÑĤÑĥÑĤ
Ġáİ¤áı ģ
Ã¡r ini
Ġsab agai
Ġà¦ĩ à¦¯
Ġant ara
Ġwax a
èĭ ı
ĠÐ½Ð°ÑĢ Ð¾Ð´
ĠÐłÐ° Ã§Ã§ÐµÐ¹
c ter
j um
ç Ĺ
en sa
Ġm og
is es
Ġb ob
Ùħ Ø©
ĠÙħ Ø§ÙĦ
ing ar
ĠáĢ Ĥ
Ġì ¹
ĠØ´ Ø±ÙĪ
ĠÐĲ Ð¹
ĠZ u
ĠÑĦ Ð°Ðº
ĠSt adt
Ġus h
ĠÎµ Îº
ìĦ ł
à¨ĩ à¨Ĩ
s ol
Ġd us
Ġf is
Ġr ÃŃ
ĠÐº Ð°Ð¿
Ã¡ va
ĠÚ© ÛĮØ§
ĠÙ¾ Ø±ÙĪ
à¾² à½´à¼ĭ
Ġas sa
Ñĺ Ð°
Ġà®ĩ à®¤
Ò¯Ð» ÓĻÑĤ
×ķ×¢ ×Ł
k ah
t Åį
it Ã¦
Ġc od
à¶ ł
ĠA u
ĠÚ ³
ĠI st
áĥĲáĥ ŀ
ÑĬ ÑĤ
Ã¶ m
á» ³
ÑĭÐ» ÒĵÐ°
ell en
ĠØ¹ Ø¯
Ġà¸ ĭ
Ġà¨¸ à¨®
à¾© à½²
ĠÃº r
Ġpan ag
Ġtro ch
Ø§Ø±ÙĬ Ø®
Ġnor te
w ys
Ï Ī
Ú ī
Ġb ira
il iki
Ġy Ã®
ul at
Ã¨ i
Ø¹ ÙĦ
ĠØ® Ø·
ãģ« ãģ¯
çī ĩ
ĠdÃ© i
íķĺ ê³ł
ÑģÑĤÐ² ÐµÐ½
à¹Ĥ à¸Ķà¸¢
ĠAnd re
Ġsm oo
áº£ i
l k
è ĸ
Ð¼ Ñĸ
ĠS ak
ĠB ret
ra w
ĠØ¯ Ø§Ø¯
ĠÐ¼ Ð°ÑģÑĤÐ¾ÑĢ
Ġì ¶
ĠÑĢ Ð°Ðº
à«ĩ ,
Ġdel l
Ġ5 2
ØŃ Ø±
Ġà²ķ à²°
Ûİ Ø±
Ġê ¸°
Ġres ult
æĽ ²
ĠÑĤÑĥÑĢ Ð³Ð°Ð½
for ma
Ġrad io
f ab
n itt
É ª
Ġs ka
Ġf h
Ġà² Ł
ta y
ig ur
Ġch in
á» ķ
×¨ ×ĺ
Ġpro g
Ġà¤ľ à¤¬
ĠØ´ Ûĩ
ĠÙĩ Ø§Ú©
ĠÐ» Ñİ
ÙĪÙĦ Ùĩ
ĠØ¹ Ø±Ø¨
ĠØ§ÙĨ Ø¬
Ø¶ ÙĪ
à²¬ à²°
ÐµÐºÑĤ Ð¾ÑĢ
Ġ) ;
ĠApr il
ì¹ ĺ
I s
p un
é º
í Ĭ¸
Ġd apat
er ah
Ġm ien
Ġm ass
Ġk ama
el is
il asyon
Ð¼ ÄķÑĪ
Ġr un
ed h
Ä± g
ĠÐ² Ð¾Ñģ
ĠÑħ Ð°Ð½
áĭ ±
à§° à¦ķ
Ã® r
Ġper Ã²
ĠÐł ÐµÑģÐ¿ÑĥÐ±Ð»Ð¸ÐºÐ°
èĩ £
éĻ ½
Æ° Æ¡
Ġïº ĭ
Ġmunicip al
ĠØ®ÙĪØ± Ø´ÛĮ
Ġt ec
Ġt ark
Ġb ig
Ġf av
ĠS ci
ti o
áİ «
áİ ¿
à± Į
ud io
na ch
ĠÕ ¨
ÏĦ Î¿
ĠÐļ Ð°Ð»
Ð¸Ñı Ð»
äº ļ
ama a
ĠÐĳ Ñĥ
à°² à°¨
áŀĻ áŀŁ
à½Ĳ à½ĸà½¦
Óĵ Ð½
à¾© à½ºà¼ĭ
ĠÃ´ ng
Ġpolit ik
Ġgrup o
Ġmaj or
áĥĺáĥ£áĥ ł
×Ļ×¡ ×ĺ
Ø±ÛĮÚ© Ø§
Ġbev ol
â ĹĦ
áŀ ¿
Ġp em
Ġn ib
al g
Ġj ih
um en
Ð°ÑĤ ÐµÐ»
Ð¾Ð½ Ñĥ
Ġle f
Ġle en
Ġar ab
Ġar be
Ø¹ ÙħØ§ÙĦ
Ñİ Ð·
Ġsp i
oh ang
åĪ ¥
æĶ »
alm ent
ĠNg Äģ
ĠÐ¾Ð» Ð¾Ð½
ì¡ ±
Ġdiplom atik
Ġtoer ana
c zi
f Ã´ng
t he
Ġd ov
Ġd isk
Ġt og
Ġk ter
el Ã¶l
Ġj uni
à½ĳ à½¢
Ã¤ g
ĠÐ¿ Ð°Ñģ
Ġen a
Ã¶ g
Ò¯ Ð·
ĠØ§ÙĦ Ø·
Ó© Ð¹
Ä« s
Ġ×Ķ ×¢
à¾Ĵ à½¼à¼ĭ
Ú¾ Ø±
å® Ī
ä½ ı
iti es
à¾³ à½´
ĠÄĳ Ã£
Ġpos tu
áĢ¡ áĢģ
ami Ã©n
ĠÅ¾ iv
áĪĪ áĭį
ĠBur eau
ç¤ º
Î¸Î· ÎºÎµ
Ġm enn
Ġm Ã¨t
ch amp
ĠM ann
Ġ19 12
ĠÑģ Ð¾Ð´
ĠÙħ Ø«
Ð± Ð°Ð½
ist s
up an
ĠÐļ Ð¾ÑĢ
Ù¾ ÛĮ
Ø® ÙĪ
à®¤ à®²
ÑįÐ½ ÑįÐ¹
à°² à°²
à½ķ à½ĵ
àºĻàº §
Ġvar Ã°
áĢ¡ áĢĲ
ãģ¨ ãģĹãģ¦
Ġà¤ķà¤° à¤¨
Ġprim or
ĠÐ³ÑĢ Ð°Ð´
áĥĺáĥĵ áĥĲáĥľ
è§ Ĵ
j ekt
r ig
Ġ à½ļ
Ĩ Ĵ
Ĭ ¹
ar re
Ġc am
Ġe ma
Ġf ort
Ġàª «
Ð± Ð°ÑĤ
ie c
ĠF ebru
Ð°Ð´ Ð°ÑĢ
av an
ĠÑĢ ÐµÑģÐ¿ÑĥÐ±Ð»Ð¸Ðº
ĠÚ¯ ÛĮÙĦ
ĠÚ¯ Ø¦ÙĦ
à¥Ī ,
ĠÑĦ ÐµÐ´ÐµÑĢ
ly mp
Ġser ie
Ġcum o
Ġtot al
Ġpart ir
Ġìŀ Īëĭ¤
áıįáı Ĩ
Ġtok ko
ĠOrom oo
d as
w ork
Ġk is
Ġk ho
ĠD ol
Ġà¨ Ĳ
ĠL en
ĠE mp
ĠG ouv
ĠÐ¼ ÑĥÑĢ
ĠØ³ Øª
ci j
Ġà¥ ®
si i
ÑĭÑĢ ÑĤ
ĠY o
Ġàº Ļ
ĠÐ±Ð¾Ð» Ð¾
per ti
ĠÚ¾ ÛķÙħ
ĠFr ant
Ġ×ł ×Ĳ
ĠÕ¡Õ ¼
Ġrepres ent
áİªáıĹ áıĹ
c as
v id
Ð½ Ð°Ð²
Ġa sa
Ġm ata
Ġk and
at it
ĠA ote
à¤ķ à¤¡
ĠÑģ Ð¾Ð±
Ñĸ Ð¿
ĠE f
ĠÐ´ ÑĥÐ½
Ã¶ z
ĠU ng
ari u
áŀĵ áŀĩ
eb ra
ĠÑĢ Ð¾Ð´
ĠÐ¿ÑĢ Ð¾Ð²
ord en
ÚĨ ÙīÙĦÙī
áģ į
Ê¼ Ã¡
Ġmu y
Ð¸Ð· Ðµ
ÑĭÐº ÑĤÑĭ
erd in
Ġci Ã¡h
áĢ½ áĢ¬
à¶½ à¶º
ĠÄĳ á»Ļ
ĠÙģØ± Ø§ÙĨ
ĠìĦ ±
alaw igan
Ġtara f
Ð»Ð°ÑĤÐ¸Ð½ Ð»Óĵ
Ġreven uo
Æ°Æ¡ ng
ad is
ĠÃ Ķ
Ð³ ÑĥÑģÑĤ
la Ê¼
áŀļ áŀł
à¬° à¬£
Ġas p
àº§ àºį
Ġàª¸ àª®
atur en
ĠJoh r
×Ļ×© ×¢
zb ek
estiv al
E R
Ġt ien
Ġp hax
Ġb ib
Ġi pan
ĠØ§ Ø´
Ã© re
ing o
ri eb
Ġà¬ ĸ
ĠÎ Ŀ
áĥĶáĥ £áĥ
Ã´ ÅĤ
ala Å¡
ĠØ¢ Ø¨
Ġor ang
Ø±ÙĬ Ø©
Ð¸ÑģÑĤ Ð¾Ð½
Ġkl ima
çĪ ¶
ĠØ§ÙĦØª ÙĬ
ÑĥÐ³Ð° Ð°ÑĢ
Ġáģģáģ īáģ
l ÃŃ
r z
y v
Ġs ong
es en
Ñı Ð³
ut ar
áĥĺ áĥĺáĥ¡
à¦¿ à¦Ĥ
Ġì ¤ĳ
Ġes ti
Ã§ y
áĥĿáĥ ®
Ãº t
ru z
ÛĮØ§ Ø¯
ale e
Ġhe f
Ġand re
ĠAl lah
áĢ½ áĢ²áĢ·
Ġpl use
Ġà¦ħ à¦¸à¦®
áıĽ áİ´áıħáıĵ
Ġinter na
Ġ×ĸ ×¢×ł×¢×Ł
ĠØ¦Ûĩ ÙĨÙīÚŃ
ĠØ¦ÛĨ Ø²
Ġkang go
Ġters ebut
c or
´ Ģ
áŀ ²
Ġm und
Ġb este
Ġc rit
Ġg Ã¼n
ĠÐº Ð¸ÑĪ
Ġáĥ «
Ġz ar
ĠÑĤ ÐµÐº
Ġen pres
Ð°Ð¹ ÑĤ
li b
Ġcom pos
Ġme er
Ġsi Ã¢âģ¿
ili an
áĥĶáĥĳ áĥĺáĥĹ
Ġàªª àª£
íķĺ ëĬĶ
ĠNov ember
l isch
Ġc res
ĠØ§ ÙĨØ¯
ti ge
Ġà¨ ¯
Ġis la
ÅĤ ts
ĠÑį Ð³
Ġest asyon
à·Ģ à¶»
à¬¨ à¬Ļ
Ġ×ŀ ×©
Ġlig ger
ĠÚ©ÛĮÙĦ ÙĪÙħØªØ±
h ir
á ł
Ġs ow
áĢ Ĺ
ar da
ÑĤ Ð°ÑĢÑĭÐ½
Ġm Ã¥n
ch á¹³
Ġv ro
us es
ĠM ot
ik ir
Ã¤ v
Ã¤ ll
ĠÐ± Ð¾Ð´
ĠÑĤ ÑĭÐ»
à¾± à½ºà¼ĭ
iy as
âĢĻ âĢĻ
Ø² Ùħ
ĠÐ· Ð°Ð±
ĠÙĦ Ø±
ĠØ´ Ø§ÙħÙĦ
à¤ľ à¤ķ
Ø§Ùħ Ø¨Ø±
Ġà¤¤ à¤®
Å« t
Ġop o
àºĩ àºģ
à½Ĳ à½Ħ
áŀħ áŀĢ
ĠÃ¾ Ã¦s
alar Ä±
ĠSp esies
Ġpres ent
Ġ190 5
×¨×Ĳ ×ľ
Ãłl la
. Â»
l al
is ÃŃ
at te
ch em
Ġc ri
Ð² ÑĭÐ»
ĠM is
ta j
Ġà¨ ¡
ĠÙĪ ÙĤ
Ð¶ ÑįÑį
ant er
à¤Ĺ à¤¢
à¤Ĺ à¤£à¤¨
ĠÐ¶ ÑĭÐ»
chi u
ÐµÐ³ Ð¸
ĠáĢ¡ áĢģ
ĠÐ³Ð¾Ð´ Ð·Ðµ
ĠÔ ¿
ĠÐ°Ñģ ÐºÐµÑĢ
D A
j it
t ak
Ġd ÉĻ
ur al
Ġi ad
Ð°ÑĢ ÑĮ
ĠH un
Ð¸Ðº Ð¸
ala is
ÙĦÙī Ø¯Ûĩ
oh r
×ł ×ĺ
Ñĺ Ñĥ
ff a
ĠØ² ÙĨØ¯
Ð¾Ð· Ð¸
å¤§ åŃ¦
Ġjo y
ÛķÛĮ Ûķ
ĠÔ ¼
ĠáıĤ áıĽáİ´áıħáıĵ
ĠÐ³ÑĢÑĥÐ¿ Ð¿
ĠJes us
Ġesse va
Ġáİ¢áı §
weun ers
d ay
h and
r Ä«
Ó Ł
í ļĮ
Ġd ul
Ġl il
Ġl ed
Ġv ec
Ġg ep
Ġg Ã¡u
ĠÃ Į
Ġr if
ang en
ĠD un
ĠD re
ĠK az
Ġz aman
ĠR en
ĠH igh
Ġan ak
ĠJ en
iv al
Ġis te
ip p
áŀļ áŀİ
Ġáı Ń
Ġáı °áİµ
ÐµÐ² ÐµÑĢ
ÛķØ± ÛĮ
ĠØŃ Ø§ØµÙĦ
Ġmen m
æķ °
Ð°ÑĢÐ° Ð°
à¤« à¤²
Ġrel asyon
ëı Ļ
ĠAote aroa
p al
Ġs eng
Ġn ast
Ġe ile
Ġf en
ĠS ie
ĠN j
ĠN aj
ĠÙĪ Ø£
ĠÐ² ÓĵÑĪ
ĠÎ Ķ
je w
Ġqu el
av er
ĠÑĢ Ð°Ð±Ð¾ÑĤ
Ùĥ Ø©
Ġne j
art en
oj o
ach i
Äķ Ð¿Ðµ
Ã¨n man
áİ¬ áı©
Ġkap it
Ġà¦Ĺ à¦¨à¦¨
çµ Ħ
ï¯ ĺ
ë¬ ¸
Ġo or
Ġv ille
te v
Ã¡ nd
ĠT op
Ġen erg
Ġà¤ª à¤¡
Ġpr u
Ġel e
ma an
ĠÐļ Ð¾Ð¼
Ð¸Ñı Ð½ÑĮ
Ø® Ùħ
Ġ5 8
Ð°Ð± Ð¸Ð»
Ġth Ãłnh
à´° à´µ
Ġman era
ĠØ² ÙĪ
ĠØ¯Ø± ÛĮØ§
ĠÐ¹ Ð¸ÑĪ
à©Ī à¨Ĥ
Ġinter pr
ÃŃn h
ÙĨÚ «
à±Ĩ à°Ĥ
rey Ã²l
Ġmoo y
j ang
n ov
² áį
an sk
en si
Ġb la
it se
Ġh ari
Ð³ Ð¾ÑĢ
áı İ
Ġi j
ĠM agn
ang wa
ĠC um
Ġà¤ķ à¤¹
Ã¶ y
ĠV el
ĠÐ· Ð¾Ð½
ĠÙĦ Ú¯
ĠØ´ ÙħØ§ÙĦ
åľ Ĵ
Ġum um
ĠÃ§ al
à®³ à®¤
åĭ Ļ
Ġid enti
Ġdur ch
è® Ĭ
Ġret ire
åķ ı
æº Ĳ
f ir
l Ãº
± °
Ð° Ñī
Ġd ub
et ism
ÙĬ ÙīÙĨ
us tu
Ġin ic
à½ĸ à½Ĥ
áİ §
ãģ Ī
ĠR oba
le ÅŁ
ĠØª ÛĪØ±
Ġì £¼
Ø® Ø§ÙĨ
ÙĦÙī Ø´Ùī
Ãµ es
ĠÐĳ ÑĢ
Ð¸Ð³ ÑįÑĢ
ç» Ł
ĠPl ant
áĥĶáĥĿ áĥĳ
ĠëĤ ĺ
r upa
z v
Ġd ing
Ġs g
ar ie
on ni
Ġm Ã¢
Ġl eta
Ġc ensus
Ġh v
ÑĮ Ðµ
ĠC la
ÑĨ ÑĤ
ka u
Ġko uman
àº²àº ¥
ĠáĬ Ń
ĠÐĳ Ð°ÑĢ
Ġkom m
Ġáİ¤ áİ¾áı
å° ģ
Ġpl ay
Ġnas od
zy Ã¨m
Ġà¬ı à¬¬
Ġgeb ru
ĠEurop e
çı Ń
ëª ħ
ĠÐ´ÓĻ Ò¯Ð»ÓĻÑĤ
Ġotor ite
k ri
í Ĩ
Ð° Ò»
on is
Ð´ Ð¾Ð½
us sa
ĠN Ã«
ĠÙħ Ø³Øª
ĠÐ¿ Ð°ÑĢÑĤ
ĠÐ¶ Ð°Ð½
Ġ×ĳ ×ª
ĠÒ¯ ÐµÐ´
ĠØ· ÙĪØ±
Ġà®ħ à®®
à¾Ĳà¾± à½ºà¼ĭ
ĠLong champ
ĠÐ±ÑĥÐ³ Ð¾
Ġáİłáİ ¹
Ġì¡ °
æ ļ
áĥ «
Ġt rib
Ġl alawigan
Ġc Ä±
Ġde zyÃ¨m
Ġr adi
ĠK reyÃ²l
ĠN A
ĠÙħ ÙĪØ±
ĠG all
ÐµÐ½ Ð½Ñı
Ø¨ Øª
Ġun ha
Ð°Ð¹ Ð³
Ġpr Ã©
ĠÑħ Ð¾ÑĢ
Ùĥ Ø±
Ġet ter
à¸Ļ à¸Ķ
ĠÐľ Ð¸Ñħ
ĠÐ¶ Ð°ÑĤ
ost lin
ĠÙĥ ÛĪ
à¦¹ à¦°
ĠÊ» akau
àºĻàº ķ
ly g
ĠÑģÑĤ Ð°ÑĤ
Ġà®® à®±
ĠÃ¦ ÑĢ
×¢×ł ×ĺ
Ð°Ð½Ð¸ Ðµ
ĠAy isyen
á»¯ ng
Ġdw Ã¨t
ĠÐ²ÓĵÑĪ Ð»Ð¸
" ),
e ar
k po
w ig
z it
ç ª
Ġs isp
ÑĤ Ð°ÑĢÑĭ
Ġm amp
es si
Ġh ul
ÑĮ Ð¼
ĠM idd
im bo
Ð¿ Ð°ÑĢ
ÙĤ Ø§Øª
áĥĺáĥ ¥
ĠÐ¾ ÑĦ
ĠØ§ÙĦ Ùĩ
Ø² Ø§
ãĥ ¡
Ã§ o
Ġab i
à½ļ à½Ħ
Ġpo i
ĠÐĿ Ð¾Ð²
ĠPr in
ÐµÑĩ Ðµ
ĠÐ°Ð² Ð°Ð¹
Ã¤d as
pres s
ĠLor osa
Ġdak bayan
ganiz asyon
ĠGouv Ã¨nman
Ġsisp ann
n oc
æ Ĥ
Ġm undo
Ġb ra
Ġde e
Ġde h
ol lo
Ùī ÚĨÛķ
Ġin weuners
ĠÙħ Ø·
áĪ »
ĠÐ´ Ñĥ
ĠO EA
Ġis e
ĠÑĥ Ð´
ĠIn de
Ġàº ļ
Ġáİ¤ áıĻ
àª² àª¨
ĠÃ¼ ber
áĥĲáĥłáĥ Ľ
ĠÃ² ganizasyon
akar ta
ĠPop ul
ĠPop ilasyon
Ġ300 000
ĠRel asyon
Ġfilos of
Ġkouman se
Ġ ÈĽi
Ġs ok
Ð» Ð°Ð´Ð°
Ġk ac
at el
Ø± Ø³
Ġo ma
ĠÃ ħ
Ġw eb
Ġin ta
Ġy am
à¤ķ à¤¸
ĠI SO
Ġch ansel
op ol
ĠJ uni
ug os
Þ° ØĮ
ĠÙ¾ ÙĨÙĩÙĨØ¬
ĠÑĢ Ð°
àª° àª¨
tr is
ens ia
ĠY ou
à¸ĩ à¸ģ
ĠáĪ Ĩ
Ġàº ¥
áŀĻ áŀĺ
Ġter itor
iya a
ĠÃ¶ ver
Ġbir nin
è¿ Ļ
Ġrep rann
ĠÒĽ Ð°ÑĢ
Ġà½¢ à½Ħ
Ġsim ipi
ÚĻ ÙĬ
Ġperi od
ĠKan ada
ĠÙħØ¬ ÙħÙĪ
Ġincl ud
çłĶ ç©¶
ĠRoba ina
ĠÐ²ÓĵÑĪÐ»Ð¸ ÓĵÐ»ÑĤ
Ġchansel ye
t am
Ġt ad
Ġt orn
Ġn Ãły
ÛĮ Ø§ÙĨ
àª ĩ
ĠS ul
ak ti
ĠP la
Ġan im
Ġà¬ ĩ
à§ĩ ,
Ã¦ Ñħ
Ġpr et
Ġar Ä«
áĭ ķ
ĠÑĪ ÑĤÐ°ÑĤ
Ð¾ÑĤ Ð¸
Ġ5 1
Ġim m
Ġà¸ ķ
Ġ×ĳ ×¢
ass en
Ġà¦Ĩ à¦¨
ä¼ ¯
ĠØ¯Ûķ Ù¾
ĠSeg un
Ġterrit ori
Ġà¹Ĥ à¸Ķà¸¢
è¾° åħī
c al
h il
r Å¡
r á»¥
Ð ¯
é Ĭ
Ġ áŀĽ
Ð¸ Ð¾
Ġp ikeun
at io
Ġw Ã¦s
Ġy els
Ġj uli
ĠD al
Ġz af
Ð¿ Ð¸
ĠF ir
ĠV ers
ĠÐ³ ÑĭÑĩ
ĠU p
ãĥ Ĺ
ĠY ma
Ú¾ ÙĨ
Ġà¦¬ à§°
Ġest r
ĠØŃ Ø¶
ĠÃ± e
Ġul ohang
olu tion
èģ Ķ
Ò· Ð¸Ðº
Ġà¥¨à¥¦ à¥¦à¥
r ys
Ġd og
Ø§ ÙĪØ±
on ie
Ġm ÉĻ
Ġk enn
Ġb uvo
ch as
Ġf inn
Ġy en
Ñħ ÑĤÑĮ
ÑĪ Ð°Ð»
Ñĸ Ñĸ
Ġz an
Ġun o
Ġu Å¾
ac t
ÐµÑĤ ÑĮ
Ġko j
Ïģ Î·
Õ¸ÖĤ ÖĢ
ĠÐ¢ ÐµÑĢ
Ġpa is
Ã¼n de
áĪĪ áīµ
è¦ ĸ
à¨Ĺ à¨°
ĠÎ¿ ÏĢÎ¿
Ã¼Ã¼ t
ĠÐ¸Ð¼ Ð¿ÐµÑĢ
Ġteng i
ĠRich ard
ĠØ®ÛķÙĦ ÙĤ
Ġprimor dial
y it
Ä ·
ķ Į
Ġb ho
il or
Ġf ab
us ion
Ġla ik
ĠÐ² ÐµÐº
li j
Ã¢ ts
Ø¬ Ø§ÙĨ
Ġpro ces
ÑįÑĢ Ð¸Ð½
Ø§Øª Ùĩ
à¸Ń à¸ļ
ĠAl eks
Ġà²ª à²¡
ĠÑģÑĤ ÑĥÐ´
Ġpod er
Ø±Ø¨ Ø¹
Ġprim er
ĠÐºÐ¾Ð¼ Ð°Ð½Ð´
Ġib abaw
ĠÐŁÑĢ ÐµÐ·
áıĥ áİ®
Ġtemper atura
p ak
Ø Ł
Ð³ Ð¸Ð»
Ġà² ı
Ûķ ÙĨØ¯
ĠT ro
ĠØ¨ Ùħ
Ġz m
à¤µ à¤µ
Ġch ng
áŀĵ áŀĵ
ac o
ÑģÐº ÑĸÐ¼
ÑģÐº Ð¾Ðµ
Ð°Ð³ Ð°Ð¹
ev en
à¦² à¦¤
Ġto i
Ġ5 6
ĠÐ¢ ÑĢ
Ä§ u
Ġez alÃŃ
Ġzu en
Ġàª¥ àª¯
ĠÐ¶ÑĥÑĢ Ð½Ð°Ð»
ĠÃ¤l Ã¶d
O S
u ah
y cz
è Ĵ
Ð» ÑįÐ»
Ġt ÉĻ
ĠS et
ĠP ot
ĠÐº ÑıÐ»ÑĮ
Ð· ÐµÐ½
ek er
ĠG eneral
ãĢ İ
ist u
Ã´ s
Ġsu e
Ã½ an
à¶» à¶ļ
Ġ7 00
Ġà¤ī à¤ļ
Åį n
ÑįÐ» Ñħ
×Ĵ ×¨
å¼ ķ
ogra fi
ĠáıĹ áİ¦
Ġhal k
à¦ĵ à¦¯
àºĪ àº²àºģ
éł Ń
àº¶ à»Ī
Õ¸ÖĢÕ ®
Ġave i
×©×ł ×ª
Ġbaba en
C A
b ah
g s
g w
k ow
z Äħ
Û ¸
Ġd ab
áĢ ı
Ð» Ð°Ð³ÑĮ
ĠS ep
áŁ Į
ed ig
ay Ä±
ÃŃ r
Ġz na
ĠÙħ Ú©
ãĢ ı
Ġse en
ĠÑĢ ÑĥÑģ
Ø¬ Ø¯
Ġte or
ĠÑĪ ÑĭÐ²
à¾Ĵ à¾²à½²
ama an
Ġit ti
ĠÃ¤ lab
ÑĥÐ³ Ñĥ
Ã©n cia
ĠÛģ ÙĨ
ÙīÙĦ Ø§Ø±
200 2
à¦ļ à¦¨
ĠIt ali
Ġà¤ľà¤¨ à¤Ĺà¤£à¤¨
ĠÃĦ dabinons
ĠÐ±Ð¾ ÑİÐ½
Ġlomane fs
ĠGerman ia
Ġ×Ĵ×¢×ķ ×ķ×¢×Ł
æ¹ ĸ
ĠfamÃ¼l s
ĠÐ¿ÑĢÐ¾Ð³ ÑĢÐ°Ð¼
T V
k or
l ige
t ok
ç Ĩ
en ci
Ġs ym
Ġb ru
Ġv ier
Ġv ita
Ġf iz
ur ch
ak ter
ĠØ§ ÙĨÙĩ
áŁ ¢
ul es
ĠD or
ĠL emesed
Ġ19 11
ĠÙĪ Ø±ÙĪ
Ġà° Ń
Ð¾Ð² Ñĭ
ĠÑħ Ð¾ÑĤ
ĠÑĪ Ð¸Ð½
Ġbe f
à¹Ģà¸ §
ĠÃ¤ so
Ġà§ ¬
áĢĽ áĢĶ
à¦Ĺ à¦®
ĠLe ague
å± ¬
Åº i
Ġfrug etism
ĠÃ¤binÃ¤d ons
ĠÃ¤so elÃ¶l
n em
v ez
Ġn ob
Ġb yl
it za
il ig
Ã© na
Ð± Ð°Ð»
Ġsa w
Ġà¤ª à¤Ľ
ĠáĢ Ł
ĠÕ ¬
Äį u
ĠÑĩ ÐµÑĤ
Ó§ ÑĢÑĤ
Ò» Ð¾Ð½
ĠÐ¢ Ð¾
ĠÑĦ Ð¸Ð½
Ġáī £
Ð½Ð¸ Ñĩ
land a
ĠÃ§ Ä±
Õ¥Õ ´
áĥł áĥĺ
ĠFran cia
áıĤ áİ¨
éĻ į
à½ĸà½ŀ à½Ĥ
ìĭ Ŀ
íĥ Ģ
h elm
j ut
l Ã¼
q ip
ĠØ ¸
Ġm idd
el ah
Ðº Ð°Ð¼
Ġg reg
Ã¡ ik
ĠT emp
ĠK ra
ĠK aw
eg t
ãģ ©
ĠG ab
áĪ ½
áĪ Ļ
Ġu ur
ci ÅŃ
à¤¦ à¤²
Ġar ea
sk y
Ä« v
ĠÐ¡ Ð°Ð½
ĠÐ¡ ÐµÑĢ
Ġ5 7
ĠÐ» ÑĥÐ½
à½ŀ à½£
Ð¾Ñģ Ð»Ð°Ð²
Ġáĭ µ
Ġáī µ
Ó¹ ÑĤ
Ñŀ ÑģÑı
×© ×ĺ
ĠQ ue
Ġ×¢ ×¡
×Ľ ×ľ
ÑĭÑħ ÑĮ
ĠAmer ik
ĠÐ¾Ðº ÑĤ
ĠÑģÐº Ð»Ð°Ð´
Ġrok Ã¹
» áį
Ġt ele
as ch
un to
Ð´ Ð¸Ð·
Ġw ana
ag hey
ĠK urd
ĠÑģ ÑĥÑĥ
ĠÐ± ÐµÐ·
ãģ ł
áĪ İ
ĠÐ¼ Ð°Ð³
ĠÎ ¬
ĠÐ³ ÑĥÑĢ
Ġma ar
Ð¸Ñı Ð½
Ġà¤¹ à¤µ
ÐµÐ¼ Ð°ÑĤ
Ġ6 3
à¤ĥ ,
áŀĻ áŀĶ
Ġà¸ Ļ
Ġpl at
äºº æ°ĳ
Ã¨n t
ÙĪÛĮ Ø¨
imi ento
ìĥ ģ
h em
è ħ
Ġd ira
Ġk ed
à¬ «
ĠP ad
im s
ĠT ir
st re
Ã¨ res
Ú© Ø§
ĠÐ¼ Ðµ
est ra
og h
up un
az ar
Ã® k
Ð°Ð³ Ð°Ð½
Äį ki
ĠÐ¡ Ð°Ð¼
Ġ×Ķ ×¤
ĠÐŁ Ð¾Ð»ÑĮ
Ġth an
Ġfu q
à·Ħ à¶±
ÅĻ ÃŃ
201 5
ĠAs soci
ä¸Ĭ æµ·
ãģ£ ãģ¦
áº§ u
å¨ ģ
t ti
Ġ áŀģ
Ġs og
ĠA pp
ĠB lan
ĠÐ¿ Ð¸Ñģ
Ð¾ÑĢ Ñĥ
áĥĺáĥ ®
ung i
Ä« m
ĠÑĪ Ð°ÑĢ
ĠÑĪ Ð¸ÑĢ
å¤ ±
ĠÑı Ð²
ĠÐŀ Ñģ
Ġsh en
ĠÐºÑĬ ÑĥÑĢ
Ġmat an
Ġmer eka
Õ«Õ ´
ãģ¦ãģĦ ãģŁ
Ġprot est
ĠØªØµ ÙĪÛĮØ¨
on z
Ġk eng
Ðº ÑĪ
Ġde er
à¤¤ à¤¸
Ûķ Úµ
Ø¨ Ùī
ĠH on
ri i
Ã¨ sa
Ð¾Ð½ Ð´Ð°
uk rain
na w
Ġpr is
áŀļ áŀħ
ÑģÐº Ð¾Ð¼
ĠØ´ Ùħ
æľ į
Ġor ient
åį ¡
ÐµÐ³ Ðµ
ĠØ§ÙĦÙħ Øµ
à¦¥ à¦®
Ġà´ħ à´µ
Ġjed h
æ´ ¾
ĠàŃ ¨
Ġyer oo
áºŃ t
ĠFrancis co
Æ°á»Ľ c
Ġphax sin
v ik
Ġd Ã¥
Ġk ung
Ð´ Ð°Ð¹
Ġr am
ĠP in
ro pe
Ġà¬ «
ĠÐ¾ Ñĩ
ĠJ apan
ĠÙĨ ÙĬ
iz h
ĠÙĦ Ø§Ø¡
ini i
à©Ģ à¨Ĥ
Ġsp r
à¦¬ à§°
Ġà¤¯ à¤ķ
ĠÐĶ Ð°ÑĢ
Ð¸ÑģÑĤ Ð°Ð½
×Ĵ ×ľ
Ġdr Å¾
ĠÕ§ ÖĢ
ç¬¬ ä¸Ģ
ĠÙħÛĮÙĦ Ø§Ø¯ÛĮ
d h
h on
h od
k ing
s im
ë Ħ
ģ ¬
Ø§ Ùĥ
Ġk ry
Ġc Äĥ
Ġv ad
Ġe il
ĠS ara
Ġw annan
ĠM and
ra p
ab it
ĠG w
ist on
ãĥ £
tr u
ĠÐľ Ð°Ð½
à¨° à¨ķ
Ê¼ aÅĤ
ÄŁ i
ĠInd on
Ä¼ a
Ġsab oh
çİ °
áĥĲáĥĵ áĥĴ
ĠÑĥÑĢ ÑĭÐ½
Ġà¨¬ à¨£
Ġpun to
ÑĨÑĭ Ñĸ
Ġsucc ess
c ast
j alan
r er
Ù °
Ġ à½Ģ
ÑĢ Ð¾Ð¿
Ġm ong
Ġb ank
Ġv at
Ġi huan
Ġin st
Ð°Ð» ÑĭÐ½
ĠØ¨ Ûģ
à½ĺ à½ĩ
Ð¿ Ð°Ð½
ĠÐ² Ó§
ĠÐ¼ Ð¸Ð»
ä¸ İ
ĠÐ¾ Ð¼
ĠO li
ow ane
ev i
ÑĥÐ» Ð°ÑĢ
ho f
Øº ÙĦ
Ġap a
sh an
à¶ļ à¶»
Ð»Ð° ÑģÑĤ
à®µ à®¤
ïº ®
Ġ×ķ ×ĳ
ÛķÚ© ÛķÛĮ
201 3
å¿ ħ
ç¥ ĸ
ĠáĭĪ áĭ°
Ġgeme ente
ĠÐ±Ð¾ÑİÐ½ ÑĩÐ°
w ek
í Ķ
Ġp ian
Ġn hi
Ġg rav
Ġe a
Ġf lu
ĠS un
ĠB y
ĠP ara
à¦¾ ,
ĠÚ© Ú¾
Ã« ve
ĠÐ¼ Ð°Ð¼
à²° à²²
wa an
áī »
Ġqu am
ÐµÐ» ÐµÑĢ
Ú¯ Ø§Ø±
ĠÑĢ Ð¾Ñģ
ec a
tu a
Ġë ¯
áĢĲ áĢĦ
ÑĥÐ´ Ð°ÑĢ
à¤ĸ à¤²
Ìģ .
if ic
ëĭ Ī
ĠÐ³Ð¾Ð´ Ð¸Ð½Ðµ
Õ¡Õµ Õ«
ĠÙħÙĪ Ø¬ÙĪØ¯
ÑģÐºÐ¸ Ð¾ÑĤ
Ġà®Ĩ à®ķ
ĠÑĤÐµ Ð°ÑĤÑĢ
Ø§Ú» ÙĬ
à¥¦à¥¦ à¥¦
ĠÐ°Ð¿ ÑĢ
Æ¡ n
r el
ç ĥ
Ī Ĵ
Ġp ens
al em
Ġc uk
ĠS y
Ġw ux
Ã¡ ban
ĠF iji
eng en
Ã´ ne
áĥĿáĥ Ĺ
Äį in
Ñİ Ñĩ
ont en
Ã©s z
à¾³ à½º
ĠÓ© ÑĤ
ä¸Ń åĽ½
ØªÙī ÙĨ
ĠÐ±Ð°Ð¹ Ð³ÑĥÑĥÐ»
Õ¾ Õ¸ÖĤÕ´
Ġsay Ä±sÄ±
Ġprom ed
ĠRad io
L e
d or
§ à«
Ġt ep
Ġt chi
Ġk Ã¼l
et to
Ġc op
Ġv es
Ġf le
te a
Ġáĥ ¦
ĠE z
ĠG or
à¤® à¤¸
ĠF ra
à¦° à¦°
ÙĤ Ø±
áī Ĩ
Ġcon stitu
nd i
Ð°Ð· ÑĥÐ»
ĠÐĶ Ð°Ð³ÑĬ
ĠÛĮ Ø§Ø±
Ġob ra
ãģ« ãĤĪ
Ġast ronom
Ġáĥ¨ áĥĶáĥĽ
Ġà´ĩ à´¤
ĠAustr alia
ĠÐ¸ÑģÑĤ Ð¾ÑĢ
Ġgov ern
Ġëĵ ±
ĠØ¹Ø¨Ø¯ Ø§ÙĦ
Ġl aga
Ġb wa
ur en
ah ar
Ġz ak
Ã¼ ck
ĠÑħ ÑĥÐ¶
åı «
Å« i
ĠÃ© d
ond re
Ñĳ Ð¼
Ġmed i
ĠÑĨ ÓĢ
Ġáĥ¡ áĥĲáĥ®
Ġwo od
ĠIs land
ĠIs rael
íķĺ ìĹ¬
æ¬ Ĭ
ĠXV II
áĥĿáĥłáĥ Ĺ
à»Ģ àºĶ
Ġ< <
ĠResp ublik
L A
j ur
y Ã©
Ġt ay
Ġp ola
Ġm wa
Ġm agh
Ġc ad
âĢ ²
Ġg la
Ġg ru
Ġg Ã©n
ĠÐº ÑĭÐ»Ð´
ĠÑģ Ð°Ð´
ĠÐ± Ó©Ð»
áĪ Ĳ
×ķ ×ķ×Ļ×
à¦° à¦£
Ġpr on
ib ys
ĠÑħ ÓĢ
Î¿ Î³
ni o
×Ĳ ×Ł
Ġà¤¨ à¤¹
ĠÙĤ ÙĪÙĬ
ny i
ÐµÑģ Ðµ
ĠÐĺ Ð½Ð´
ĠÛģ ÛĮ
ìĹ Ī
yl l
Ġpl ant
Ġà» Ħ
Ġpos ta
æĶ ¶
ĠTh is
Ã³l Ç«
Ġë° Ķ
ibli ote
Ġinde pend
ĠÑĢÐµÐ´ Ð°Ðº
ĠØ³Ø§Ú© Ø§ÙĦØ§Ø±
ĠÕ¨ Õ¶
w es
w ane
Ħ ĸ
Ġp ula
Ñĭ Ñĸ
el g
el ing
Ġh enn
Ġv ert
Ã© se
ĠÙħ Ø³ÙĦ
eg ar
Ġan o
Ð°ÑĤ Ð°Ð¹
Ø§Ø± ÙĦÙīÙĤ
la ÅŁ
Ġpr emi
ari i
Ġì Ĭ¤
ÙĦÙī ÙĥÙī
ĠÐ½Ð° Ñĩ
Ġku we
ĠÐŁ Ð¾Ð»
Ġ8 5
×ŀ ×Ķ
Ġà¤ī à¤¨à¤²
Ġmet al
erd en
à´² à´¯
×Ļ×Ļ× ¢
ÄĻ d
ãģĵ ãģ®
ĠÙĥØ§ÙĨ Øª
ĠÕº Õ¡Õ¿
ĠÎ¤ Î¿
Ð¸Ð½Ð¸ÑģÑĤ ÑĢÐ°ÑĤ
Ġadministrat ivu
èĺ Ń
Ġhá»į c
à½ĺà½ī à½ĺ
Ġà¨Ĩà¨ª à¨£
Ġb atu
Ġh ij
Ð· Ð´
ĠÑĤ ÑĥÐ½
à²¦ à²ķ
ÑĭÐ» Ð°ÑĢ
oc c
ĠÐľ Ð¾ÑĢÐ´Ð¾Ð²
Ġ×Ķ ×¡
all en
any ang
ÑĭÐº ÓĢ
Ġ×ĳ ×ł
Ġà¦® à¦¹
ler ini
Ã¶r t
Ġek sp
ÄŁ u
Ġpol iti
Ġpres idente
á»Ļ c
Ġkay u
ĠÙ¿ ÙĪ
ÄĹn ÄĹ
æ® µ
ĠÐ¼Ð°ÑĤ ÐµÑĢÐ¸
ç ħ
in ya
er on
Ð¾ Ò£
Ġt ali
Ġm ort
Ġh uman
Ġde z
Ñį ÑįÐ»
à¤¨ à¤µ
Ġj on
ĠB urg
Ã¤ st
ut z
ĠH Ã³k
áĪ ¬
ok r
Ġal em
à²¨ à²Ĺ
Î¿ Î¹
Ġel a
åħ ³
ÑĭÑĢ Ð´
Ġ×Ķ ×ķ×Ĳ
ĠÒ Ĺ
å¾ Ģ
ĠØ² Ø§ÛĮ
à¦ĩ à¦¤
ĠÎ± Î½
Ġrel ativ
åŁ ĭ
ìł Ħ
urn al
ĠÐ°Ð± Ð¾
Ġfun k
ĠSm ith
ĠÖ ħ
ĠÐ¾Ð±Ð»Ð° ÑģÑĤ
ĠáĬĲáīł áĪŃ
Æ°á»Ŀ ng
ukrain ce
t ir
on ina
or it
Ġf ui
ĠM iss
Ġ19 13
ĠE ste
Ð°ÑĤ Ð°Ð½
ĠW i
ÑĭÐ» ÑĭÐ¼
Ġte u
Ġba ile
Ġà¤¤ à¤¹
ind ÉĻn
ĠØ¹ Ø¨
Äĵ l
åı ª
Ġáİ¤ áİªáıĹáıĹ
ĠÐºÑĬ ÑĢÐ°Ð»
ĠáĥĲáĥ Ļ
ÅĽ Äĩ
Ð¸ÑĪ ÑĤ
à¸¸ à¹Ī
áĢ« áĢ¸
ç´ Ģ
Ġë§ Ī
c Ã¼
Þ Ŀ
Ġd ann
Ġt Ê¼
Ñĥ ÐºÐ°
à¤¾ -
it te
ÙĬ Ûķ
ak as
ta a
Ø§ÙĨ ÛĮØ§
ĠR io
Ġun Ã¢
ri es
Ã¶ v
Ó© Ó©ÑĢ
à¤ľ à¤°
ĠÐĴ ÐµÐ»
å® Į
áĢºáĢ¸ áģĬ
à¸¢ à¸ĩ
isch er
Ġir Äģ
à¾¤ à¾²à½´
kh Ã®
á»© c
ãģĿ ãģ®
scz Ã©gÃ²
r g
z el
Ġt ug
Ġk eb
Ġb omas
Ġr end
ĠM att
ĠL im
ĠÐ¿ Ð°Ð½
ä¸ Ķ
ĠV as
Ġis u
up er
à°° à°¤
Ð½Ð¸ Ð¾ÑĤ
Ġkom pl
Î¬ Î´
à¸« à¸¡
Õµ Õ¡Õ¶
esti g
pu Ã©s
ÅŃ k
Ó©Ó© Ð´
à½ĸà½ı à½Ħ
ĠÐ¾Ð½Ð´ Ð¾
emper aturen
Ġmanip ud
t te
é İ
Ġd ot
Ġn ekk
Ġv oc
ĠS ystem
ĠÐº I
ang k
ĠD as
ĠC entral
Ġz n
ĠH el
le ar
à¦° à¦ķ
Äģ d
Ó© Ñħ
ĠÙĨ Ø§ÙĪ
Ø§ÙĦ Ùģ
Ð°Ð³ Ñĭ
pe ci
Î¯ Î¿Ïħ
ĠMar k
isch d
Ġver k
Ġur bo
ĠÐµÐ» Ð³
Õ¡Õ¾ Õ¸ÖĢ
ĠBrit ish
ĠÙĪÙĦ Ø§Øª
ĠBras il
h Ã©
Ġ #
er man
Ġt es
Ġm l
Ġm Ã´
at os
Ð´ ÑĭÑĢ
ĠS ti
Ùħ Øª
Ġi ba
ĠM adr
ti es
ĠC alifornia
Ñĸ ÑĪ
Ã¶ ÑĤ
ÑĭÐ» Ð³Ð°Ð½
Ġta j
hi o
ez o
ØŃ ÙĦ
ĠÚ¯ Ø±ÙĪ
Ïĥ Îº
oj i
ĠØ² ÙħØ§ÙĨ
Ð¸Ð´ Ð¸
Ġfam Ã¼
ĠÑī Ð¾
ĠAfr ica
çľ ¾
à¾¦ à¾±à½¼
Ġbid Ã¤das
ĠÐ´Ð¾ÑĢ Ð°Ð´
Ġáº ¹
f ra
w we
Ä µ
à½ İ
in Ã¼k
Ñĥ Ñī
Ùī Ø³
Ġdi Åıh
áĥĲáĥ Ķ
Ø§Ø± Ø§
Ð¾Ð» Ñİ
áĥĺáĥ ŀ
ĠØª Ûĩ
Å¡ in
az o
à¸²à¸ Ĭ
Ã° an
ĠØ¢ Ù¾
Ġà¦¬ à¦¸
Ġni je
ane fa
Ġà¸ £
Ġà²¬ à²³
ĠÛĮ Ø¦Ø±
Ð¸Ñĩ Ðµ
Ð¸Ð´ ÐµÐ½ÑĤ
Ġex ist
æĿ İ
mas Ä±
Ġáĥĺ áĥ¡
Ġro he
Ġmus ic
Ġà»Ģàº Ľ
ĠÙħÙĦ ÙĦ
âĢİ )
Ġdun ia
Ġuta wa
c ra
d ie
n ek
é Ĳ
Ġt ent
is in
Ġh eta
Ġv ah
ĠM erc
áŁ ©
ut sch
ĠÑĤ Ð°Ð²
Ò¯ Ñħ
Ġà° Ĵ
áī ¢
Î± ÏĤ
Ġ5 9
ho i
Ġ×Ķ ×ĳ
Ø§Ø¦ ÛĴ
tor ia
Ġfin an
ĠCar l
Ġvers ch
æ± Ĥ
Õ¡Õ´ Õ¢
Ġà»ģ àº¡
Ġmem iliki
aho od
lash gan
Ġm ore
Ġn s
ĠC el
ĠE ast
ie v
Ø´ ÙĪØ¯
ĠØª ÛĨ
na Ã°
Å¡ ki
ÏĦ Î±Î¹
Ú¯ Ø§ÙĨ
ong an
Î¹ ÏĦ
à½Ĥà½¦ à½Ħ
Ġcon v
ala a
Ġha in
à²¯ à²°
à¨° à¨¨
Ġit ech
áĮ Ģ
àªķ àª¨
elt emperaturen
ÙĦØ§ Ùģ
Õ¾ Õ¥Õ¬
éļ Ĭ
Ġprov ins
Ġê² ½
ĠlÃ¶d anefa
¯ àŃ
Ġd ati
Ġd aya
Ð½ Ð°Ð¼
Ġa ya
on c
Ġl ati
Øª ÙĪØ±
Ġr ot
ĠÐº Ð°ÑĦ
Ä± t
à¥Ģ :
ĠÐ¿ Ð¾Ð³
ent ro
ĠÙĪ ÙĪ
ĠF I
Ġng ir
ĠÑĥ Ðº
ĠÑĥ Ð»ÑĮ
Ġje u
à¸Ļ à¸ķ
Ñİ ÑĤÑĮ
Ġ×Ĳ ×ĳ
ĠÐ¿ÑĢ Ð°ÑĨ
à©ĩ à¨Ĥ
áĢ¼ áĢ±
Ġag h
inn en
Ġà²¸ à²°
ÑįÐ³ ÑĬ
æĹ ©
ĠÙħÙĨ Ø·
Ġí Ļ
à²ļ à²¨
áĥ· áĥĽ
Ġà¶½ à¶¯
Ġkont in
Ġgra f
ĠÐºÐ¾ÑĤ Ð¾ÑĢ
ĠØ¶ ÙĦØ¹
ĠØ§Ùģ ØºØ§ÙĨ
Ġtá» «
åĹ °
ĠFried rich
c rit
h orn
Ġl h
Ġl um
Ġl oo
Ġb ou
Ġv Ã¬
ir as
ĠÐº Ð°Ð·
ĠÙĪ ÙĦÛĮ
ÐµÐ½ Ð½
à½ł à½Ħ
Ã« j
Ð¾Ð» Ð¾
ĠV or
Ø¹ ÛĮ
Ġon u
ĠÙģ ÙĪ
Äĵ r
Ġab ra
ert s
Ã¸ g
Ġà§ Ń
åŃ ĺ
ĠÅ¡ k
Ø§Ú ĵ
ĠØ§ÛĮÙĨ ØªØ§
Ġgod Äģ
Ġsek ang
åĵ Ī
zh ÃŃ
Ġef ter
ĠìĦ ¸
ĠFrank riek
ĠVir us
Ġë³ ´
S h
l ju
Ġs imp
Ð³ ÑĢÐ°
Øª ÙĦ
id he
Ġáĥ §
ent ra
Ġch hai
ĠÐ¸ Ð´
Ãł na
à²² à²¦
eb o
ĠØ´ Ø§Ø¹
Ġáı į
Ð°ÑĪ ÑĤ
ĠAl t
à¸± à¹Ī
ĠÑĦ Ã¦
ĠÐµ Ð½
ĠØ§ÛĮ Ø³Ùĩ
Ġnu o
Ġà¦ħ à¦Ń
ĠÐ±Ð°Ð¹ Ð´Ð°Ð³
ĠInd ian
à¸Ľ à¸£
Ġlat in
ĠÑī ÓĢ
ëł ¤
ĠVol k
ĠNap ole
áİ¨áıĴ áİ¾
Ġtark ib
Ġpromed yo
R A
æ ĳ
Ñģ Ó§
Ġk ort
áĥĺ áĥĲáĥ¨
le p
ov Ã©
ers e
Ñĺ Ðµ
çĶ µ
Ð°Ð½Ð´ Ð¸Ð½
ĠÛ±Û µ
ÑįÑĤ Ñį
Ġ190 6
ĠÎ¿ Î¹
ĠÐ¹Ð¸Ñģ ÑĥÐ·
Ì ĥ
Ġa on
Ð» ÐµÐ½Ð¸
Ġb he
Ðº Ð°Ð»
ro y
ĠL Ã©
Ġàª ĺ
ĠÐ¼ Ð»
Ġch Ã©
ĠV ill
ĠV II
Ã¬ s
ĠÑĩ Ð¾ÑĢ
Ġà¤Ĩ à¤¶
à¶º à¶§
ĠÑį ÐºÐ¾Ð½Ð¾Ð¼
àºŃ àº¡
à²® à²¨
if t
ĠØ§ÛĮ Ø´
Ø±ÙĪ Ùģ
ĠÐ¾Ð± ÑĢÐ°Ð·
ãĢį ï¼Į
ĠSo omaal
Ġsar ta
Ġà¦¶ à¦¹à¦°
Ġlig g
çĿ £
N U
w ir
Ġà¤ Ĭ
Ġs Ã¼r
Ġc asa
Ġh ud
Ġh uv
ak golo
à¤¨ à¤¤
ul s
im et
à¤¯ à¤µà¤¸
ĠÑģ ÐµÐ·
ĠÙħ Ø®ØªÙĦÙģ
ing g
ĠH ay
Ú© Ø³
ov Ã¡
og g
ĠÙĨ ÙĪØ±
ĠÑħ Ð¾Ð»Ð±
ip dir
Ø² ÙĦ
Ġel ekt
ãĥ ¥
à®ķ à®®
Ġà¤Ĩ à¤ķ
ih ugu
Ø§Ø¯ Ø±
Ġab er
ĠÐŀ Ð´
alis iniÃ±
èģ ŀ
vel op
Ġà®Ĩ à®£
ĠÙĬØ§ ÙĥÙī
æĩ ī
åŀ ĭ
ĠØ´Ø±ÙĪ Ø¹
l Ã¢n
m el
p as
t k
å ©
Ġd uk
Ð½ ÐµÐ²
Ġm ig
al ari
ÙĨ Ø´
Ġv ys
ad Ä±r
Ġr ock
ĠB raz
Ġna u
Ñĩ ÑĭÐº
ÑĨ ÑĨÐ°
Ġà¶ Ĵ
Ġal c
Ġst ra
ĠÛ ¶
×¢ ×ĺ
ìĿ Į
Øº ÛĮ
ĠÐŁ Ð¾
ĠÐĳ ÑĢÐ¸ÑĤ
àª¤ àª®
åį Ĭ
æĺ ĵ
iss en
×§ ×¨
Ġà¹ Ħ
æī ĵ
Ð¾ÑĪ ÐºÐ°ÑĢ
ÛķÙĪ ÛķÛĮ
æ¬ ²
×Ĳ×ł ×ĵ
ĠgÄ§ al
Ġdial ek
ĠÓ©Ð» ÐºÓĻ
ĠImp eri
Ġs vo
áŀ ¯
Ġp aj
ÙĨ ÛĲ
or an
Ġc Äĵ
Ġo j
ta ch
ĠT et
ĠK il
ĠI i
ĠI ran
ĠN et
ĠÙĪ Ø¬
à½ĺ à½ĵ
Ġà¤¸ à¤Ĺà¤³
ĠÎ Ļ
ĠØ³ Ø§Ø®
ãĥ Ĳ
ĠÐ· ÑįÑĢ
Äį no
ĠÐľ Ð°Ð»
áĮ ½
Ã£ d
Ġà¤ı à¤Ĺ
à¸ļ à¸ļ
åĬ ¨
çī Ī
×Ľ ×¢
ĠÐ°Ðº Ð°Ð´ÐµÐ¼
ĠáıĤ áİ¨áıĴáİ¾
ĠØªÚ¾ Ø§
l op
p us
v est
Ġa q
Ġm art
ad pan
ak si
ÑĮ Ð²
ĠB ell
ĠÐº Ð°Ð½Ð´
Ã¤ j
Ġna cional
Ġà¤ª à¤²
ĠÐ· Ð°ÑĤ
ĠÑĢ Ð°Ð´
Ġon wa
ĠÐľ Ð°
ĠÐ¿ÑĢ Ð¸Ð½
Øº ÙĪ
ĠØ¹ ÙĦÙħ
ĠØŃ ÙĤ
ĠÐ°Ð» Ðµ
ïº į
ĠÎ± ÏħÏĦ
ÉĻr bay
ats he
Ġà®ķ à®Ł
Ġ×ĸ ×Ļ×Ļ×Ł
åĳ Ĭ
ĠÐºÐ» ÑĥÐ±
æĢ Ŀ
à»Ģ àºģ
ĠÐ¿ÑĢÐµÐ´ ÑģÑĤÐ°Ð²
ĠÐ±Ñĭ Ñŀ
P O
n eg
Ġt us
Ġk ga
Ġb esch
il es
il ya
ti q
Ġdi ad
ent ri
ĠÐ´ Ð¾Ð´
ĠJ ahr
Ð°Ð³ ÑĢ
ÐµÑĤ ÐµÑĢ
Äį ka
ĠÙĩ ÛĮ
ĠIn stitu
Ġsi Ã¨
ĠAl b
Ñĳ ÑĤ
Äķ k
ĠÙĥ ÛĨØ±
ĠØ² ÙĪÙĨ
à¸¢ à¸§
Ġbo y
Ġpi Ã³
Ġà²Ĩ à²¦
Ġhab agatan
ĠÐ³Ð°Ð· Ð°ÑĢ
ĠÑĸÐ½ ÑĪ
ĠÙĤØ· Ø¹ÙĨ
ĠØ³Ø§Úµ ÛĮ
Ġáİ¢áı§ áİ³
ĠÙĤØ·Ø¹ÙĨ ÙĪÙħÙĩ
a ill
d on
f ul
en as
Ġs ake
Ġk Ã¼
ÙĪ Ø§Ø±
ĠS uku
re c
ĠN ar
ĠE b
ĠE alisiniÃ±
ĠÙĪ Ø¨
ĠH il
iz m
à¦¤ à¦®
Ġka u
ĠØ± Ø£
ind u
ĠÐĳ Ð¸ÑĢ
Ġ9 5
Äĳ en
Ġhad de
åł ±
ĠÄĹ Å¡
èĲ ½
ĠÐ±ÑĭÐ» Ð¾
é¢ ¨
ĠáĮį áĬķ
n ig
w or
ê ·¸
ł à¼
it ik
Ġg ag
ir g
ĠÑģ Ð°ÑĢÑĭÐ½
ĠÑĤ Ò±
ot te
ri ed
Ã¨ ra
Ã¶ Ð´
Ð¾Ð½ Ð´Ð¸
Ġà¤¸ à¤°à¤ķ
Ġse par
og e
Ã¢ ld
ĠØ§ÙĦ Ø°
up t
áĭ ľ
Ùĥ ÛĪØ²
Ġà¤¬ à¤¡
Ð°Ñħ Ð°Ð½
ÑĭÑĢ Ñĭ
Ġ6 2
à«Ģ .
Äķ Ã§
Ð³Ð° Ð°ÑĢ
Ġáīł áī°
è¿ Ľ
Ġ×¢ ×Ŀ
à¹ĥ à¸Ĭ
èª ª
umb ang
Ġbin ne
Ġê³ ł
Ġìľ ł
Ġpent ru
x h
Ç Ĵ
Ġs op
Ð¸ Ð²Ð°
ÙĦ ÛĴ
Øª ØŃ
ag ua
à¤¨ à¤°
Ð°ÑĢ Ð¾Ð´
à¤ķ à¤¨
Ä± ra
ÃŃ u
og i
ĠØ§ÙĦ Ø«
ĠÛ µ
ãĥ ĩ
Î¹ ÏĥÏĦ
Ġsu o
Ùĥ ÛĪ
Ġà¤¬ à¤¢
Ġq ay
lu i
ĠÙĬ Ûķ
Ġ7 2
àºŃ àºĻàº
Ø§Ø¦ ÙĦ
uv i
ÙĦÙĬ Ùħ
rop ol
æĽ ¾
Ġzu wa
Õ¡ÖĢÕ ¿
ĠÐ¾Ðº Ðµ
×Ļ×© ×ĺ
æ¯ ı
Ġnh á»¯ng
ĠÙĨÛģ ÛĮÚº
ç¯ Ģ
áĥĸ áĥĶ
ÑĸÐ½Ð´ Ðµ
ĠmÃ¥n aden
z ie
Ġt udi
Ġm are
Ġn er
et l
Ġv Ã¡l
ĠS and
ro z
ÃŃ as
ĠÐ² ÑĭÐº
ĠV iet
Ã² d
ĠÐĲ Ñģ
Ġ×Ķ ×Ļ×Ķ
ĠØ® Ù¾ÙĦ
ĠÑį Ð²
à½¤ à½¢
Ð¸Ñħ ÑĤÑĮ
Äĳ Äĳ
Ġev it
ÑģÐºÐ¸ Ðµ
ÙħÙī Ø²
Ð¸Ð½Ð¸ Ò£
Ð¿ÑĢ Ð°Ð²
ĠÐºÐ°Ð» ÐµÐ½Ð´
ãĤī ãĤĮ
ëį ĺ
ĠOkt ober
k w
s che
ŀ Ī
Ġs od
Ġk ec
et sa
Ġc av
Ġg li
im en
ro b
Ã³ j
ĠN erin
ĠÐ² Ð¾Ð´
Ð¾Ð» Ñĥ
áĬ Ŀ
Ġë Ĳĺ
à¦¼ à¦¿
Ġtr akten
Ġà¤¥ à¤¨
Ġja ar
ÙĪØ¯ Ùĩ
áĪµ áī°
Ġbol g
ìĹĲ ê²Į
Ġà¨ª à¨°
Ġho e
áīł áīµ
Ġmill ion
ĠtÄĵ tahi
ÑĭÑĢÐ³ ÑĭÐ·
Ð¸Ð½Ð¸ÑģÑĤÑĢÐ°ÑĤ Ð¸Ð²
r Ã¤
t es
é ĵ
Ġs ve
ar Ä±
Ñģ ÐµÑĢ
âĢ º
Ġh it
Ñį Ñĥ
ro u
ĠÐ± ÑĸÑĢ
Ġz aj
ĠÐ¿ ÑĥÐ»
Ġen er
ug ar
ãĥ ĭ
Äį ke
Ġje ho
Ð¾ÑĤ Ð°
ÄĹ ju
ÙĪÙĦ ÛĮ
ier ra
áį »áį
Ð½Ð¸ Ò£
ske je
ĠdÃ© c
ĠGu erra
áĭ« áĬķ
Ġbom akgolo
é¾ į
Ġnib ak
n ic
s ha
w end
y ang
ÑĢ ÑĪ
Ġs eni
Ġt Ãł
Ġm ari
Ġb ran
Ġb ili
un un
Ðº Ð°ÑĤ
Ġh ap
Ġv est
Ġg eg
Ñį ÑįÑħ
os tu
ĠÑģ Ð¸Ð½
ĠI N
Ġà° ¹
ĠW at
Ġng o
ãĤ º
à²¨ à²µ
ja w
ĠÑĢ ÐµÐ·
äº Ľ
Ð¾ÑĤ Ð¾ÑĢ
Ġit a
res o
ĠÐĳ ÑĥÑĢ
ĠÐ° Ñĥ
ĠUn it
Ġga is
ĠØ¨ÙĪ ÙĪ
Ġà´¸ à´®
ç§ ¦
Ù½ ÙĬ
Ä±nÄ± Ã±
oms nitt
Ġà¦ĩà¦² à¦¤
y as
y ÅŁ
Ġk Ã®
at iva
ĠA th
Ùħ ÛķØª
ĠD ok
ÑĪ ÑĭÐ½
ĠÐ´ Ð°Ð¹
ĠV ar
Ġsa j
Ð°Ð´ Ð¶
Ø¹ ÙĪØ¯
Ġpro du
à´¾ à´Ĥ
we en
Ġsp esies
ĠCh u
áŀĽ áŀĢ
ĠØŃ Ùħ
if a
ä¸Ģ ä¸ª
Ġmas o
Ġpre v
200 3
à»ģ àºķ
Ġáĥ¬ áĥ§
Ġáİłáı ¥
Ġà¶± à¶¸
ĠÐ±Ð¸Ð» ÓĻÐ¼
à½ĺà½Ĳ à½¢
Ġà§§à§ ®
Äĭ i
ĠTim ur
ĠÙħØª ØŃØ¯
ĠÃ¢ n
éĸĭ å§ĭ
ĠHen ry
b ena
d Ãª
k und
s Ã©n
y el
Ú ĥ
æ ½
ì Īĺ
Ġd am
Ġt Ã¼rk
Ñģ Ñİ
Ġk Ã±
un j
Ð² ÐµÐ·
ĠB ri
ĠÐº Ð¾Ð¹
ab h
Ġu od
Ġà° İ
ant is
à¤Ĺ à¤¨
à¤¥ à¤²
Õ¡Õ¶ Õ¸ÖĤÕ´
ÑĭÑĤ Ñĭ
Õ¥Õ ¼
Ġles h
à¨¼ à¨¿
Ġbol sa
ĠÃ± i
ÑįÑį Ñģ
Ġ190 8
ÑĥÑħ ÑĬ
ĠÐ°Ðº ÑĤ
ĠLo und
Õ¡Õ¦ Õ´
Ġà¤ļà¤² à¤ļ
y ong
an al
à² ħ
Ñģ Ð°Ð½Ð°
Ġm Ã¤d
Ġk ik
Ġb ac
Ġv ak
Ġg agauz
ad ir
à· ĺ
ĠM old
Ġy ay
ul la
ĠÙħ ÙĪÙĦ
ĠÐ¼ ÐµÐº
ĠÞ ¤
ĠÞ ķ
ĠÎ ¹
ov u
Ġda o
og le
ĠV ien
áĭ ©
Ð¸Ð» Ð¸Ð½
Ù¾ ÙĪØ±
à¸Ļ à¸ª
ru ct
ĠØ® Ø§Øµ
Ġà¤¶ à¤°
à¦ª à§°
ĠáĥĲáĥ ¦
áĢ¡ áĢĸ
ĠÐ¾Ð± Ð»
ĠáĮ Ī
ĠÕ¸ ÖĢÕ
×¨×Ĳ ×©
azz joni
ĠPort ugal
ĠÏĥÏħ Î½
ihu itl
íķĺìĺĢ ëĭ¤
Ġd Ãªr
el in
it es
Ġo Ä©
Ġv Ã¶
id enti
ng a
ÐµÐ½ Ð¸Ð¹
ĠH am
ot ti
Ú© Ø§Ø±ÛĮ
ä¸ ĩ
Ã¦ l
Ġpr ins
à²¤ à²¨
Ú¯ Ø§
Õ¡Õ¶ Õ¡Õ¯
Ġav er
áĢħ áĢĬ
ĠÃ¡ riÃ°
ÑĢÐ° Ñŀ
Ġdal s
ĠPro f
ÑĢÐ°Ð½ ÑĨ
ĠÎµ Î½
Ġrel igi
Ġà®µ à®°
àª¥ àª®
Ġâ Ħĸ
ĠÐºÐ» Ð°ÑģÑģ
Ġword t
çī© çĲĨ
Ġpob la
ÄĿ is
æ® º
Ġà¨ķà¨° à¨¨
Ġleb ih
ë¯ ¼
] ]
x u
Ġt ata
Ġk ina
Ġl Ã¬
Ġb od
el j
el ig
Ġv iri
Ġg ez
Ġr ik
ĠM est
Ġ19 15
ÃŃ ch
ĠØ¯ ÛķÚ©
ut te
ÐµÐ½ Ð·
Ð¿ Ð¾ÑĢ
à¥ĭ ,
ĠØ³ Ø§Øª
Ð¾Ð² Ð¾ÑĢ
ana ch
ĠÛ ³
Ġta on
Ġas c
ĠØ´ Ø£Ø±
Ġam ih
Ó§ ÑģÑĮ
ard in
ĠCh in
à´Ł à´¤
Ġà¦® à¦¨
Ġ×© ×ĺ
ĠÐ±Ð°Ð¹ ÑģÐ°Ð½
ì§Ģ ë§Į
ë§ Ī
ays ia
ÄĹj ÄĹ
èĤ ²
Ð¾Ð¼Ð¾Ð½ Ð¾Ñģ
g Äĥ
m or
v eg
æ ¦
Ġd ou
ÑĢ Ð¾Ð¼
Ġk po
àª Ľ
Ñį Òķ
ĠS pan
Ġw ad
ĠÑĤ ÑĥÐ´
ÐµÐ½ ÓĻ
le v
Ġpr ost
ãĤ ¨
ow ej
à®ķ à®°
Ġà¤° à¤¯
Ġ6 7
Ê¼ osh
áŁĩ âĢĭ
áıĤ áıı
å± Ģ
Ġkun ye
Ġgro ot
rod uc
Ġà¤ĺ à¤°
ÑĥÐ»ÑĮ ÑĤ
ĠáĬ¥áĬķ áĭ²
é¤ ¨
j m
ar ca
Ñģ Ó©Ð½
Ġn ich
Ġk j
al and
at ie
ĠS ub
Ð³ Ñĭ
Ġw r
ĠM ans
Ġy Ã¬
Ġj Ã¤l
um as
ĠL ar
Ġ19 16
la and
ĠÐ¼ ÐµÐ¶
ĠÐ¸ Ð¼Ð°
ĠJ am
ĠÕ Ĩ
ĠÙĦ Ú©
Ġba ay
áŀı áŀĵ
Ð¸Ñģ Ð¾Ðº
ä» Ķ
Ġà²ª à²¦
Ġmar s
ÏĮ Î¼
Ġ×ŀ ×Ķ
Ġaf ter
Ġ×ĵ ×Ĳ×¡
ä¹ĭ å¾Į
Ò¯Ò¯ ÑĢ
ï¼ī ãĢģ
àµ¼ à´ķ
ãģ¨ ãģª
Ġpal ing
åĳ ĺ
åħ¬ åı¸
ĠTim or
ĠÚī ÙĪÙĦ
ĠBla ck
Ġqo Ê»
h te
l ement
z ioni
© à¼
Ġs Ã®
as to
Ġe u
ÙĬ ÙīÙĦÙī
ĠT ong
ĠL ie
ĠØ¨ Ø¤
ĠÐ¿ Ð°Ðº
ĠR ome
ĠO rt
ÉĻ si
ĠÐ· ÐµÐ¼
ÐµÐ´ Ð¾Ð½
ani el
Ġre al
ĠAl bert
Ġmu h
áĢķ áĢĦ
Ġem b
à°¯ à°µà°¸
ult ure
Ø¸ Ùħ
ĠìĿ ĺ
èĪ Ī
iku wa
Ġplu i
iliz tli
Ġáİª áİ¯
ĠÐłÐµÑģÐ¿ÑĥÐ±Ð»Ð¸Ðº Ð¸
ĠØ§Ù¾ ÙĨÛĴ
Ġstan ov
ÓĻÐ»ÓĻÑĢ ÐµÐ½Ð´ÓĻ
ĠbÄ§ ala
- ,
D e
p ap
Ð° Ð¸
in ar
Ðµ Ñı
Ġa al
Ġm erd
Ġb ÄĽ
àª ĺ
Ġo y
Ġr ig
Ġr iba
ĠM b
id el
ĠT ri
ĠN ev
ĠH av
Ġdo o
ÐµÐ¹ Ð½
ĠÐĴ Ð¾Ð»
à®² à®¤
Ġ×ĳ ×Ķ
ĠMar y
à¸§ à¸¡
éĢ Ł
ĠÐ°Ð´ Ð·
Ã¨r s
ĠÑĥÐ» Ñĭ
æĭ ¬
Ġà²ī à²¤
æĦ Ľ
åķ ²
ĠAnton io
íĻ Ķ
X V
r ing
Ġd Åº
Ðº ÑĥÑĢ
Ġf ine
Ñį ÑįÐ´
ĠB ag
ĠP ag
Ñħ ÑĤÐ°
Ð°Ð» ÑĭÐ¼
ĠÑģ ÑĥÐ´
re ich
ah at
ĠØ¯ Ø¨
áĥĺ áĥĲáĥ¡
ĠØª Ø£
Ð°Ð³ Ð´
Ø¬ Ø±
Ã½ Ã¤n
Ġre j
ĠÐĳ ÐµÑĢ
à¦¬ à¦¸
Ġà¤¯ à¤¦
áĥĲáĥľ áĥ¢
Ð¾Ð· ÑĮ
Ġà¤ĩ à¤²
×Ĺ ×ª
Ġ190 7
à²¥ à²µ
åł Ĥ
à¸¶ à¹ī
ĠÐºÐ°ÑĤ Ð¾
Ġáĭĺ áĪĺ
åĻ ¨
Ġjoy lashgan
l je
p il
Ġd Ã¬
ÙĨ Ø§Úº
Ġg le
Ð¼ ÑĥÐ½
Ø¯ Ø§Ø¯
Ġi en
ĠC amb
Ġà¨ ĺ
ek in
ĠØ¯ Ø§Ø±Ø¯
Ð± Ð¸ÑĢ
ĠR ud
Ð¿ Ð¿
ÑģÑĤ Ð¾
à¥ģ à¤ģ
Ú© Ø§ÙĨ
Ġse perti
Ð°Ñģ ÑĭÐ½
ĠÐ³ Ð¾Ñģ
ob al
Ø¦ Ø´
Ð¸ÑĤ Ð¾ÑĢ
à¥Ĥ à¤Ĥ
me e
Ġme e
ind Ã¤
Ġil m
áĢĲ áĢļ
ĠSt an
ÑĥÑĤ Ð±
ĠÒ¯ Ð½
à®¯ à®²
Úª ÙĬ
Õ¸Õ ¬
Ġsam o
çİ ĩ
×ķ×ł ×Ķ
Ġsek ete
ĠÙĨÛĮ Ø²
çľ Ł
ëł ¥
b os
ë ¶
ÑĢ ÑĥÐ·
on zi
Ġk end
à¸ ¤
et ik
Ġc Ã´
ĠS A
Ġr ac
Ð°ÑĢ Ð°Ð»
ĠB ru
ĠB udd
ĠÐ± Ð°ÑĤ
ĠÐ± Ð°Ð·Ð°
ĠÐ¿ ÐµÑģ
ĠÐ¿ Ð¾Ð±
ĠÙĪ Ûģ
est r
à²² à²ķ
Ã´ h
ĠIn s
ama i
ĠÃ¡ ra
Ġus ed
ĠMa i
ĠMa x
ĠMa ur
tic u
ĠPar agu
ĠÑģÐ² ÐµÑĤ
æīĢ ä»¥
Ø¤ÙĨ Ëĩ
Ġáİ§ áıĥáİ®
ĠØ¦ÛĪ ÚĨ
l us
l ate
t hi
z em
ï Ń
Ġn ederbÃ¶rd
Ð´ ÑĥÐº
Ġ1 01
Ġo je
Ñį Ð²
ĠS id
Ġw et
Ñı Ñŀ
ĠL eg
Ñĸ Ð½Ðµ
Ò¯ Ð±
ÑĭÐ½ ÑĪÐ°
ub i
áĥĿáĥ ŀ
à¤ľ à¤§
Ġko y
Ġli u
Ġil k
Ã¹ r
eri or
Ġ8 3
Ġáī ³
Ġàº Ľàº°
isi Ã³n
Ġà§ §
à¸¥ à¸ĩ
å· ±
Ġà¨ª à¨¹
Ġph Ã¬n
åŁ Ł
Ġcap ita
ĠNo ord
Ġmp onina
Ð½Ð¾ÑģÑĤ ÑĮ
ĠFl or
ÏĥÎ· ÏĤ
ĠÙĥÛĲ ÙĬÙīÙĨ
ĠJohann es
ĠÎ® ÏĦÎ±Î½
ĠÐ±Ð¸Ð»ÓĻÐ¼ ÓĻÐ»ÓĻÑĢÐµÐ½Ð´ÓĻ
h ip
l on
t ter
Ġ Ð°Ð½Ð³
Ġs ip
Ġp ig
am t
Ġv ida
ĠÃ Ĩ
ÙĬ Ø±Ùĩ
Ġr Ã©g
ĠA na
Ð°Ð½ Ð¾
ĠÐº ÐµÑĩ
ĠØ¯ ÛĮØ±
ĠÐ¿ ÑĥÑĤ
ĠH arr
ri et
ĠÐ´ Ð°ÑĢÑĭ
ob re
ãĤ ¦
ĠÙ¾ ÙĨÚĪ
Ġta i
×ľ ×Ķ
ĠÑį ÑĪ
ä» İ
ff en
Ġab ad
Ġki el
ÐºÐ° Ñı
à®¯ à®°
ÈĽ ie
çķ Ļ
à°ª à°¤
áİ³ áİ©
à½łà½ķ à½Ĥà½¦
Ġneb ula
ĠÚķ ÛĨ
Ġkep ada
isÃŃ piu
f ter
j y
Ø§ ÛĮÙĨÚ¯
or ish
ur us
ad ur
ĠS r
Ġw atu
ĠÐº Ð¸ÑĤ
ic es
ĠG eb
iy asi
ĠÐ· Ð¾Ñħ
Ùģ ØªÙĩ
Þ¨ ØĮ
ni ch
nd an
Ġof t
Ġà¤Ĩ à¤²
ĠY er
à¶» à¶Ń
ĠÐĳ Ð°ÑĪ
Ġest Ã¡
Øµ Ø¯
hu atl
Ø±ÙĬ Ùĩ
ÑĥÐº ÑĤ
à®¯ à®¤
Ø±ÙĪ Ù¾
Ġà¬¸ à¬¹
Ġtra v
Ġein er
ĠAt lan
Ġnh Æ°
Ġneg ara
Ġindiv idu
Ġpags asao
. ]
a od
Ġs aman
Ġa x
Ð» ÑĭÐ³
es z
ir s
ĠM ik
ed on
Ġj áº¹
ĠT w
ro bi
Õ¡Õ »
Ãł k
Ġpr uv
ĠÄ ĩ
pe h
Õ¡Õ¶ Õ¤
áĢĽ áĢķ
Ġmed ia
ĠÐ¾ÑĢ ÑĤ
è¿ ĺ
ĠÐ¸Ð½ ÑĤÐµÑĢ
Ġáİ¤áı ©
èĪ ī
èģ ¯
Ġfra h
ĠÒ¡ ÑĥÑĪ
Ġáĥ¬áĥĲáĥľ áĥĲ
ĠMic ros
éĲ µ
M T
f ran
k ak
y y
Ġs qu
ar se
ÑĤ Ñĸ
Ġm ÃŃ
Ġb ala
il in
Ð¼ Ð¸Ð½
Ġr Ã¡
Ġw henua
Ð· Ð¾
ĠÑģ ÑĥÐ±
ut ta
ĠG ol
Ġan e
ĠÐ´ Ð¸Ð½
Ã¦ tt
Ġà¤ª à¤ķ
ib b
Ġst Ã¸r
ÖĢ Õ¡
ke j
Ġë ²
Å« d
áŀĽ áŀĶ
ĠX III
à»Ģàº Ī
ÑĭÐ³ ÑĬÑĥ
fi eld
ãĢį ãĢĤ
ĠIm per
ìľ¼ ë©°
Ġprz ez
ç¦ ®
ĠØ¬ÙĨ ÙĪØ¨
æ¢ Ŀ
ĠfÃ¸r ste
ĠNac ional
Þ Ĺ
í ĽĦ
Ġn eng
Ġn Ã´
Ġl ic
at is
Ġb ola
or ra
Ġf ela
Ð¼ Ð¾Ð½
à¤¨ à¤¨
ĠT ak
ĠL ife
Ġz osta
ĠÑĤ ÑĥÐ»
Ð± ÑĭÑĤ
ĠÐ´ ÐµÐ¼
ĠÑħ ÑįÐ¼
ÏĦ Î¬
ãĤ ĵ
ãĥ Ĭ
Ûĩ ÙĤÙī
×Ĳ ×ĺ
à¦ķ à§°
Äĵ c
ĠáĬ ķ
áĢĻ áĢĦ
Ġ7 50
åĲ ī
amb e
ess u
à¸Ĺ à¸³
ĠáĥĲáĥ ļ
Ġmil itar
ĠáĢ¡ áĢĢ
åº ·
Ġtemp o
Ġà»Ģàº Ĭ
ĠÅĽ e
ĠÐ¾ÐºÑĢÑĥÐ³ ÑĭÐ½Ð´Ð°
P S
Õ §
Ġm ec
Ġk av
Ġl Ãµ
Ġb oh
un tr
Ġg ub
um me
ĠI to
ah t
Ã¨ me
Ò¯ ÑĪ
Ð°Ñģ Ð°Ð½
Ġpr us
áĥĿáĥ Ļ
áŀĢ áŀĵ
ÄĹ Å¡k
Ġà¤Ń à¤Ĺ
Ò» ÑįÐ½
ĠÃł ti
Ã©s ia
uf u
Ð¾ÑģÑĤ Ð°
ĠSan ti
Ð°ÑģÑĮ ÑĨÑĸ
×ķ×Ļ× ¡
ĠtÃ© h
ĠÑĤÒ¯ Ð±
ÉĻl ÉĻr
áĬĽ áĭį
Ġà¤¸à¤ķ à¤¤
ĠÑĢÐµÐµÑģÑĤ ÑĢÑĭ
ĠKabupat Ã¨n
ÉĻrbay can
z ion
í Į
en sk
at ure
Ġg ape
à¤° à¤ļ
ur b
Ð³ Ã¦
ti va
Ûķ ÙĬ
ĠB ÃŃ
im as
ĠÑģ ÑĥÐ²
ĠÑģ ÑĢÐµÐ´
Ð± Ñĥ
ĠH r
Ã¶ ÑĢ
ĠF ren
ud h
ĠÐ¾ Ð¿ÐµÑĢ
áī ²
ub ah
ĠØ¬ Ø±
ĠÛ ·
Ùĥ ÙĪÙĨ
Ġ×Ķ ×Ĵ
ĠÑĦ ÑĥÑĢÑĥÐ´Ð³Ð¾
ĠáĥĽ áĥĺáĥ¡
ÅĦ sk
Ġà¦ħ à¦ķ
Ġut iliz
áĪµ áĮ¥
Ġres ta
ÑįÑį ÑĪ
ĠPa ci
ĠÑįÑĢ Ð·
Ó¥ ÑģÑĮ
ĠÒ³ Ð°Ð¼
ĠÙħØ´ Ùĩ
è¬ Ĥ
é£ Ł
ĠEg ip
ĠMadr id
I C
I nd
s et
Ð° ÒĽ
Ġt si
Ġp and
ch in
Ġ( âĢ
Ġe Ã½
Ø¯ Ø©
Ã³ va
Ñĸ Ð¶
ĠÐ¿ ÑĸÐ´
ri pt
Ã¶ h
ers i
ÐµÑĤ Ð¸
Ġ18 00
ĠÐļ ÑĥÑĢ
áĥĿáĥ ¦
Ù¾ Ø¯ÛĮØ§
Ø§Øª Ø±
áŀĦ áŀĬ
Ġà¤Ĺ à¤ĩà¤²
Ú¾ ÛĴ
Ð¸Ð¼ Ð°Ð»
Õ¸ÖĤ ÖĢÕ
à´° à´¸
ĠÐµ ÑĢ
ess en
Ġà¤¶ à¤¬
à¨¸ à¨¤
ĠEn ero
ĠAng eles
ĠáĥĲáĥ ¡
ĠáĢ¡ áĢŀ
ĠÐ±Ð°Ð¹ Ð³Ð°Ð°
Ġ[ [
áĥĲáĥłáĥ Ļ
Ð²Ð°ÑĢ Ð¸
ĠáĢĲ áĢħ
ĠMal aysia
èµ °
Ġrah v
miÅŁ dir
é© ¬
ĠØ¬ÙħØ¹ ÛĮØª
I V
a ie
d Ã¡
j j
Ġt eb
Ġc ultura
Ġh Äĵ
ĠS ran
ĠA S
Ã© b
à¤¯ à¤µ
ĠC ro
ĠÙħ ÛĮØ±
ĠÙħ ØªØ±
à¤® à¤¯
à» Ĩ
na v
Ġst rat
ĠØ¬ ÙĦ
io on
Ġam m
à¸£ à¸£
ĠÙĤ Ø¨ÙĦ
ĠÐ» Ð¾Ð¼
Ġë ķĮ
era jaan
à²ª à²°
å® ¤
à½Ĳ à½Ĥ
Ġom na
fr ed
Ġur b
Ġà¶´ à¶»
Ġsom e
áĥĺáĥľ áĥĲ
Ġà²¤ à²®
ĠÔ ³
Ġá» ¥
ĠBar b
Ġparti cip
ĠKr ist
str ument
ĠÐĻ Ð¾ÑĪÐºÐ°ÑĢ
ĠÐºÐ¾Ñĺ Ð°
è± ¡
à¹Ģà¸Ĺ à¸¨
p ra
x an
¢ áīµ
Ä £
Ù Ľ
Ú Ģ
Ġ ÉĻs
er es
Ð» Ð¸Ð²
Ġp Ã¨
Ġm Ãµ
ir wa
ĠØ§ Ø±Øª
Ġj ira
ĠÐº ÐµÑģ
Ð¾ÑĢ Ð¾
ni Ã±
Ġand ere
ĠÑĦ Ð¸Ð·
any i
à¶¸ à¶º
Ġbi ja
ĠáĥĽ áĥĺ
ÛĪ Ùĥ
è¡ ĵ
Ġ×ł ×Ļ×©×ĺ
ĠÑĥÑĢ Ð½Ð°ÑĪ
æİ ¨
Ġprincip al
ĠÙ¡Ù ©Ù
Ãºbl ica
ĠÃ§al Ä±ÅŁ
n oj
u ÅŁ
in ÉĻ
Ġs Äħ
Ð¸ Ð¸Ð½
Ðµ Ñĺ
Ġa ke
Ġt ung
Ġh ue
à¤° à¤§
ur m
ĠS ultan
ĠÐº Ò¯ÑĢ
ĠD am
ĠD ub
ĠN h
ĠN ig
ĠÑĤ Ð¾Ð¹
ĠÙĪ Ùħ
ĠÙĪ Ø®Øª
ï¼ Ł
ĠR iver
ie u
ĠW elt
ĠÕ ¹
Ġle ap
Ġma e
Ġà¤µ à¤¸
Ð¾Ð³ Ñĥ
Ġà¤Ĩ à¤ľ
we i
à©Ģ ,
áŀĦ áŀ¢
Ġth Ã¡ng
Ġed il
Ø§Ø¨ Ø±
à»Ģàº ®
å¤§ åŃ¸
Ġà¶ļ à¶½
ĠØ§Ø³ Ùħ
ä¿ Ħ
çĤ ¹
åĭ Ŀ
ors z
Ø§Ø¹ Øª
Ġstat us
à½Ĥà½Ļ à½Ħ
Ġ×Ķ×¨ ×ĳ
Ġsigni fic
ĠÐ²ÓĵÑĪÐ»Ð¸ÓĵÐ»ÑĤ ÑĪÓ¹
I N
f Ã©r
Ä ī
Ġ áŀľ
Ðµ Ðµ
Ġb ari
Ġb Ã½
el ela
Ġr h
ĠA D
ĠB erg
ĠÐº Ã¦Ð½
ĠC ab
ut r
ot an
Ã« d
ĠF C
Ã¼ b
ud s
wa ÅĤ
Î± Î¸
Ð¸Ñı Ð½Ñĭ
à¯ģ ,
à´ķ à´°
Øº Ø±
Ø§Ø¯ Ø§
×ł ×ĵ
à¸ĩ à¸ª
à¶¸ à¶ļ
Ã¸ d
àºĻàº ¥
à»Ģàº «
ĠPr im
áĥļ áĥĶáĥĳ
Ġà²Ĩ à²¯
Ġmot se
ĠÑī ÑĭÑĤ
Ù½ Ø±
éĤ Ħ
ĠÃ¼Ã§ in
ĠPier re
ĠÐ±Ð¾Ð¹ ÑĭÐ½ÑĪÐ°
f j
w and
ç °
Ġ >>
ĭ áĪĭ
Ġd anda
in si
Ġa tr
Ġt av
Ġp jes
Ġm ala
Ġk we
Ġl ay
Ġc and
il it
Ġh ow
Ġh iji
Ġg un
Ġw Ãł
ĠM oh
im ir
Ñı Ð»Ñĸ
ĠD ic
à¤² à¤¤
ĠÐ± ÑĥÑģ
Ġàª ĵ
Ñĸ ÐºÐ°
à¤® à¤°
ĠR oy
ri os
ok at
Ø´ ÙĪ
Ġà´ ±
Ġal d
ug Ã©s
ĠÑĢ Ð°Ð´Ð¸
Ġta Ã°
Ġsu ya
Ùĥ Ø§
Ġje j
di i
ĠÙĤ ÙĪÙħ
ĠØ¹ Ø±
ĠÙĬ Ø¹
ĠÙĬ ÙīÙĦ
àº° àºļ
ĠÛĮ ÙĪÙĨ
Ġver b
Ġ×ķ ×ŀ
ĠÏĢ Î¿Î»
Ġmod el
Ġà®ħ à®¤
äºĮ åįģ
Ġshek ara
ĠØ§Ø¨ ÙĨ
á»ĵ ng
áĭ® áĮ
ĠÅŁe er
ĠAssoci ation
k ie
l ast
w is
Ġs itt
ÑĤ ÐµÐ¼
Ġa yn
Ð» ÑįÐ³
Ð» ÑįÑģÑĮ
Ġt Ã©r
al ir
es wai
Ġi Ã¢
Ġj est
ĠP el
ĠD y
×Ļ× Ĺ
ĠÐ¼ ÐµÑħ
ĠáĢ ¦
áĬ Ĵ
Ġas i
ĠØ´ Ø§Ø±
ata o
ind er
Ġ6 8
å® ĭ
ĠÒ ±
ÙĬÙĨ ÙĬ
Ġter r
Ġà²ķ à²²
ĠÛĮ ÛĮ
ï» Ł
ĠÐĽ Ð¾Ð¼Ð¾Ð½Ð¾Ñģ
ĠáĢ¡ áĢĽ
Ġí Ķ
Ġinter net
ami ento
à¶ľ à¶Ń
ĠÐŃ Ð½
ĠØ· Ø¨
ĠØ§Ø³Øª Ø¹ÙħØ§ÙĦ
ĠØ¯ÙĪØ± Ø§ÙĨ
Ġbek end
Ġáİ¢áİ¦ áıĽ
ĠSup er
Ġkill api
h is
j yn
n Ã¨
y ari
z ek
Õ »
æ Ĩ
on en
Ġp unt
Ġn ito
Ġb ron
Ġf ri
ol la
ĠØ¯ Ø§Ø®
Ġz uten
ĠE p
Ø¨ Ø©
da a
ib er
se y
Ġà¤ħ à¤¦
à¦² à¦¨
Ġto o
Ġper ts
Ġà¤Ĺ à¤£
Ð°Ð± Ð¸
Ġàº Ľ
ĠÑĨ I
Ġiz an
áŀ¾ âĢĭ
igh ts
ĠØµ ÙĪØ±Øª
Ġá» Ł
åİ ¿
ç´ ł
ĠáıĹ áıĤ
Ġpra c
é» ¨
ĠÐºÐ¾ÑĤ ÑĭÑĢ
çł ´
Ġzitu zten
m y
Ð ĸ
Þ Ļ
Ġ Ð°Ð½Ñĭ
Ġd ara
Ġk Ä±
Ġf Ã³l
ur r
ir de
Ġà² §
Ġdi z
ĠC y
à¤² à¤µ
ek an
Ġz Ä±
ĠR ah
Ã« ri
ĠÐ² Ð°Ñģ
ĠØ¦ Ø§Ùħ
ÅĤ i
ĠÐ· Ð°Ð´
Î¹ Î¼
Ð¸Ðº ÑĤ
ĠØ± Ø§Ø¬
ĠÙģ ÛĮÙĦ
ki eng
oj en
ĠÑį Ð¿
ĠAn na
ÙĬÙĨ Ùĩ
Ġ×ŀ ×¡
ĠÐĽ ÐµÐ½
Ġut anas
ĠØ¨ÛĮ Ø´ØªØ±
à¹ģ à¸ķ
ÐĲ Ð¢
èĪ ¹
çĻ º
éĿ ©
ÏĥÏĦ Î·
èĻ ķ
ĠXI V
íĸ Īëĭ¤
åĮħ æĭ¬
Å £
Ġd ow
Ġd hu
Ġs eks
Ġa ux
Ð» Ð¸Ñĩ
Ġt emb
Ġt odo
Ġk ug
Ġr oce
Ġy ek
ti ch
ĠB ach
ĠP ost
ĠP ress
im h
ĠC ole
ĠN GC
ng ie
ĠÑĤ Ð¸Ð¿
ĠR ot
Ġan to
Ġan che
Ġu v
Ġà´ «
Ø§Ø ¸
ĠÕ ¦
ĠØ¦ ÛĩØ±
ÓĻ Ò¯
Ġte chn
ĠØ´ Ùī
Ġq Ä±
ĠY Ãłlla
å¤ ´
ĠÐł Ð¸Ð¼
Ġge upe
Ġà¶ļ à·ħ
Ġà²ĩ à²¦
èģ ĸ
Ġhabit antes
à¾¦ à¾±
ĠÖ ĥ
ĠØ³ÙĨÚĮ ÙĬ
isip al
Ġdirec tion
l ara
ê ¸
Ð¸ ÑĨÐ°
Ġb ele
as jon
it im
Ġv ik
ĠS ang
ĠB ad
ĠC ont
ĠÐ± Ó©Ð³
ab ak
ĠE sta
ĠH ill
ĠÚ© ÙĪÙĬ
Ð¾Ð½ Ñı
à¤¦ à¤ķ
Ġst ato
ĠÙĨ Ø§
áŀļ áŀı
ĠÑĢ ÐµÑģ
ÏĢ Î¿Ïħ
Ġag ugu
ĠSt udi
Ġê ¹
pa Ã±a
ato ari
Å¼ e
ĠÑĺ Ð°
Ġáĥ¬ áĥĶáĥļáĥ¡
Ġáĥĺ áĥĽ
Î±Î½ ÏĦ
ĠáĥĶ áĥłáĥĹ
è³ ½
à·ģ à¶º
ĠìĹ ¬
ĠStat isti
ĠColl ege
¢áīµ áĭ®áĮ
i Ê¼
l ek
l ans
n ot
é ¨
ĳ Ĳ
Ġd Ã©n
Ġt ika
Ġp ac
Ġp ublik
Ġk aya
ch ia
Ġg est
Ã© yah
ĠM ul
ĠD ÃŃÃŃ
ĠÑģ Ð°ÑĤ
ĠI na
ĠI ka
ĠØ¯ ØºÙĩ
ĠÐ¿ Ñĥ
Ã« k
ĠÐ² ÑĬ
Ġsa at
ĠÑħ Ð¸Ð¹
ĠÑĢ ÑĥÐº
Ġsu ch
lar Ä±nda
ÑĥÐ½ Ðº
Ð°Ñħ Ð¾Ð´Ð·
ĠAl em
ĠáĪ ¥
ÐµÐ³ Ð¾
ĠØ§Ø³ Ø§Ø³
áıĤ áİ¬
æķ ´
à¤¼ à¥į
×¦ ×¨
æĻ ¯
Ġnas c
ÒĻ ÓĻ
Ġà²ī à²¦
èª į
ume ur
éĹ ´
Ġimport ante
ĠÐ¹Ð¸Ñģ Ð°Ð½
Ġday toy
eny ane
Ġà¤¨à¤Ĺà¤° à¤ª
Ø§ÛĮÙĨÚ¯ ÛĮÙĦÛĮØ³Ø¬Ùĩ
¢áīµáĭ®áĮ µ
3 00
O M
n al
q as
Ġd Ã¼ÅŁ
Ġs int
Ġk ini
Ġv all
ir il
Ġw it
ĠØ§ ÚĨ
ĠM ong
Ġin stitu
Ġj et
ĠÑģ Ð¾Ð²ÐµÑĤ
ĠØ¯ Ø®
ĠR ang
à¥ĭ -
à¥ģ ,
Ġà¤® à¤¸
Ġka q
åħ ¸
ÐµÐ¼ ÑĭÐ½
æľ «
Ġ×Ĳ ×Ļ×Ļ×ł
ÑįÐ½ Ñį
adi i
Ġáİ¤ áıħ
àºĻàº ŀ
vi je
ìĹĲ ëĬĶ
à¾¤ à¾±
Ġhu wa
Ġà¬® à¬¹
Ġik ki
ĠKa undi
ĠÕ´ Õ«
Ġlib er
à¾¨ à½¼
æĢ »
ĠÑĢÐ°Ð· Ð²
Ġkilom eter
ĠÕ¡Õ ·
ĠÕ¥ÖĢÕ ¯
ĠÑĥÑĢÐ½Ð°ÑĪ ÐºÐ°Ð½
Ġa yaa
Ġk art
at re
Ø± Ø§Ùħ
et ate
Ġ1 18
Ġh ana
Ġv ag
om ba
Ġj Ã«
ĠB ank
ĠL it
Ġàª Ł
he z
st va
sk oj
ÅŁ y
Ä« b
ru ck
ĠØ¢ Ø³
à´° à´ķ
ÐµÐ¹ Ð¼
à¤ĸ à¤°
Ġà·Ģ à¶½
ÑĤÑĭ Ò£
Ġà²ħ à²²
Ġ13 0
iss ement
ïº ª
aya an
ĠáĥĴ áĥĲáĥľ
éĻ ³
Ġseg unda
Ġtan Ãłna
ath er
Ġnas el
Ġáİłáı °
Åĳ l
Ġgeb ro
ĠÐ¼ÐµÐ½ ÓĻÐ½
á»ĳ c
è¶ ³
çģ «
ĠÙĨØ¸ Ø±
ĠChr istian
ĠMuh ammad
Ġheman ari
f eld
s al
v ard
Ġd Ã¡
en os
er r
Ð¸ Ñį
Ġp ele
Ðº I
Ġde el
ĠS ig
Ġr ist
id al
Ñħ Ð°Ð»
ĠK n
ĠÑģ Ð¾Ð²
ĠÑģ ÐµÐ½ÑĤ
ab ang
ĠÐ¿ Ð»
ĠÐ¿ ÐµÐ´
ĠG old
Ã¨ la
ĠÐ´ Ð°Ð¼
ĠØ³ Ø§ØŃ
ĠØª ÙĪÙĦ
ĠW ay
Ġar tic
Ûĩ ÚŃ
Ïģ Îµ
à°° à°ķ
ĠZ w
ĠAn ti
ĠáĪ ģ
Ġag wu
à¸ģ à¸§
Ġàº Ĭ
ĠÃ¤ n
Ġ×ĳ ×©×ł×ª
ĠÐ±Ð¾Ð» ÑĮ
Ġok uk
Ġ×ĵ ×ķ×¨
Ġà¤ĩ à¤¸à¤ķ
æŃ ¢
ĠÎ± Î½Î±
ØªÙī Ù¾
ĠÐĹ Ð°
à¤µà¤° à¤£
ĠØ· Ø±ØŃ
Ġ190 3
ê° Ħ
çµ Ĥ
áĮĪ áĪŃ
è³ ĩ
pro gr
ĠgÄ§ all
ĠCan ada
Ġmark api
Ð°Ð±Ð¸Ð» ÐµÐ±
g or
en zi
Ġl ua
Ġl ind
or at
un it
Ġf Ã¥
ol n
Ùħ Ø§ÙĨÛĮ
ia us
ĠL et
ek om
ĠN el
ÑģÑĤ ÐµÑĢ
×ķ ×ķ×Ĳ
áī ¹
ĠÙĨ Ø²
ĠU na
ÉĻ ri
Ġà¥ ł
eng ah
Ð¸Ðº Ð»
io in
à®¿ ,
à¤ľ à¤¸
ĠØ± ÛĮØ§
ĠÑĪ Ð¾ÑĤ
Äĥ Ð¼
ys s
Ġ7 6
ĠÑĦ ÑĥÑĤÐ±
åį °
Ġ15 00
à°Ł à°°
æ± º
ĠRep ublic
éĥ¨ åĪĨ
ĠKon kn
Õ½ Õ¿
ĠÃģ rea
Úķ ÛĮ
Ġcal ender
Ò»Ð° Ð°
ĠÐ³ÑĬ ÑįÐ¼
Ġnatur al
ĠÑĢÐµÐ³ Ð¸Ð¾Ð½
Ġà°Ĵ à°ķ
ĠMicros oft
k Ã®
s at
ì ¶
er min
Ġc ostr
Ġv Ãª
Ġv Ä«
Ġg av
ol is
Ġr ou
Ġw orn
ĠÐº Ð¾ÑĪ
ĠT ol
ĠK em
ĠÙĪ Ø¬ÙĪØ¯
ĠG es
st vo
Ú© Ûķ
Ġà´ ı
ÙĤ Ø§ÙĦ
ĠJ ah
Ġar u
Î± ÏģÎ±
áŀĵ áŀĬ
Ġes k
Ø¦ ÙĪÙĨ
àºĻ àºŃ
Ġte h
ĠÐ¿ÑĢ ÐµÐ¼
à¶º à¶º
und s
áŀĦ áŀĩ
àºŃ àºļ
ÙĬÙĨ Ø©
Ġter d
ĠÐĺ Ñģ
çĶ ļ
af a
ÑįÐ» Ð»
ĠÐ°ÑĢ Ð¼
à¨¦ à¨°
éĢ Ļ
å¯ Ĩ
ç¾ ¤
Ġà¦ļ à¦¨à¦¤
ÙīÙĬ Ûķ
ĠØ¨ÙĨ Ø§
åĸ ®
à¾¨ à¼ĭ
áŁĦáŁĩ âĢĭ
ĠReg ion
c le
j d
p hu
à¤ Ĭ
ar ta
it us
à¨ ĺ
Ġw ork
ĠB ob
ĠD á¹³
ĠD Ã¤t
ro ch
ĠL ag
ĠÑģ Ð°Ð²
ĠÐ´ Ã¦ÑĢ
Ú© Ø±Ø¯
de b
ha v
ĠU g
Ã´ te
ĠÐ· Ð°Ð³
Î¹ Î»
ni u
×Ĳ ×Ĵ
ke y
Ġper c
ce ae
Äĵ s
Ġab b
ĠÏĦ Î¹ÏĤ
á¹ Ľ
ĠØŃ ÙĬ
ÑĤÐ° Ñŀ
Ġáİ¤ áıĵ
18 60
ĠÐ°Ð» Ð°
ĠÃ¾ Ã¦t
ĠÃ¾ aÃ°
Ġbil o
ss on
à¥Į à¤Ĥ
ĠÐ¤ Ð¸Ð»
Ġà²ĩ à²²
Ġwat api
Ġcont inu
Ġìł Ħ
áºŃ n
Ġà¦¸à¦® à¦¯
ĠØªÚ¾ ÛĴ
Ġìľ Ħ
ÑĬÐ» Ð³Ð°ÑĢ
ĠØ§ÛĮÛģ Ûģ
ĠØ±Ø§Ø³ Ø§
Ġwux uu
] )
l akan
s Ã®
t Ä±
¯ à³
í ģ¬
Ġd la
Ġs ust
Ð» Ð¾Ð¼
Ġn ne
ĠS l
Ġr ug
Ġw ell
Ġw hen
Ġdi Ã½
Ġla p
ĠH ot
ĠÎ §
×¢ ×ĵ
ãĥ ł
Ġà¤ľ à¤¸
áŀĢ áŀŁ
Ġáı Ĳ
Ġ6 6
ys z
åľ º
ÑĭÐ¼ Ð°ÑĪ
Äĩ u
ĠÐ±Ð¾Ð» ÑĥÐ¿
tic as
Ġáĥ¡ áĥĲáĥ¥
à¦¶ à¦¨
Ġà¥§à¥ ¬
àºŃàºĩ àºĹ
Ġmak gol
Ġdist rit
ĠáĮ ¥
àª£ àªµ
ç§ »
Ġà¦ļ à¦²
199 9
ĠAt lant
ÄķÐ½ ÑĩÐµ
Ġprin ci
ĠØªØ§Ø±ÛĮØ® ÛĮÙĨØ¯Ùĩ
Ġà¸ŀ à¸£à¸°
Ġish te
Ġëª ¨
åļ Ł
áĬķáĮį áĪ¥
k v
k Ã¢
s m
Þ ¢
Ñģ ÑıÐ½ÑĮ
Ġm ult
al j
or p
or ma
ÙĦ ÙĪÙħ
àª ł
Ġde ven
ol in
os an
ic ion
ĠÐ± Ð°ÑĢÑĭ
Ġz ab
ĠÐ´ ÐµÐ½
ĠF el
ĠÐ¼ ÐµÑĢ
ant en
Ø¹ ÙĬ
Ġì Ľ
Ġre i
å¹ ¾
ĠÐ¢ Ñı
ff t
lo und
àºĶ àºĸ
Îº ÏĦ
à¬¨ à¬°
Ø§Ø¦ ÙĨ
ĠÛĮ ÛĲ
Å¯ ÅĦ
ÐµÐ³ Ñĸ
áıĵ áİ´
ÑĥÐ± Ð»Ñĸ
uf t
Ġdis se
çī Ļ
×Ľ ×Ł
Ġà²ĩ à²ª
Ð¸Ð¿ Ðµ
ĠÑģÐ¿ Ð¾ÑĢ
Ġâ ĹĦ
ĠUnivers it
Ġhin di
ĠÐ³Ð°Ð· ÐµÑĤ
Ġcentr al
ĠÐĲÐ² ÑģÑĤÑĢ
Ġetx ek
Ġbevol kieng
f lu
h os
n de
Ġ !
Ħ °
an ni
Ġs isch
Ġn ch
is ku
as al
Ġh ov
ol le
os se
ĠØ§ Ø«Ø±
Ø³ ÛĮÙĨØ¯ÙĨ
ĠC ir
ut as
Ã¨ ne
Ã¼ y
li i
Ð°Ð² Ð°Ð½
Ġcon qu
ÐµÐ¼ Ð¿
áº ±
aj n
ĠØ² ÛĮ
ĠÒ¯ ÑĢ
à¦ĩ à¦Ł
Ġpol ÃŃ
à¸« à¸£
Ġpop ula
Ġein em
ĠØµ ØŃ
Ġmul ieri
á»ĩ t
Ġperson as
ĠØ¦ÛĨØª ÙĥÛĪØ²
f re
w w
áĢ ¦
Ġa sk
on k
Ġk ob
is ana
Ġb anyak
el an
Ġv era
us ch
im is
Ġz on
ĠÐ¿ Ð»Ð°Ð½
ok uba
ĠÐ² Ñģ
ĠØ³ Ùĩ
Ð¶ Ð¾
Å¡ en
áĬ Ķ
ĠÐ· Ð°Ð½
ÄĹ r
Ġcom pr
ĠIn c
ĠÑį Ð´ÐµÐ¼
Ġ8 4
ĠSt and
àªµ àª²
àºģ àºª
ÐµÐ· Ð¸
ĠØ² Ø¨Ø§ÙĨ
ler in
Ġà¦Ĩ à¦¹
áıĽ áıĹ
ĠÚ¾ ÛĨ
æķ Ĺ
ÎŃ Ïĩ
Ġmer c
ÙĦØ§Ø± ÛĮÙĨ
áĥĶáĥľ áĥĵ
Ø¸ ÙĬÙħ
Ġà¤ķà¤° à¤£
æ² Ļ
è¦ ª
ĠTo ur
ĠÑĳ Ð½
ĠvÃł o
áº£ n
ĠÐĻ ÑĭÐ»ÒĵÐ°
Ġtang gal
ĠØ¹ÙĦ Ø§ÙĤ
Ġdiff er
eber apa
ĠÐ±Ó©Ð³ Ó©Ó©Ð´
S R
r up
w ad
Ġt ÇĴ
Ġl un
Ġl he
Ġb ayan
Ð´ Ð¾
Ġc yn
am ah
Ã© pe
Ġin sp
ed an
ti vo
Ġj bena
ĠL ake
Ġàª ¯
Ġz in
od ik
ĠR Ã¨
ĠÚ© ÙĪØ±Ø¯
ĠØª Ø¨
iv an
ĠO st
ĠO ne
ha u
Ó© Ð´
ãĤ ª
ĠÙ¾ Ø§ÛĮ
Ø² ÙĨ
ÅĤ ad
ung g
ÐµÐ¼ ÐµÐ½ÑĤ
ĠÑĪ Ð¾
Ġáı ©
Ġme hr
Ġgr andi
Ġà²ª à²¤
Î¼ Î²
à¾³ à½´à¼ĭ
ĠÐ±Ð¾Ð» ÑĥÑĢ
à¸« à¸§
Ġà¬¬ à¬°
ÑĭÐ½Ð´Ð° ÒĵÑĭ
çĻ »
ĠáıĹ áİ¦áıĺ
ä¸» è¦ģ
æ¯ į
à½ĺà½Ħ à½ł
ĠMus ic
Ð¸ÑĩÐµÑģÐº Ð¾Ð¹
æ© ĭ
Ġapr il
æ· ±
ĠWil helm
ĠAbd ul
d je
j ow
n ke
Ġd int
ch ie
Ðº Ñı
Ð°ÑĢ Ð¸Ð½
ĠK op
ud z
ĠJ ak
ĠO g
iy en
Ġqu ali
Ġte x
áŀĦ áŀĺ
all s
à½ŀ à½ĸà½¦
à¦¬ à¦¨
àºĶ àºķ
à¹Ģà¸ Ħ
à¤ĸ à¤¨
å¸ Į
áĢ¡ áĢĻ
Ġnj egov
åħ¶ ä¸Ń
Ġà´ħ à´¨
Ġbel g
Ġmang rupa
ĠNor te
áĥĺáĥ£áĥ ļáĥĺ
à¸ł à¸²à¸ŀ
Ġ×Ĵ×¢×ķ ×ķ×Ĳ×¨
áŁł áŁł
Ġtaraf Ä±ndan
a qu
e ff
k em
p á»į
Ġt amiÃ©n
Ġk ish
ÙĦ Øª
Ðº ÑĭÐ½
Ġg sch
Ñį Ð½Ñĭ
Ġr ish
ĠB og
áĪ ł
ĠÐ´ Ð¾Ð¼
ä¸ ¤
Ð°Ñģ Ñı
Ġar upi
Ġqu an
Ã² t
ÅĤ aw
Ùĥ ÙĬ
Ð¸Ñı ÑĢ
ĠÐ¡ Ð°ÑĢ
ich er
à¸£ à¸ģ
ÛĮØ§ ÛĮÛĮ
ĠØ¹ ÙħØ±
Ġsp or
à¦® à§°
ĠSt re
ĠÐµ Ð´
Ġà²ķ à²¡
ĠØ¯Ø± Ùĩ
ĠMar ie
Ġ×ŀ ×¢×Ł
ÙĦÙĬ Ø©
Ġà¤ªà¤° à¤¸
ÙĨÛĮ Øª
éĻ ¸
Õ¡Õµ Õ¶
ĠÐ°Ð² ÑĤÐ¾Ð¼
sta v
Ġsab uah
Ó©Ð½ ÑĮÑı
ĠÃ³ m
ĠáĥĿ áĥ¨
Ġtam in
Ġwor re
ĠFo otball
ĠØ¨Ø§Ø´ ÙĤØ§
ĠIntern et
ĠÅģ a
ĠÑħÐ¾ ÑĳÑĢ
ĠáīĢ áĬķ
Ġáİ¤áİ¾áı ¤áİµ
o ff
Â º
Ð½ Ð¾ÑĤÐ¾
ar ka
Ġt m
at ir
Ġb ert
Ġw Ã®
ed du
ĠT ay
ĠT hi
ĠÑģ Ð»ÐµÐ´
ut es
ng it
ĠR ay
st wa
le z
Ġse us
Ġch t
iy ada
Ð°Ð´ ÑĭÐ»Ð°
Ð¸Ð» Ð¾
ÑĦ Ð¾ÑĢ
19 45
à´ķ à´¤
à²¯ à²¦
Ġat s
Ġáı ´
áº ·
ĠÚ¯ Ûķ
ĠCh h
Ġx ihuitl
Äħ c
ÑĢÐ° ÑĨ
pa q
ãģŁ ãĤģ
×¦ ×Ļ×¢
ç¬¬ äºĮ
Ò»Ð° Òķ
Ġcuk up
c um
p la
r ick
Ä ı
ë Ĳľ
Ġd ost
er re
ar di
is ki
at ing
Ġc idade
ul as
à½ĸ à½£
ĠC rist
Ø§ÙĨ Øª
ĠG agauz
Ø¨ Ø¤
Ð¸Ð½ Ð°ÑĤÐ°
ĠÞ Ļ
á» Ŀi
Ġst atu
ub li
Ġte y
Ġku i
Ġáı ķ
Ġme h
à¸Ń à¸ª
Ġth em
ĠÐ¢ Ð¾Ð¼
Ġap par
ĠÐ°Ð» Ð°Ð¹
å· ¦
Ġby ÅĤ
ĠØ§ÙĦÙħ ÙĨ
ĠÔ µ
Ġpal ab
ĠáĬ¥ áĪµ
Ġkh Ã´ng
Ġkir adi
Ġ189 0
Ġ189 8
Ġland et
Ġà¶¶ à·Ģ
Ø¢ ÙĨ
ĠMin ist
é¡ ŀ
chh á¹³
Ġleng ua
åĤ Ļ
ĠHis pan
Ġà¥ł à¤¤
l end
æ ¾
Ĭ áĭľ
in er
er ta
er to
Ġt yp
al ang
Ġh jÃ¡
ĠS ah
Ø¯ ÛĩØ±
Ġj uh
Ã¡ ly
ĠC ong
ro f
ĠK in
ÑĪ Äķ
ĠÐ¿ Ð°Ð²
od at
ri ft
Ø´ ÙĬ
li et
ĠO lymp
Ġpr uw
ÙĪØ± Ùĩ
Ġà¤ľ à¤°
Ø³Øª Ø§ÙĨÛĮ
Ġà¤Ĩ à¤¤
Ġti ed
Ġti emp
à®² à®ķ
ĠÑİ ÑĢ
Ûĭ ÙīÙĬ
Ġà²ĩ à²¨
ĠÃ¦ Ð²
Ġsig lo
lia in
ĠáĭŃ áĪħ
éŁ ¿
Ġcent ro
iment u
ĠÑĪÐº Ð¾Ð»Ð°
ĠCl ub
ë³ ¸
ĠÑģÐ¾Ð» Ð¸
Ġpruw ins
. /
h old
Ò Ĺ
er ti
ar ter
Ġt ash
Ġm n
al b
Ġc ada
Ġh w
ed u
ĠB ea
ĠD eg
ÑĪ Ð¸
ĠÑģ Ð°Ð½Ð°
and en
and es
ek te
ek ue
Ġna i
Ø¨ ÙĬØ±
ĠR ock
ist ik
Ġse v
ĠV ik
ant h
ĠO Ê»
áŀĵ áŀħ
Ġes a
à¾² à¾Ńà¼ĭ
io Ã¹
ĠÙģ Ø¹
Ġat om
Ð¸Ñģ Ð¸
ĠAr ch
ĠÐĺ ÑĢÑĤ
æĺ Ń
ĠÑĸ Ð¼
ĠFran z
ä¹ĭ åĲİ
Ø¶ Ø§
ĠTe x
Ð°ÑĢÑĭÐ½ Ð´Ð°
àªĹ àª°
Ġgod ina
Ñļ ÐµÑĤÐ¾
ĠÓ ĺ
Äĭ Äĭ
àª§ àª¨
áı¯ áıĽ
ĠÕ¿ Õ¡ÖĢ
ungs od
ĠÐĲÑĦ ÑĢÐ¸Ðº
ĠaÃ± os
ĠArg entina
Ġë¶ Ī
Ù į
Ð» ÓĻÑĢ
Ġn ow
Ġl Ã¨
Ġb lan
Ðº Ð¼
Ġh asta
ur at
ad el
àµ º
ĠB es
ĠB av
Ð· ÑĭÐ½
ĠÑģ Ñİ
ĠÑģ ÑĥÐ¿
à¤® à¤¦
ĠÑĥ ÑģÑĤ
ob ol
ip l
áŀļ áŀĻ
ãĥ ĸ
sa ch
Ġ×Ĳ ×¤
Ú¾ ÙĪ
Ġth Ã´n
áŀĽ áŀĺ
Ġ8 6
áŀĻ áŀĳ
Ġà¤ī à¤²
ins hi
Ø§Ø¨ ÛĮ
Ø±Ø¯ ÛĮ
à´µ à´°
ĠSch d
Ġpos to
ĠÐ²Ð¾ ÑĭÐ½
ĠÃ± a
ĠRe ich
ĠÐ§ ÐµÑĢ
pu es
Ġmul ti
ÙħÙī Ø³Ùī
Ġ×Ĳ×ķ×Ļ× £
ĠÐ¼ÓĻ Òĵ
ĠÐļÑĢ Ð°Ñģ
Ġorig in
ĠØ¨Ø® Ø´
Afr ika
ĠViet nam
Þ ŀ
è §Ģ
at ha
Ġf ill
ĠÃ Ĥ
Ġr av
ang l
ĠD ez
Ã¤ iv
Ø¨ Ø§Øª
à¤® à¤®
ĠJ isk
ĠØª Ø¬
ĠO ce
ĠÑĥ Ð¹
Ġqu ando
Ð°Ð· ÑĮ
à¾Ĵ à¾²à¼ĭ
ell u
å¤ ®
Î· ÏĦ
áĢĲ áĢĢ
ile yo
áĢ½ áĢ±áĢ¸
Ã¨n de
ÈĻ i
ìĦ ¸
Ġáİ¦ áİ¸
imb izi
Ð°Ð»Ñĭ ÒĵÑĭ
Ġáİ¨áıĴ áİ©
á»ģ n
ÐµÑģÑĤÐ² ÐµÐ½
Ġaug ust
ĠÐ¼ÑĥÐ· ÑĭÐº
Ġà« §à«
ĠÐ°Ð»ÑĮ Ð±
çĹ ħ
ĠStatisti ek
r Ã«
y re
ÑĢ ÐµÐ½
Ð» ÑĭÐ½
it hi
am ma
Ġr unt
Ã© ny
ĠM id
ĠÚ «
ĠÐº Ð²
ta an
ĠD um
ĠT un
ĠK ad
ĠN d
ĠÑĤ Ð¸Ð»
ĠÑĤ ÑİÑĢ
à¥ģ à¤ĥ
Ġà¶ ł
Ð¾ÑĢ Ð¾Ð½
Ġsa an
ÉĻ k
ja ch
áĥĿáĥ ª
Ġq of
ÓĢ ÑįÐ¼
×ł ×Ļ×Ŀ
ĠÒ ¶
à²Ł à²°
Ø· ØŃ
Ġ9 9
ori i
isch n
Ġà¦ħ à¦§
ĠØ§ÙĨ Ø³Ø§ÙĨ
Ġsch ool
Ġot ro
cion es
Ġmut lak
ÏĦÎ± ÏĤ
ä½¿ çĶ¨
ë³ ´
ĠÙĤÙīÙĦ ØºØ§ÙĨ
ĠØŃÚ© ÙĪÙħØª
Ġ×Ĵ×¢×ķ×ķ×Ĳ×¨ ×Ł
A t
s ce
í ŀĪ
Ġt Ã¶
Ġn ik
Ġl aka
ĠS pr
ĠA br
ed it
ag as
Ġy ake
ĠB oh
à¤ķ à¤ķ
ĠL umb
ĠN an
ĠÑĤ Ð°ÑĤ
ĠR um
ĠH and
Ġch hi
ci ju
Å¡ ta
à¤ª à¤£
à¤ª à¤Ľ
à·Ĭ ,
à±į ,
à¸²à¸ Ķ
ata a
ĠZ ar
ÄĽ d
ĠÙĥ ÛķÙĦ
ĠÐµ ÑĤ
ÑĭÐº ÑĬ
Ø§Ø³ Ùħ
ge y
à®¯ à®®
olog ical
Ġfu Ê»u
tic os
Ġáĭ¨ áĬ
à¨Ĩ à¨°
àºĹ àº²àºĩ
ĠØ¯Ø§ Ø´Øª
Ġ190 9
Ġnak on
é¡ Į
ĠØ¬Ø§ÙĨ Ø¯Ø§
ĠÙ¾ÙĪ Ø¡
ichte id
Ġëı Ļ
sd ichteid
ĠMuse um
é½ Ĭ
Ġbevolkieng sdichteid
M a
a id
c r
j yr
k Ã¡
à¤ ±
ar be
ÑĤ ÑįÑĢ
Ġt ym
Ġk Ã³t
Ġk umbang
Ġl el
Ġb all
Ġh vor
Ġv ÃŃ
Ġv az
os u
ĠP ur
à¦¾ /
ĠL ang
ĠL iv
ĠK ul
ĠÙħ ÛķÙĨ
eg er
ĠÑĤ Ó±
Ð¾Ð» Ð¸
ant in
áĥĶáĥ ®
yn dan
Ġ18 70
Ġthe y
Ä« bas
ÄĹ l
×ľ ×¢
ier no
Ġx alq
Ġ7 8
ĠÐĴ Ð»Ð°Ð´
à¹Ģà¸ Ĭ
Ġmet a
ÑĭÑĪ Ðµ
ĠÐŀ ÑĤ
Ġ×ŀ ×ª
à¸Ĺ à¸²à¸ĩ
à¤ĩ à¤¤
à¾¡ à½²
Ġir ratti
à¦¶ à¦°
Ġà®ª à®Ł
Ġlang s
ĠÐ±Ð¸Ð» Ð°
à½¼à¼į à¼į
ĠÎŃ Î½Î±
Ġtag Ä§
Ġbed roe
Ê¼ÃŃ ÃŃs
Ġ×ķ×ķ×¢×ľ ×Ľ×¢
Ġvog ges
Ġtarkib iga
E n
d oni
f und
k ÉĶ
s Ä«
w ald
ç Ĭ
í Ħ°
Ġ à½Ħ
Ġs oll
Ð» Ð°Ð¹
Ġm iy
Ġde y
à¤° à¤¬
Ġy ra
te y
Ġdi Äĵ
ro j
ek si
ĠN ame
ĠÑĤ Ñĭ
ĠÑĤ Ò¯Ò¯
ĠÐ² Ð¸ÑĪ
ĠÎ Ľ
ä¸ ļ
ĠO ff
à¤Ĺ à¤ķ
áĭ ĵ
ĠÄ ¬
ÐµÐ» ÐµÐ½
ka ah
à¸Ļ à¸Ń
ĠÑĩ Ð°ÑĢ
tu ur
à¤¶ à¤¯
Ġko ta
ih t
ama in
Ð¾Ñģ Ð°
Ġor az
à½Ĳ à½¢
Ġcu al
asi Ã²un
Ġve ih
ĠX II
ĠÛģ ÙĪÙĨ
á¹³ k
ite it
Ġà¤ļ à¤¡
éĢ Ģ
Ġáĭ¨ áĪĺ
Õ«Õ ¬
ĠÎµ Î¯
Ġbh liain
Ó¥ Ð·
à½ĺà½ģ à½ł
è¶ ħ
é» ŀ
elij ke
ĠRec ords
ĠHit ler
Ġinweuners antal
I A
h und
l ung
m int
p ot
Ġt iy
Ġt ho
Ġt ard
el or
et as
Ġc Ã²
Ġg min
ad rat
ol g
ĠA nyi
Ġin di
ĠB C
Ã¡ Å¡
ia j
ĠÑģ Ð°Ñħ
ĠÐ± Ð°Ð·
ĠâĢ ¹
ĠH els
Ã¨ d
Å¡ ka
ja i
Ùģ Ø§Ø¯Ùĩ
ĠÐļ Ð°Ð¼
æľ ¨
tu ak
Ġà¤Ĺ à¤¤
ĠÑį ÐºÑģ
ĠÑĦ ÐµÐ²
Ġki u
Ø· ÙĨ
ĠáĥĽ áĥĿáĥľ
Õ¥Õ ¯
ÑĥÐº ÑĮ
ĠÒ¯ Ðµ
Ġac ting
Ø§ÙĬ ÙĪ
ĠÑģÑĤ Ð°ÑĢ
áĭį áĬķ
ement s
å¼ ·
Ġkat ol
áĥĿáĥļ áĥĿ
ÑĥÐ²Ð° ÑļÐµ
éĤ Ĭ
åĶ Ĳ
åħ± åĴĮ
Ùł Ùł
ĠÓ©Ð· ÐµÐ½
ĠÐķÐ» Ð³Ð°
ĠÑĤÐ¸Ðº Ð»ÐµÐ¼
Ġureu Ã«ng
Ê¼aÅĤ kaah
Ã£d Ã´r
S ch
l iga
l oss
ì Ĥ
Ġ Ñĭ
Ġ ÏĮÏĦ
Ġs Å«
Ð¾ Ð¾ÑĢ
Ġp Ã¶
ÙĦ Ø§Ø±ÛĮ
ir od
Ġj al
ĠT est
ĠI X
Ã³ b
ab ad
ab ol
Ð¸Ð½ ÑģÐº
ÑĨ ÐµÐ½
Ð¶ Ñį
ĠØª Ø§Ø¬
á» Ł
ĠÐ³ Ð°Ð´
Ġà¤® à¤°
Ġto e
ÑĥÐ½ Ð¸Ð½
ann en
ĠÐ½Ð° ÑĥÐº
áŀĦ áŀı
ÓĢ Ð°
à¦® à¦¨
áŀĽ áŀĵ
à¤Ń à¤Ĺ
ĠÅ Ļ
à»ī âĢĭ
Åį tl
àª¯ àªµàª¸
Ġà²ķ à²¨
ĠÊ» ikai
Ġus e
Ġang er
Ø§ÙĬ Ø©
àº§ àº¡
Ġcun s
áŀĴ áŀĺ
Ġkal Ã£dÃ´r
ĠÐ±Ð°ÑĪ ÐºÐ°
áĥĲáĥķ áĥļ
ĠØ¯ÙĪØ± Ùĩ
Ð°Ð½Ð³Ð» Ð¸Ñģ
é¤ ĺ
æ¡ Ī
Ġamih anan
E l
a ux
o or
ç ¼
Ġ ãĢĬ
Ī ¬
er er
Ġt ac
Ġl en
àª Ŀ
il te
Ġo er
Ã© v
ĠM edi
ĠB ran
ĠD ag
ĠT onga
ĠL eb
ĠG ren
ĠR og
×ķ ×ķ×¢
ĠJ ur
áĭ ¶
àŃį âĢĮ
ow an
ec o
ez u
Ġ18 80
ĠÐ» Ð°Ð½Ð³
Ġà¤¤ à¤ª
Äĵ m
Ð°Ð± Ð°
à½ģ à½ĸ
Ġfor s
Ġav o
ĠÐµ Ò¥
ÛĮÙĦ Ùĩ
å° Ī
à¨² à¨®
éĢ ģ
itt Ãł
Ġnj ih
Ġpas ar
ÖĦ Õ«
Ð°Ð³ÑĬ Ð°
Ġnov ember
Ġcomp et
ÙĨÙĪ Ø§ÙĨ
ĠÆ ı
Ġê³ µ
o om
x on
Ġ ust
ĠÐ ©
Ġd uke
en ia
Ġa ustr
Ġt ama
Ġt Å¡a
Ġm bo
Ġk tÃ³
Ġl ub
Ġl Ã¤h
as ha
am us
Ġv Ã¶r
Ġg asan
ti en
Ø³ Ù¾
ĠC ho
à« Į
ent in
ĠÑĤ ÐµÐ¿
Ãª ye
ĠÐ² Ð°Ðº
ÑĭÐ½ ÑĨ
ĠÐ¼ ÑĥÑģ
Ġch am
Ġsa iyang
ÓĻ ÑĪ
Ġas yr
à¸²à¸ «
ÛĮÙĨ ÚĪ
Ġwa an
oc ia
ru Äį
oh n
emb o
Ġ7 3
ÄĽ l
Ã¸ n
Ġsh um
ĠFran ces
éĩ İ
æ° ¸
ĠGr ande
àªª àª°
ĠÐ³ÑĢ Ð°Ð¼
Ð°Ð»ÑĤ ÑĭÐ½
ĠmÃ¡ is
éŁ ĵ
ĠLin ux
) -
O N
k op
ë £
an sa
Ð¾ Ð¾Ð»
Ġa ach
Ġn ale
Ġb ile
as dz
Ġc all
Ġg it
Ġg ames
ĠM eh
Ð°Ð» Ð°ÑĢÑĭ
à¤² à¤²
ĠØ¨ Ø´
ut in
ĠÙĪ ÙĨ
ĠH all
ĠÚ© Ø§Ùħ
ÑĨ Ð¸Ð½
li Äį
na u
Ø§ÙĦ Ø§Øª
ÉĻ b
ĠØ¬ ÙĪÙĨ
àºĻ àºģ
à¦² à¦ª
ĠØ´ ÛģØ±
Ġ×Ķ ×Ķ
Ġsp ir
ĠÑĦ Ð°ÑĢ
Ġ8 1
Ġden ne
Ġ9 6
ire o
ĠAm Ã©r
è¨ ±
ĠHe in
ĠCar los
Ġfran s
æ´ Ľ
lich en
ĠÑĳ ÑĢÐ¾Ñģ
Ã¼Ã¼ d
åĶ ±
áĪª áĭ«
à½ĳà½Ģ à½ł
ĠØ¯ÙĨ ÛĮØ§
Ġgou f
Ġmagnit udo
ĠÐ¼ÓĻÒĵ Ð»Ò¯Ð¼
S T
Ġp ek
Ġn ational
Ġc ust
am os
am ed
Ġv uo
Ð³ ÐµÑĢ
Ùħ ÙĪÙĨ
ul os
ĠK el
ĠÐ± Ð»
ĠÐ¿ Ð¸Ð½Ð³
Ġse h
Ġar asÄ±nda
sk Ã©
ÅŁ an
áĭ Ļ
ac u
ĠÑĪ ÑĥÐ´
tu al
Õ¶ Õ¡Õ¯
Ò» Ðµ
Ġx u
Ãµ t
ĠÐĳ Ð°Ð¹
à´° à´Ļ
ÑĭÐ¼ Ñĭ
à¶¸ à¶±
ĠØŃ Øµ
áĥĲáĥľ áĥĴ
à½ı à½ĵ
Ã¤n n
à½ĺà½ļ à½ĺà½¦
Ġnum ro
çŃ ĸ
ident al
ĠÙĪØ± Ú©
Ġà§¨ à§¦
àº¼ àº·
ĠØ¨ÙĪØ¯ Ùĩ
èĩº çģ£
Ġvide o
ĠÙ¾Ø§Ú© Ø³ØªØ§ÙĨ
ÑĭÐºÑĤÑĭ Ð²
j ana
j ali
É ĳ
Ð ¦
Ġt wee
it on
Ġc ro
il ah
Ġde ux
Ġi ko
ĠC iv
Ñĸ ÑģÑĮ
ĠÙĪ Ú©
ĠÐ´ ÐµÐ¹
ĠÐ² Ð°Ð½
Ġda w
Å¡ Äį
ub o
ĠØ´ Ø®Øµ
tr on
ÄĹ jo
ny o
à¸Ń à¸Ķ
ĠÚĨ Ùī
à²ª à²¨
Ġden n
Ġgo i
Î¼ ÎŃÎ½
à¤°à¤¤ à¤ķ
Ġkon c
ĠØ¦Ûķ Ú¾
å¯ ¼
×ĸ ×¨
ĠHer z
ĠÐłÐ¾ÑģÑģ Ð¸Ð¹
ĠÐ±Ñĭ Ò»Ñĭ
ĠÑģÐ»Ñĥ Ð¶
ĠÐĲÐ»ÐµÐºÑģÐ°Ð½Ð´ ÑĢ
ĠPopul asaun
ĠÙ¾ÙĨÙĩÙĨØ¬ ÙĬ
d Ã³
ï ®
Ġà¤ ¢
Ġs ÅĤow
Ġa er
áŀ ±
Ġt aha
Ġl ine
Ġl inn
Ġl uc
Ġb ord
un as
Ð´ ÑĮ
Ð´ Ð¾ÑĢ
ĠS M
Ġr ata
ĠØ§ Ø¨ÙĪ
Ñı Ñĩ
ah on
ÃŃ p
ĠØ¯ Ùģ
Ñĩ Ð°Ð½
ĠÕ ª
à¤Ĺ à¤¡
áī ģ
Ú¯ ÛĮØ±
ĠÑĢ Ð¾
Ġma f
Ġka ini
Ġno a
si Ã©
ÙĨØ¯ ÚĻ
Ã» nt
àº° àºª
ost en
Ñĳ Ð±
ĠSt ad
Ġdu i
Ġà²ķ à²Ł
å° İ
Ġ×© ×ĳ
ÛķÙĨ Ûķ
ĠÃ¾ vÃŃ
ĠÚ©ÛĮ ØªØ§
ĠdÃ© part
ĠHa ute
Ġinc Ã¹
aliz a
à¹Ģ à¸Ļ
Ġà¬ľ à¬£
ÑįÐº ÓĢÑį
Ġbie x
Ġcontr ol
Un ivers
Ġsept ember
Ġlangu age
ĠAleks and
¢áīµáĭ®áĮµ áĭ«
P h
f Ã¼
k ul
z ir
Ġd va
Ð½ ÐµÑģÑĮ
in ni
Ġs ell
ĠÙ ī
ĠÃ ĳ
ĠÑ ļ
ĠP asa
Ñı ÑĪ
ĠT ag
ĠN orm
Ġun ter
ÙĤ ÙĪ
ĠJ ud
Ø§Ø ©
ĠU b
ĠÄ Ģ
ÅĤ Ê¼
ÙĪØ± Ø³
àºĻ àºĻ
Ã° ir
ij en
ĠØ± ÙĪÙħ
Ġam e
ĠÑĪ ÑĤ
ĠÐľ ÐµÐ´
ĠÐŁ ÐµÑĤÑĢ
ĠÐĳ Ð¾Ð»
emb e
ĠÙĥ ÙĦ
ĠÐµ Ðº
Ġdu e
àºŃ àºĶ
å° Ĩ
à¦Ĺ à¦°
Ġà¨¸ à¨ķ
ĠÐ¥ ÑĢÐ¸ÑģÑĤ
ĠÚª Ø¦ÙĬ
ĠØ¯ÛĮ Ø§Ø±
ĠÕ° Õ¡Õµ
à¨¬ à¨°
Ġê·¸ ëĬĶ
etti in
ĠÐºÐ°Ð» ÑĭÐº
Úı ÙĩÙĨ
ç¾İ åľĭ
elij k
O R
r Äģ
t Ã©
t ha
Ġm emp
el sk
àª ī
et Ãª
Ġo lu
Ġ( (
Ġe itt
áı ĩ
ĠP apa
Ã¤ it
ĠK Ã²
ĠK Ã¶n
and an
st adt
Ð°Ð³ Ð¾Ð³
Ġta o
Ø³Øª ÙĪ
ĠÙĤ ÙĪÙĦ
Ġdo on
Ġ6 1
ew wel
uv ern
Ġpe umeur
Ġmas ome
Ġ×ķ ×ķ×Ļ
Ġkar akter
ĠáĢ¡ áĢĸ
Ġà¬ķ à¬®
Ġnom in
ĠÃº l
æĸĩ åĮĸ
Ġfra e
æĶ¿ æ²»
æĬ ķ
ĠJac ob
Ġáĥ¬áĥĲáĥľ áĥĲáĥ¡
ĠDep art
²áį ±
u it
Ġ à½ī
Ġd Ã¤r
Ġd onn
à² ŀ
Ġt uk
Ġt yd
Ġn ation
ÙĪ ÙĪÙĨ
Ġh ip
Ġg ib
Ð¼ Ð¸ÑĤ
Ùħ Ù¾
ĠØ§ ÙĪÙĨÙĩ
ed ir
Ġy et
id Ã¡
Ø³ Ø¦
re p
Ġz g
Ġz vin
ĠE en
à½Ķ à½ĳ
ĠÞ ĳ
li er
Ġse ver
Å¡ o
ĠØ¦ ÛĮÙĨÚ¯
to h
Ð¸Ñı Ñģ
à¤Ł à¤®
Ãº g
åħ ļ
ÙĦÙī Ø´
ĠÙģ ÙĤ
Ġni et
ĠSt ud
áĥł áĥĺáĥ¡
Ġà¦Ĩ à¦¯
Ã¨n tah
att an
ĠÃ¼ z
åº §
éĻ ¤
ĠÄ° s
à¸³ à¸Ļ
Ú¯Ûķ Úµ
Ø§ÙĨØ¯ ÛĲ
ĠEng land
êµ °
áĥĶáĥłáĥ ¡
ĠCol umb
ĠáıĦ áİµ
ïºİ ïº
ĠÐ±Ð¾Ð»Ð³ Ð¾Ð½
c ing
n Ã½ch
p ang
t Ä±r
Ç §
Ġa ad
Ġt anto
Ñģ Ð°Ð¼Ð°
Ġm Ã¤r
es es
Ñĭ ÑĨÑĭ
Ġv Å¡
Ġv Ã´
Ġg esch
ti da
ĠC un
Ð· Ð°Ð²Ð°Ð¹
ĠK ri
Ġ19 01
ĠN Ã¡
ĠÙĪ Ø§Ø±ÙĬ
ĠÐ½ ÐµÐ¿
ĠÎ ¦
ĠV all
ĠJ ap
Ð°Ð´ Ð°Ð»
Ġpr en
à²¨ à²¡
ĠÛ ³Û
Ã´ m
ĠÐ· ÑĥÑĢ
Ð°Ð· Ð¸
Ø® ÛĮ
Ø§Ùħ ÙĬ
ĠÐ½Ð° ÑĥÑĩ
Ġli orish
à¤¡ à¤ķ
Ú¾ ÙĬ
àº²àº ļ
ĠÑĦ ÑĢÐ¾Ð½
Ð½Ð¾ ÑĹ
çĶ ·
Ġ14 0
Ġok tu
Ġà¦Ĩ à¦Ĺ
ä¸Ń å¤®
els en
Ġà®® à®ķ
Ġsv et
áĥĶáĥľ áĥ¡
ä¾ ĭ
ĠÐ±ÑĥÐ» ÑĭÐ¿
ĠÑįÐ» ÐµÐºÑĤ
ĠtÄĵ nei
èĬ ±
ĠnÃº mer
ĠÃİ n
Ġâĸº âĹĦ
Ġbolup dyr
Ġáİ¾áıįáı ĭ
ĠÐ¿ÑĢÐ¾ÑĦ ÐµÑģÑģ
ĠÑģÐ¾ÑģÑĤ Ð°Ð²
ĠØ®ÙĪØ±Ø´ÛĮ Ø¯
Ð¸ÑĪÑĤ Ó¹
ĠSanti ago
v it
y ane
Ġ áŀļ
Ġp up
Ġn ta
Ġb ell
or r
or ang
Ðº Ð°ÑĤÐ°
Ð² ÑįÑĢ
id da
ĠP av
Ñħ Ð¾Ð·
ĠÑģ ÐµÐ±
ĠÐ± Ð°ÑģÑĤ
Ã¨ Ã«
Ãª ra
ĠÑħ ÑĥÐ±
áŀĵ áŀĤ
ĠØ¦ ÛķØ±
Ġta u
Ġà¤µ à¤¹
Ä« st
Ñİ ÑĨÑĮ
äº ī
si en
áŀŁ áŀı
ĠIn f
àº²àº Ī
Ġak ti
áĢĶ áĢļ
Ġed he
ĠÐµ Ð³Ð¾
Ġman jadi
Ġà¤¶ à¤¤
ÑĥÐ¼ ÐµÐ½ÑĤ
Ġ×ľ ×¢
ĠRe al
à¸Ńà¸ĩ à¸Ħ
Ġà¶¯ à¶ļ
Ġáĥĺ áĥ§
èª ¿
Ġà´ħ à´¤
199 0
Ġfamil ie
ĠÏĥÏĦ Î·
ç«ĭ åľ¨
áĥĶáĥĹ áĥĺáĥ¡
Ð¸ÑĨÐ¸ Ð¿Ð°Ð»
ĠÐºÐ½Ð¸ Ð³Ð°
Å© ng
éİ ®
k um
áŀ Į
al ay
Ð¼ Ð°Ð¹
Ġr w
ti mo
ĠL ig
ÑĪ Ð¸Ð½
ay Ä±ÅŁ
ĠÙħ Ø¤
ĠÐ´ Ð°Ð½
ĠÐ´ Ð¸ÑĢ
Ã« sh
Ð¾Ð½ ÑĤÑĮ
ĠÐ² ÑĢ
ĠÐ² Ðº
ud ian
à²° à²¸
sa an
Å¾ y
ÐµÐ´ Ðµ
ĠÙĤ Ø§Ø¦
ĠÐ» ÑĭÐ´
à¤¡ à¤¯
ĠÐ¢ Ð°
any ch
any ol
ÛĨ ÙĨ
ÑĭÑĤ ÑĤÐ°Ð½
ĠEn t
ÐµÑħ Ð¸
à²ľ à²¨
Ġwo uld
ê³ Ħ
ØªÙĩ Ø§
æ´ ĭ
ĠÙ¿ ÙĬÙĪ
Ġtrad is
è¯ Ń
Ġkut oka
çį ²
å¢ ĥ
Ġpert ama
Ġmani f
ĠÙĤØ§Øª Ø§Ø±ÙĦÙīÙĤ
ĠJep un
ĠCole optera
B a
C D
l Ãł
n Äģ
s Ãª
Ġd Ãł
Ġd ere
Ð½ Ð¾Ð½
ÑĢ Ð°Ñģ
Ġt áº¡i
Ġp ia
Ġl itt
Ġc itÃ©
am ak
ĠM eks
ag ar
ĠT hai
ĠK y
ĠÑģ Ð¾Ð·
ab el
ab we
ĠÙħ Ø§Ùĩ
ÐµÐ½ ÑĩÐ°
ĠH ier
ĠÚ© Ø§Ø±ÛĮ
Ã¶ Ñģ
ĠØª Ø§Ø±ÙĬØ®
iy asÄ±
ip ada
ÑģÐº ÑıÐ¹
ep p
áĥĿáĥ ¢
Ġam ar
áıį áİª
áŀĦ áŀħ
Ġà¤² à¤ķ
à®Ł à®©
àºĩ àºª
Ġmen os
Ġca us
æŃ ¸
Ġáĥ¡ áĥ¢
cz Äħ
ÎµÎ¹ Î±
è³ ª
Úļ Øª
Ġà°ľ à°¨
Ġimport ant
ëŀ ĺ
ĠBor wa
áİ¬áı© áİ¶
4 00
f am
Ġd ana
Ġp ari
Ġn inu
it ions
ĠS int
ol ia
Ġw á»į
ti me
id agi
te p
ĠI ll
ĠÙĪ ÛĮÙĦ
Ġu za
Ã¼ p
ĠÐ¼ ÐµÑĪ
Ġà° ¯
ĠW eb
àºĻ à»ģ
Ð¸ÑĢ Ð°Ð½
Ġdel en
ĠØ® Ø§ÙĦ
Ġáİł áİ¦
×ł ×¡
ĠÙĬ ÙīÙĦÙī
Ġ7 1
ĠÐĵ Ð¾ÑĢ
ĠÑĨ Ð°ÑĢ
×Ļ×Ļ× ª
ĠÐ°Ð» Ð¸
Ø¶ Ø¹
ÑĤÑĮ ÑģÑı
àµ¼ à´®
ÈĽ a
ç¶ ²
ĠAc adem
Ġcy angwa
ĠnÃ¡ Ãł
ĠsÃº a
è¬ Ľ
ĠÃ¾Ç£ re
ĠÑįÐ½ Ñį
áıŁ áİ¶
Ġà§¨à§¦à§¦ à§¦
ØºÛĩ ÚĨÙī
ĠÙħØ±Ú© Ø²
ĠÐ¼ÓĻÒĵÐ»Ò¯Ð¼ ÓĻ
j ih
t el
u ve
Ðµ Ð´Ð°
Ġk ru
al at
Ġl op
at ri
ch os
Ġg las
ĠS cht
ĠA hm
ak se
ĠM Ã©
ĠM oz
Ø³ Ùĥ
ĠI a
ĠØ¯ Ø£
ĠÐ¿ ÐµÑĤ
od im
Ġà¬ §
ĠÚ© Øª
ĠÐ½ Ð°ÑĤ
Ġà° ¡
Ġpr akt
Ġà¤® à¤²
ĠÐ· ÑĥÑĥÐ½
Ġte xt
Ġne et
ĠÐ» Ð°
Ġso ft
ier d
Ġth ro
Ġth ere
åı ¦
æĸ ½
Ġà¨¸ à¨Ń
aw o
Ġol m
à¦· à¦£
Ġex t
à¤ı à¤°
ĠØ§ÙĦÙħ Øª
Ð»Ñı Ð½Ð´
Ġàªµ àª°
è¾ ¾
iyan ing
Ò¯Ð³ ÑįÐ¹
àºĽàº° à»ĢàºĹàºĶ
ĠoÊ» z
ç² ¾
ĠØ§ÙĦØ¯ ÙĬÙĨ
Ġdoc ument
fÃ¬ ce
ĠÐ¾ÐºÑĤ ÑıÐ±ÑĢ
ĠÐ¾ÐºÐµ Ð°Ð½
A b
z at
¢ ħ
ar at
Ñĥ Ð°ÑĤ
at ter
Ġf ul
ĠS ib
Ġw os
ĠA ma
Ġj ua
te i
ĠÐº ÑĥÐ½Ð´
Ã¤ p
ic um
ÑĪ ÑĭÐ¼
ĠÑģ Ð»Ð¾Ð²
à¤Ĥ .
Ġà¤ķ à¤Ī
Ġal m
Ġal do
Þ° :
×¢ ×¤
az ioni
ĠØ¦ Ø§Ø¯
à¸²à¸ Ń
Ġwa as
ell an
áģ Į
Ġà¦ķ à¦®
Ûİ Úĺ
Ã©n s
æĺ ¥
Ġge h
ĠÐºÑĬ Ñĥ
ĠÑİ Ðº
Ġza Äį
oll ow
Ġber b
ÙĪÛĮ Úº
Ûĭ Ø§ÙĦ
par ti
éĽ ĸ
ĠÐºÐ¾Ð½ ÑĨ
Ġpers ona
æĪĲ åĬŁ
fic ie
Ġà¤īà¤ª à¤¯
åĸ Ħ
ĠÑģÐ¿ Ð¾ÑĢÑĤ
ĠáĥĹ áĥĶ
ĠáĪĺ áĬķáĮįáĪ¥
ãģª ãģĦ
Ġbel ang
ĠÚ©Ø± ÙħØ§ÙĨ
Ġáģ Ĥ
ĠÐ±ÐµÐ» ÓĻÐ½
áī¶ áī½
ĠáīłáĬ ĭáĪĭ
Ò·Ð¸Ðº Ð¸ÑģÑĤÐ¾Ð½
. âĢĿ
d ek
y ak
Ġd ap
Ġs old
Ġb its
Ġ( '
Ð¼ ÐµÑĢ
Ð¼ Ð°ÑĪ
Ġy Ã»
ĠB is
ĠB ry
im edia
ĠÑģ Ð¾ÑĤ
and s
ĠÐ± Ð°Ðº
ĠÐ± Ð¸Ñĩ
ing oa
áĥĲáĥ Ŀ
áĪ ľ
Ġà° Ł
Ġse x
Ã¦ Ð²
ib at
Ġst art
ĠØ¬ Ø²
ÑģÐº Ð¸ÑĤÐµ
åħ ·
à²ķ à²²
ĠÙĤ ÛĩØ±
åı ĭ
ĠÚĨ ÙĨ
Ġab antu
áį Ĭ
áŀĻ áŀĸ
Ġ9 8
ĠØ¯Ø± Ø¨
Ñī Ðµ
ÑĥÑĤ ÑĮ
ire adh
ĠÓ© ÑĢ
à¾¡ à½º
ÙĦÛĮ Ø³ÛĮ
Ð½Ñĸ Ðº
ĠÄĳ i
ĠÄĳ áº¿n
ĠØ¨Ûķ Úµ
Ġà®¤ à®®
Ä±l g
æł ¹
ĠÚ¤ Ø§
èĭ ¥
ĠAz ÉĻrbaycan
ĠGre en
Ġkra j
ĠáĪµ áĪĪ
ĠÑģÐ¸ÑģÑĤ ÐµÐ¼Ð°
Ġáĭį áĪµáĮ¥
ĠÙĪØ±ÙĪ Ø³ØªÙĩ
Ġpruwins y
j or
y th
Ö Ĩ
è ĵ
Ġt end
Ġp olo
Ġk ag
Ġk erk
Ġb urg
Ġh ava
Ġg ina
ir os
Ġr ang
ĠA B
ĠA h
um na
ĠB iz
ĠB lo
ĠÐº ÐµÐ·
ĠG ov
le ch
ĠÚ© ÙĪÙħ
Ã« c
Ã« p
ĠÐ² Ð¸Ðº
Ã¦ to
áĥĶáĥ ĸ
av en
Ð°Ð³ Ð¾
ec to
ep e
Ãº il
ĠØ± ÙĨÚ¯
ĠØ¢ Ø¨Ø§Ø¯
àº° àºģ
isi ana
Ġ9 3
ĠLe e
áıĵ áıįáıĹ
ĠÃ¶ m
Ġ×© ×ŀ
×§ ×ĳ
à°¤ à°°
ä¸Ń å¿ĥ
ĠÙĦÛķ Ú¯ÛķÚµ
ĠØ¯ÛĮ Ú¯Ø±
ÈĽ ii
àº« àº§
åĢ Ļ
ĠAd am
ÎµÏģ Î±
ĠÎ´ Î¹
ĠÅĤ eh
ĠÐ¼Ð°ÑĢ ÑħÑĤÐ°
×ķ×ŀ ×¢×Ł
Ġdop o
ĠÙħØ® Ø§ÙĦÙģ
Ġmateri al
ops ida
ĠÃ½yl da
ĠÑĥÐ² ÑĤÑĭÑĢ
Ġíı ¬
ĠÑħÑĥÐ¶ Ð°Ð»ÑĭÒĵÑĭ
Ġcht Ã«r
d is
d am
g re
Ç İ
Ù ¡Ù
Ġ ers
Ġd iri
Ġm ember
Ġl us
Ã¡ st
Ġà´ ¹
Ð°Ð¼ Ð¾
to a
Õ¸ Öģ
Ġwa q
ba u
Ġq or
Øº Ø±Ø¨
ĠY u
ĠØ® Ø±
à½ģ à½Ĥ
Ð¸Ñģ Ð°
oo id
áĢŀ áĢĻ
åĲ ³
ĠÑĨ ÐµÑĢ
Ð°Ð¶ Ñĭ
ĠáĢ¡ áĢħ
Õ¸Õ ¿
ame e
ĠáĬł áĭŃ
ĠÐ±Ñĥ ÐµÐ½ÑĩÐ°
ĠEr n
æĭ ¿
Ġ189 9
Ġsz er
Ġrev ol
æĬ Ģ
Ġhistor ia
Ġviv is
áĥ®áĥķ áĥĲ
Ġvill age
Ġveri Ã°
Ġpeumeur Ã¨ntah
g Ê»
j est
er as
Ġs enti
ar ab
il ang
il adi
ur ut
ad al
Ġr ann
ak un
ĠB ibli
ra j
ĠØ¨ Ø³
Ã³ h
ĠØ¯ Ø§Ø³
Ġz ach
ĠÑĤ Ð¾Ð¿
áĢº áĢ¹
ĠÐ´ Ð¾ÑģÑĤ
ĠÐ¼ Ð°ÑģÑģ
li es
ĠØ³ ÛĮÙĨ
Ã¦ Ã°i
Ġsa x
á» ī
áī ¦
ob y
ĠÙ¾ ÙĨ
Ġ3 16
ac iones
Ûĩ Ø³
ni i
Ġpro pi
Ġcon se
ÑĥÐ» Ð¸
ĠÑĪ Ð°Ð¼
ÐµÐ´ ÑĮ
Ġ×Ķ ×¦
áŀĦ áŀĤ
åį Ĵ
ĠÚ¾ ÛĲ
Ïĩ Îµ
Ġkr ist
ÑįÑĤ ÑįÑĢ
Ġwar rt
Ġdit lh
port ugÃ©s
Ġsel v
Ġ188 9
Ġbah wa
ĠÕ¶ Õ¡
ĠÃį s
Ġáĥ¬áĥĲáĥľ áĥĲáĥ¨
Ġabo ut
ìĥ Ŀ
>> à¼į
Ġà»Ĥ àºĶàºį
Europ a
Ġenpres ak
ÑĨÑĤ Ð²Ð°
²áį± áį»áį
f il
j re
k ad
q in
y ta
é ī
Ġd á»ĭ
at Äĥ
Ġb ass
ÙĦ Ø§Ø´
ĠS ha
Ġr Ä«
om eter
Ġy ana
Ġj s
ĠK ont
ut ha
Ġà¤ķ à¤µ
ĠÐ¾ Ð½Ð¾Ð¹
×ķ× Ķ
ob ra
ip an
Ú¯ ÙĬ
à¤£ à¤®
ĠÐ¡ Ð²
ĠÐ¡ ÐµÐ¼
Ġko z
Ġáı ħ
oh l
Ġso us
ati f
Ġder iv
ele e
ĠÃ§ ok
Ġà²ħ à²¥à²µ
Ġca usa
áĥł áĥĲáĥ¤
Ġby g
ÐµÐ½ÑĤ ÑĮ
Ã¤Ã¤ d
ĠÛ±Û ¸Û
Î´ Î¿
Ġáİ¦ áıĥ
Ġà¤ħà¤¸ à¤¤
ä¾ ¯
Ġmes mo
ĠÎ´ Î¹Î±
form ation
Ġà»Ģàº ¡
ĠOs man
àº¶ à»ī
Ġàºģ àº²àºĻàº
ĠNgÄģ ti
Ê¼aÅĤkaah ÃŃ
g ne
v ad
ÑĢ ÐµÐ±
Ġs ij
Ð¸ Ð´Ð°
Ġm ade
Ġr il
ĠA le
à¤¤ à¤ª
ĠB lu
ĠD ate
Ð°Ð» Ð»Ð°ÑĢ
ĠÙħ ÙĦÙĬ
ĠÑĤ ÑĭÐ¼
ĠG MT
ot ik
Ġun tuak
ĠÚ© Ø³
Ġar b
ÉĻ m
Ð°Ð² ÑĤ
ĠÄ ª
ãĥ ´
Ð¸Ð¹ ÑĭÐ½
äº §
à´¤ à´¨
ĠÐ½Ð° ÑģÑĤ
ĠÚ¯ Ø§Øª
Ġ6 9
à´¯ àµ»
ä¹ ī
Ġap ro
Ø§Ø¨ ÙĤ
uc ion
×ĵ ×Ļ×ł
yl van
×§ ×ĺ
ĠPar l
Ġbar at
Ġpu ede
Ġà°ķ à°³
à¾¤ à½´
ĠÙģÙĬ ÙĦÙħ
Ġsing la
Ø§Ùģ ÙĤ
ĠPh il
Ġà¦ī à¦¦
Ġbah asa
çŁ £
Ġyo ur
Ð¿ÐµÑĢ Ð°ÑĤÑĥÑĢ
ĠÙĤÙīÙĦÙī Ù¾
ĠØªÙħ Ø§Ùħ
ĠÐ±ÑĭÐ´ Ð¼
ĠÉ£ ef
à¸²à¸Ħ à¸¡
ĠtÊ¼ Ã¡Ã¡
D P
w it
Ð ®
Õ °
Ĩ į
Ð½ Ð¸Ñı
ar ang
Ġt os
Ġl Ã©ng
as tern
et es
Ġh Ã¦
Ġv Ã¤l
Ûķ Ø¨
ĠP iet
ĠC op
ĠK ard
re j
ĠÑĤ Ð¾Ñħ
he it
ĠÐ½ Ñı
Ò¯ ÑĤÑĤ
ant ar
Ûĩ Øª
Ø® Ø´
Ø§Øª ÙĬ
à¶º à¶¸
ho on
Ġ×Ķ ×ĺ
×ł ×Ļ
Ġ7 4
Ġàº §
ÐºÐ° Ñŀ
áŀ» áŁĩ
Ġáĥĵ áĥĺáĥĵ
.. ..
è¡ Ľ
Ġein en
ÐºÑĬ Ñĥ
åĳ ¼
199 6
199 8
Ġdag at
ĠÐ® ÑĢ
Ð°ÑĢÐ´ ÑĭÐ½
ĠBel g
ÙħÛķ Ø¯
æĥ ³
ĠØ³Ø¨ Ø¨
Ġnar od
Ġamer ikan
ĠÐ´Ð¶ÑĭÐ» Ð½Ñĭ
ĠPed ro
ĠÐºÐº Ð¾Ð»Ð°
ĠÐ¢Ð¾ Ò·Ð¸ÐºÐ¸ÑģÑĤÐ¾Ð½
ĠKonkn ni
Ġd iss
Ø§ ÚĨ
Ġa ÅŁ
Ġk anyang
ÙĦ ÛĲ
Ġv lein
Ġg id
Ġg Ã«
Ġe ig
à· ĳ
Ġw ed
Ġy ng
Ã¡ aÊ¼
ĠK ern
ÃŃ na
ng u
ĠH ow
à½£ à½ĵ
ĠÕ Ĭ
ĠÕ İ
ug ur
ĠU ma
eng o
ĠØ¦ Ø§Øª
ÑĭÐ» ÒĵÐ°Ð½
Îµ Ïħ
Ġdel le
Ġso Ã±
ĠÑį Ð´
áĮ ¨
Ê¼ Ä¯
Ġ7 9
Ġà¤¯ à¤¤
Ġ×ĳ ×¡
ĠÃł n
Ġà¦® à¦§
Ñī Ð¸
ÏĮ Ïĥ
Ġà¨¸ à¨¨
áĥ¢ áĥĿáĥł
Ġnag ara
à¸Ī à¸ŀà¸£à¸°
ĠÐ°Ð² ÑĤÐ¾Ð½
Ġ×§ ×¨
ĠØ§Ùħ Ø§
Ġ×Ľ ×ľ
ĠCon f
Ġtek st
Ġpam ilya
ĠÐ±ÑĥÐ» Ð°
Ġperi odi
ĠRus ia
Ġìĺ ģ
è½ ī
åĥ ı
Ġstand ard
orsz Ã¡g
M L
M Äģ
z on
Ġd Ã¹
Ġd Ã¼n
Ġd omo
Ġs ola
Ð» ÐµÑĤ
Ġm iz
Ġb iyo
Ġr ostlin
Ġi wi
ĠM Ã¼n
ĠM undi
Ġy ol
ul us
Ã¤ da
ĠK embre
Ġch un
Ð¶ Ð¸
ĠØ¦ ÛķÙĨ
Ġes ap
ka ÅŃ
ĠÐļ Ð¸
ĠÑĪ Ñĭ
ÑĥÐ½ ÑĥÐ½
ĠÙĤ Ø³Ùħ
ens o
åı Ĥ
ff er
ĠÐĴ ÐµÑĢ
Ġ8 2
Ġ8 8
å® ®
Åį m
Ġpo zn
à®² à®®
ĠÐĶ Ð²
ĠØ² ÛĨØ±
ry k
Ġur ang
Ġà¥§à¥ «
É£ a
Ġáĥ¬ áĥļáĥĺáĥ¡
Ġmot s
omb ard
ãģª ãģ©
ĠMon te
ÑĭÐ¶ Ðµ
Ġàªı àªµ
ĠÑįÐ» Ð±
195 4
teri or
Ġà³ ¨
ĠáĥłáĥĿáĥĽ áĥĶáĥļ
Ġheb bt
Ġàª®àª¹ àª¤
ĠÑİÑħ ÑģÐ°
ĠÐ¾ÑĦ Ð¸ÑĨÐ¸
peh int
Ġáİ¤áıħ áıĮ
Ð°Ð½Ð³Ð»Ð¸Ñģ Ó£
O L
k ara
n ah
r ada
Ġs osi
Ġm ent
Ð´ Ã¦ÑĢ
Ġo Ã¾
Ð°Ð½ ÑĭÐ½
ĠM Ã¬ng
ul ta
ta it
ĠC orn
ic ana
eg y
ĠE c
ãģ ¡
Ġan ne
ĠÐ¼ Ð°Ð´
Ġà¥ ¯
à¤ľ à¤¯
Ġà¤Ĩ à¤®
res p
ĠCh ic
àºĶ àºª
å¹´ ä»£
Ġà§ ®
uc k
àºĻàº ¡
Î¼ ÏĢ
ï» ł
Ġang l
ÑįÐ³ ÑĬÑĥ
ÒĽ Ð°
áĪŃ áĪµ
Ġfa it
Ġà°ª à°°
ĠÅŁ ek
yu q
Ġtemp or
åĲĮ åŁĭ
à¬³ à¬°
éĺ ²
ĠáŁ ¡
Ġà¶» à¶¢
Ġfranc Ã©s
Ġpin ak
ĠMay doni
Ġanc je
Ġà¤¸à¤¬ à¤¸
çĿ Ģ
Ġáİ¦áıĻ áİ¯
Ġhist ori
Íĺ -
Ġgebro ek
A L
L o
g le
z ar
Ġ È
Ġ à½¤
en al
Ġn ut
or on
Ġo se
ĠS ong
Ð³ ÑĭÐ½
Ð³ Ð¾Ð»
Ġw ala
us et
áı ĸ
ÑĮ Ð´
Ã© iert
ĠM ach
ag li
Ġj alq
Ġz ah
ĠÙĪ Úı
Ã¶ Ð½Ñĭ
ĠÐ¼ ÐµÑģ
Ġse ch
ÙĤ Ø¨
Ġà® Ĭ
á» ħ
ÐµÐ» Ñı
àºĻ àºĶ
Ġà¤ľ à¤¹
ĠÐ¡ ÑĭÐºÑĤÑĭÐ²
Ġof ici
à¤¶ à¤¤
va j
Äĵ ja
à¤¬ à¤²
à¥ĩà¤Ĥ ,
sh ela
ĠAr d
×© ×ª
uc amatan
ÑĥÑģ Ð°
Ġob jek
à¦¦ à§°
à¦ª à¦¨
ĠÐ±Ð¾Ð» Ð¾Ñħ
ĠáĥĲáĥ ®
áİ´ áİ©
èĩ ´
ÈĻ ti
Ø¯ÛĮ Ø¯
åĭ ¢
Ġpres ident
ĠBar at
ning en
ĠkÃ¶ p
ĠÙĨØ¸ Ø§Ùħ
ĠTÃ¼rk men
ĠÐ´ÑĮ Ð¾Ð½
æ¿ Ł
Ġsiv dad
T P
d ÉĻn
h ang
m ol
v ie
Ù ¥
ç Ĵ
Ġd oma
à² ł
ar ah
Ðµ ÑĽ
ÑĤ Ð°Ð¼
Ġm robi
Ġb Ãª
Ġg all
Ġin da
ĠP ass
ĠT as
ĠT ib
Ġà¨ §
ĠØ¨ ÙĪØ±
ĠÐ¿ Ð°Ð¼
ĠÑĤ Ð²Ð¾ÑĢ
ĠH Ã¤
ĠF Ã¸
ĠÐ² Ð¸Ð»
ĠØ³ Ø·ØŃ
ant si
Ġar v
ĠØ¬ Ø¯
ari an
à¬° à¬¸
Ã§ Äķ
ĠØ´ ÛķÚ¾
me y
Ġë ¹Ħ
ard an
Ġx i
åı ĥ
à°² à°¯
Ġim b
land e
ä¹ĭ ä¸Ģ
áĢºáģ į
åĬ ĩ
à¹ģ à¸¥
ĠÐ°Ð² Ð³ÑĥÑģÑĤ
à¾© à½º
ĠBa ÅŁ
à¶´ à¶Ń
à½ĳà½ĺ à½¢
ÑĭÐ»Ð´ ÑĮ
ĠWa ikato
Ġdei ÅĤ
ĠAir port
áĥĺáĥ£áĥł áĥĺ
Ġê¹ Ģ
j il
l Ã¤r
í Ī¬
Ġ à½Ł
áĥ Ń
Ð½ ÑĹ
Ġn chi
Ñĥ ÑĭÑĢ
ch Ã»
it tu
à¨ ¯
Ġv os
Ġf od
Ð³ ÓĻ
ĠM eg
Ġdi o
Ð°Ð» Ð¾Ð³
re f
ĠÙĪ Ø§ØŃ
ĠR wanda
Ð¿ Ð°ÑĤ
Ġu pe
Ò¯ ÐºÑĤ
ĠO cc
á» ¹
Ġis am
à¤¹ à¤¤
ĠÑħ Ð¸Ð¼
ÉĻ y
Ġqu Ã¦
Ġì Ĥ
ĠÙĦ ÛĮÚ©
Ġta w
yn t
Ġpro iz
lar yny
ĠØ± Ú©
áŀĶ áŀī
Õ¶ Õ¸ÖĤÕ´
Ġáı Į
Ò» ÑĭÐ½
à¾Ĵ à¾²à½¼
Ñĺ ÐµÐºÑĤ
Ġáī ħ
Ġ9 2
Ð»Ð° Ð°Ñħ
àºĻàº Ħ
ire ach
Ġver Ã°ur
äºº åı£
Ø±ÙĪ Ø³
ĠáĢ¡ áĢľ
Ø§Ú ¤
ĠØ¦Ûķ ÙĦ
ĠÐĹ ÐµÐ¼
å¯ Ł
ĠØµ Ùģ
ĠØ¨ÙĪ ÙĦÙīØ¯Ûĩ
Ġtemp s
ĠáĮ ĭ
Ġsig n
mun isÃŃpiu
Ġâ ĨĴ
æĸ¯ å¤§
è¯ ´
ëł Ī
Ġà§§à§¯à§ ¯à§
ĠComp any
èİ «
Ġsake y
b org
k es
l eket
z za
an in
er ek
Ġp emb
al ada
Ñĥ ÑĶ
ch id
et ic
Ġv ast
Ġg iz
Ġg Äĥk
à½¦ à½¢
Ġw Ã¤d
ĠK ay
ĠH Ã¤n
Ġen o
st erd
ud uk
Ġda ar
á» £
ne e
ÉĻ nd
ĠÙĩ Ø§
ĠØ± Ø§Ùĩ
ens ion
Ġáı ¯
Ð°Ð± Ð°ÑĢ
à´° à´¨
à°² à°ķ
ĠÙĬ ÛķØ±
Ġà¤¯ à¤¸à¤ķ
Ø· Ø±
å° ļ
çĶ ¢
Ġ×ŀ ×¢×¨
àª¿ àªĤ
ÙĪØ¯ ÛĮ
ĠÐ°ÑĢ Ð°
Ġáĥĵ áĥ¦
Ġmat rim
ĠÚ¾ Ûİ
æ° £
æī ¿
Ġà²Ĩ à²ª
Ġàª¤ àª°
çķ °
áı¢ áıĴ
ÐºÑĬ ÑĭÐ¼
æĪĲ ä¸º
ÙĪØ³ Ø·
Ġ×¨ ×Ĳ
éĺ Ł
Ġìķ Ĭ
æ¨ Ļ
à¾¦ à¾±à½²
Ġkien u
ĠmÄĽ sto
Ġkant hi
ĠØ²Ùħ ÛĮÙĨ
ĠÒĽÒ± ÑĢ
ĠAlex and
ĠÐºÐ¸Ð· Ð¾Ð½Ñı
ĠQÄ±rÄ±m nÄ±Ã±
Sa int
ĠÕ¡Õ· ÕŃ
I T
l uk
m od
u Ã«
à² İ
Ġt ema
Ġb ibliote
Ġh uma
Ġg ek
Ġf yl
ad wa
ad ura
om bo
Ġw ani
Ð² ÐµÑģÑĤ
Ġj ud
ĠÐº Ó§
ĠK embra
ig it
ĠE le
Ø¨ Ø§Ø´
ĠÐ´ Ð°Ð»
Ã« nd
ĠV lad
ĠV III
ĠJ umi
à¤Ĺ à¤¯
ĠÑĥ Ð´Ð¶
ĠÑħ ÑĥÑĢ
Ø§ÙĦ ÙħÙĦ
ka a
ÛĲ Ø±Ùī
ung sa
io us
à¸Ļ à¸¡
ĠØ± Ø§ÙĬ
à²Ĺ à²¦
æľ º
19 80
áŀĶ áŀı
ĠÙģ ÛĮ
Ġli et
à¤¥ à¤ķ
ĠØ¢ Ø¯
Ð°ÑĪ Ð°
ate e
à´Ł à´ķ
Ã¸ l
åį ļ
Ø±ÙĬ ÙĤ
Å¯ ÅĤ
éģ £
Ø§ÙĬ ÙĬ
ĠÐ°Ð» Ð³Ð°Ð½
ĠÃ¾ ar
enti a
ĠÐĹ Ð°Ðº
ãģ¨ ãģĦ
à¤ł à¤®
åī ¯
áĭŃ áĪĿ
ç´ ļ
ĠAfr ik
íķľ ëĭ¤
àºĤ àº§àºĩ
Ġdar ipada
ĠÐºÑĥ Ò»Ð°Òķ
ĠGo ogle
Ġïº ĳ
ĠÙĬÛĲ Ø²Ùī
Ġáĥ¤ áĥĺáĥļ
ĠZe it
Ġnal azi
Ġà´ľ à´¨
áŁĬ áŀ¸
ÄĹju o
i asa
l aku
q at
w je
Ġs Ã¤
Ġs ki
Ġt az
Ġm ib
Ġm unt
Ġk ult
Ġk ako
ĠÙ º
el op
Ġv z
Ġg und
Ġw á»įn
áı £
ĠM ang
Ð°ÑĢ Ð³Ð°
ta f
ĠØ¨ Ø§ÙĨ
Ã³ ru
ab eth
ĠÙĪ Ø¹
ap y
ĠÐ² Ð°Ð¶
uk tur
ĠO x
Ú¯ Ø±ÛĮ
ĠÙĩ ÙĪÙĨ
ĠØ± Ú©Ú¾
Ġwa j
æľ Ľ
oc o
Ġper d
ĠÐ¿ÑĢ ÐµÑĤ
Ġat Ã©
ier o
Ã» l
àº° àºį
sch af
ÑĥÐ´ Ð¶
Ġpo ÅĤ
ä½ İ
ĠØ² ÛĮØ§Ø¯
ĠÐĵ Ð¾Ð»
Ġve u
ÑĥÐº ÑĥÐ¼
ĠEl s
Ġ11 0
Ġáİ¾ áİ¾áİ¢
Ġmi est
po ÅĤ
Ġmil dir
à¦ļ à¦²
ÙĦØ§Ø± ÙĨÙī
à¾¤ à¾±à½²
å¯ Į
èĪ ª
Ġà¬ħ à¬§
Ġvu onna
á»ĳ i
áī¸áĭį áĬķ
Ġà¨ķà¨° à¨¦
Ġ×Ĳ×ķ×Ļ× ¡
Ġà´ī à´ª
Ġcomm une
ĠFren ch
æĸ¯å¤§ æŀĹ
, .
m ond
o us
p Ã²
Ð» Ð¾ÑĤ
on in
Ġm ess
Ġn uc
Ġk ev
Ġk ost
al im
or no
ÙĪ Ùģ
Ġo ur
Ġh Ã¤d
ed era
Ġj un
Ġj ay
ĠB eg
ĠÐº ÑĭÐ´
ĠT ru
ay er
ĠØ¨ ØŃ
ÃŃ Ã°
ĠÑĤ Ó§
ï¼ į
Ġà¬ ¡
Ãª m
ĠÐ² ÑĭÐ¿
Ġda erah
ĠO f
Ó© Ó©Ð½
je Äį
Ġà¤® à¤¦
à²¤ à²®
ĠÙĦ ÙĪÚ©
Ø³Øª Ø§
Ġke ws
ĠØ¢ Ø°
å¤ ı
Ġre form
ĠÑį Ð´Ð¸
ĠÙĬ ÙĪÙĨ
å® ¹
Ġ9 00
ÑĥÐ³ Ð¾
Ġkon f
Ġà·ĥ à¶³
ĠÓ© Ð³
ÅĦ ski
ĠÄĳ á»ĭ
Ġbol an
×Ľ ×ĳ
ĠPro t
ĠØ§ÛĮÙĨ Ú¯
Ġmus ik
Ð»Ñĭ ÒĽ
Ġ189 3
Ġsy ahan
æİ Ī
Ø¢ Ø¨Ø§Ø¯
æĬ Ĺ
ĠMed iter
Ġdepart amento
áĭĭ áĪį
Ġêµ Ń
Ġë¬ ´
ĠØ¯ÛĨ ÙĦÛķØª
v ia
Ġ ÏīÏĤ
Ġs ede
Ġs Ãłng
Ġn ova
Ġl ungsod
Ġb esti
Ġb oro
el eri
Ġde velop
Ġg Ã©
Ġe erst
Ùħ Ø³
ik os
ĠB ut
ĠB ot
ra Å¾
ĠK ant
ĠK ara
ÑĪ ÑĪÄķ
à« ¦
ĠN ÄĽ
ÐµÐ½ ÐµÑĨ
Ġu ye
Ġà¤ķ à¤ĩà¤²
Ġch em
áĥĺáĥ ĳ
ĠJ ose
áŀĵ áŀĸ
eb re
ĠÑĢ ÐµÐ²
Ð°Ðº Ð¾
à¦¯ à¦ķ
Ð°Ð· ÑĭÐ½
à®ķ à®µ
ÄĹ m
à¨° à¨¦
Â» -
ĠÐ» Ñĥ
ho z
Ġë Ķ
Ð¸Ð¼ Ã¦
Ð¸Ð¼ Ð¸ÑĢ
áĥĲáĥľ áĥĲ
ĠØ² ÛĮØ±
ler inde
Ð¾Ð· Ð°
Ġben o
ëĭ ¹
Ð½Ñĸ Ð¹
áıĻ áİ²
Ġtemp u
ĠÙĩÙħ ÚĨ
Ġnd á»ĭ
Ã¾ e
åĽ½ å®¶
Ġáĥ¨ áĥĶ
ÅĤo Å¼
Ġnum ber
Ġbik Ã¡aÊ¼
Ð°Ð·Ð° ÒĽ
ĠÓ¹ Ð»ÐµÐ½
Ġinterpr et
ÄĹÅ¡k Äģ
b us
d ro
g ov
v Ã¡
Å ŀ
Ġp Ã¢
Ġp int
Ġm po
at tu
Ð´ ÑĥÐ½
à¨ Ĭ
Ġo edd
Ġh es
Ġg ame
Ġe be
Ġf Ã¢t
ĠØ§ ÛĬ
à½ĳ à½Ķà½ł
ĠB ha
ĠÐº Ð¾Ðº
ĠC enter
Ð· Ð¸
ĠE esti
ĠÑĤ Ð°Ð»Ð°
Ġan al
Ġan os
ĠÐ´ ÑĥÑĢ
Ð¾Ð½ ÑĤ
Ġch Ãº
ĠÐ¸ ÑĪÑĤ
ĠV is
ĠW ak
Ã¦ m
Ġng e
à²¨ à²¦
Ð¸Ðº Ñģ
ez ia
Ð¸ÑĤ Ð¾
Ġer k
à®ķ à®¤
ere i
Ïģ Î±ÏĦ
à°° à°®
ĠÚ¯ ÙĪØª
Ġag ama
áĥĲáĥľ áĥ£áĥł
Ġê ·
Ð°Ð½Ð´ ÑĭÐ»Ð°
Ġmas om
Ø¤ ÙĨÙĩ
à¤¼ à¥ĩ
ĠÛ±Û °
à¸· à¹ī
Ġmot or
ĠÕ´ Õ¡Õ½
ĠÐ¿ÐµÑĢ Ð²
áĬĲ áīł
Ġpopul asyon
Ġhi ja
ĠØ§ÙĦØ¹ Ø±Ø¨
Ġà²İ à²²
Ġkont ra
áĥĹ áĥĲáĥľ
ĠTur k
Ġà¶ĳ à¶º
Ã¢i u
Ġef ru
ĠÑĤÐµÑĢÑĢÐ¸ÑĤÐ¾ÑĢ Ð¸Ð½ÑĩÐ¸
Ġkien et
Ġìĭ ł
ĠÐ²ÑĭÐ» ÑĭÐ½
ĠÐ¼Ð¾Ð¶ Ðµ
ĠÕ©Õ¾Õ¡Õ¯Õ¡Õ¶ Õ«Õ¶
ĠMex ico
It alia
ĠØŃØ¶ Ø±Øª
untr y
j un
er va
Ø§ ÙĪÙĦ
Ġa de
Ġp ann
Ġm undu
Ġk ino
ch Ã¨
ÙĦ Ø©
ĠS pa
ĠM anu
Ùī ÙĥÙī
Ġj ug
te ur
Ã¤ q
ĠL Ã¶
ĠÑģ Ð°Ð½Ñĭ
Ñĸ Ñŀ
ing in
Ð± Ð·
ĠR re
ĠÐ¼ Ð¾ÑĢÑĤ
ĠÐ³ ÑįÐ¶Ñį
ĠÙĨ Ø³
ĠÙĨ Ø§Ú¾
se p
ari os
Ø² Ø§ÙĨ
Ġma ak
ma i
ĠÑĩ Ð»ÐµÐ½
art s
áĢĲ áĢĶ
Ġ7 7
pi el
Ġà²ħ à²¯
Ð¾Ð± Ð¾Ð´
ĠÏĢ Î±Ïģ
å± ŀ
áĥĲáĥļ áĥ£áĥłáĥĺ
ç« ł
Äĳ a
Ã¼l t
Ġmot o
ĠÄ« hu
Õ¡ÖĢÕ ±
Ò¡ Ð°Ð½
ä¸ī å¹´
ĠpÅĻ i
ĠSc ott
Ġperi odo
ĠØ§ØŃ ÙħØ¯
Ġlef atshe
ĠMest ree
b ed
e al
j Ã¤r
r un
Â ³
Ġs ce
on ek
Ġk ib
Ġk ati
Ġk imi
Ġl w
es inde
Ġb ap
Ġb int
Ġv ok
ĠS erv
Ġw ok
Ð°Ð½ Ð¾Ð²
ĠM az
Ġj av
Ã¤ ch
ĠC ur
Ã³ ny
ĠR ub
Ð°Ð´ Ð°Ð³
ĠÐ³ ÓĢ
iz ion
à¬¾ ,
Ø² Ø¨
à§° à¦®
äº ¡
Ġë ĺ
à¤§ à¤°
à¶» à¶¯
Ġre qu
ĠZ i
ĠÐ¶ Ð°ÑĢ
ĠAl s
lan adi
Ġà²® à²¹
å¾ Ĵ
ly m
Ñī ÐµÐ½
ĠÃ¶ l
Ġmat emat
Ġ×ľ ×ĳ
ÐµÑģÑĤ ÑĮ
ĠØ§ÙĦÙħ ØŃ
Ġí ĸ
Ġà´ª à´°
àµ¼ à´¨
áĥĲáĥłáĥ ¡
Ġà¶ħ à¶°
Ä¼ s
Ġ×Ļ ×Ķ
ÙīÙĬ ÛķØª
199 5
ãĢĭ ï¼Į
ĠpÅĻ ed
Ġà¹Ģà¸ ¡
ĠMin ister
à½Ĥà½ı à½ĵ
ĠCat alog
ĠÑĤÐµÐ¼ Ð¿ÐµÑĢÐ°ÑĤÑĥÑĢ
ĠÐĵÐµÑĢÐ¼Ð°Ð½ Ð¸Ñı
é§ ħ
Ġaldo ti
% );
: -
F C
w erk
Ġ ersch
an os
Ġd up
à¼ ¢à¼
Ġs ko
Ð¸ ÒĽ
Ġt we
Ġp asi
Ġp ust
Ġm use
Ġk are
Ġl em
ÙĨ ÛĮØ§
Ġe ch
ir ia
ir ah
ĠM ale
Ġy Ãª
ĠB in
ĠB est
ĠÐº ÑĥÑģ
Ã¡ pe
Ñı Ñħ
ĠT ime
ĠK eb
ĠÑģ ÑĥÐ¼
ĠI k
Ġz as
à¤¸ à¤¸
Ð¿ Ð¾ÑĢÑĤ
ri cht
Ã¨ v
ĠÐ´ ÑĢÐ°Ð¼
la in
Ġal tern
Å¡ ko
Ġpr est
Ġar aka
ĠÑĥ Ð´Ð¼ÑĥÑĢÑĤ
áŀĵ áŀı
ĠÐ· Ð½Ð°Ñĩ
Ð¸Ð» Óĵ
ĠØ´ Ú©
ĠÐ¡ Ð¾Ñİ
Ġke Ã§
Ġat mos
ĠÐ¶ ÑĭÐ»Ñĭ
Ġop era
Ġor g
lan an
ĠSt ar
Ġap art
àºŃ àºį
à¦¹ à§°
Ġà¤ı à¤¤
ĠÐ£ Ð´Ð¼ÑĥÑĢÑĤ
Ġtu u
ÑįÐ» ÑįÐ¹
ĠÄĳ áº§u
ĠÐ¾ÑĢ Ð½Ð°Ð»
Ġkas zÃ«b
Ġdet ermin
Ġprim era
à¬Ł à¬°
ĠBar cel
ĠÐ¿Ð¾ ÑįÑĤ
Ġkur d
ç¶ Ń
ĠLat gol
ativ o
Ġnt Ã´
ÑģÑĮÐº Ð¾Ð³Ð¾
Ġáŀ ¬
ĠÐ·Ð°Ðº Ð¾Ð½
ĠÐ¿ÑĢÐ¾ÑĤ Ð¸Ð²
à½ĺà½ĩ à½£
ĠØ±ÛĮØ§ Ø³Øª
Ð¸ÑĨÐ¸Ð¿Ð°Ð» Ð¸ÑĤÐµÑĤ
c os
m h
n Ãł
ç ĵ
Ð½ ÐµÐ¹
Ġs Ãµ
Ġs yd
Ø§ ÛĮÙĨ
Ġk uba
Ġl ung
at hi
Ġc ru
Ġe vo
ĠS us
Ã© ri
Ġà² Ĳ
Ġj ama
ĠP il
ta Ã±
Ã¤ hr
ĠL ip
ĠÐ± Ó©
ĠN ang
ut y
áĥĲáĥ ©
Ġà¤ķ à¤ª
ĠÐ½ ÐµÐ±
ĠJ akarta
áĬ ®
ÐµÑĤ ÑģÑı
ĠÙģ ÙĦ
Ġà¤¤ à¤¦
Ġáı «
Ð°Ð± Ñĭ
åı ³
Ġà¦¬ à¦Ľ
ĠÙĬ ÙĪÙĩ
Ġop en
ond issement
asa a
ish an
Ġob j
×¡ ×ĺ
ï» °
áĥł áĥĿ
à¬® à¬°
Ġby en
Ð°ÑĨ ÑĮ
è¿ Ĳ
lÄ± k
ĠáĬł áĬķ
ĠØ¨ÙĪ ÙĬ
Ġà®ĩ à®µà®°
yp dyr
Ġà®ħ à®±
Ġ189 6
Ð½Ñĥ ÑĥÐ´
ĠkÃ¶ n
ĠáĬ¨ áī°
ĠáĢľ áĢĢ
Úĳ Ø§
Ġë§ Ĳ
ĠÒ³ Ð°Ð²
ĠAw ard
àŃ¦ àŃ¦
ÑģÐºÑĸ Ñħ
Ġcara cter
ĠRepubl ika
Ġokt ober
ĠÑĤÄĥÑĢ ÑĪÑĪÄķ
ëĦ Ī
ĠØŃÙĬ Ø«
MÄģ ui
E ng
E FA
S o
u ur
x am
Ġ à½Ĥà½ŀà½ĵ
er iya
Ġs ite
Ñģ Ñĥ
Ġl al
is ma
Ñĭ ÑĦ
à¤¾ )
Ġc j
Ġc á¹³
Ġh Ã³
Ġh eld
Ġv á»ģ
Ġg ele
Ð³ Ó©Ð½
ĠØ§ Ø®Øª
Ġy im
id is
Ñı ÑĨ
ĠL ap
ra i
ĠØ¨ Ú©
Ñĸ Ð±
ĠØ¯ Ø¦
ĠÐ¿ ÐµÐ»
Ġna o
ĠR oss
Ð¸Ð½ Ð³Ðµ
li q
Ð¶ ÐµÐ½
ĠW ars
ĠÙĨ Ø§Úº
eb ab
ÓĻ Ð±
Ġ18 60
Ġje w
ĠÐĲ Ñħ
ke it
à¤¡ à¤°
Ġso i
à½ļ à½ĵ
ish ed
Ġmet e
ĠÐĿ Ð¾
ym y
ĠØ¦Ûķ ÙħÛķ
Ûĭ Ø§Øª
çĽ Ł
áĪĭ áĪį
Ġhav et
Ġà½ĸ à½Ļ
Ġland s
198 9
Ġà¥§à¥¯à¥ ¯à¥
inum am
Ã¶p inumam
Ġà¤Ĳ à¤¤
ĠÚªØ± Ú»
ĠØ¦ÛĪÚĨ ÛĪÙĨ
h ard
k os
l ÉĽ
y le
in us
Ð» Ð¸Ð³
Ġm ingi
Ñĥ ÑģÐº
Ġc og
Ġh l
Ġh igh
Ġf ull
us us
em is
im us
à¤ķ à¤ª
ĠÐ± Ð¾Ð½Ð´Ð¸
à¥Ģ )
ĠI eu
ãģ ¿
he in
ot land
qu ia
ĠÐ² Ð°ÑģÑĤ
à¦¿ :
iv is
Ã¦ Ã°
Ġar chit
sk Ã½
iz er
eng keun
ĠÑĢ ÐµÐ¶
to c
to u
ĠÐļ Ð°Ð²
ĠÐļ ÑĭÑĢÐ³ÑĭÐ·
à¤ľ à¤ª
ĠÙĩ ÙĨØ¯
Îµ Ïį
ann er
Ġon de
Ġà¤Ń à¤£
áĮ İ
à®Ł à®ª
ĠÑĦ ÑĢÐ°Ð½ÑĨ
Ġáī ¤
ĠLe Ã³n
Ġmen c
Ġmas h
Ġye ars
áı« áıįáıĵ
ĠØµ ÙĪØ¨
ĠØ¯Ø§ Ø´ØªÙĩ
ãģ§ ãģĤ
ä¾ Ľ
ç´ į
ĠáĥĶ áĥĻ
ĠÐºÐ¾ÑĢ ÑıÑģ
Ġtip u
Ġáĥ£áĥ Ļ
Ġprogr amm
Ġëĭ ¹
Ġtet Ã£
Ġshek arar
é¢ Ĩ
ĠyÄ±l Ä±nda
Ġmell om
ĠMich el
Ġfinn s
íĶ Ħ
ÄķÃ§ ÄķÐ½
ĠáıĲ áİ¢
g na
w yr
é Ĩ
Ġ à½ĵ
Ġ à½¨
Ġs yst
ar ing
on al
Ġp edi
Ġv oz
Ġde u
à¤° à¤ĸ
ĠS ev
ol ic
Ġr asi
Ġi x
ĠÚ Į
Ġj em
ĠP ru
ĠL am
ĠL ima
ãģ °
Ã¼ ne
ĠÐ¼ Ò¯Ð½
ĠÐ¼ Ð°ÑĢÑĤ
ĠÐ³ Ð»Ð°Ð²
ĠÑħ ÑĥÑĤ
ac y
à´ķ à´ª
ĠÐ» Ñĸ
Ġku f
Äĵ j
à¸ĩ à¸²à¸Ļ
ĠÐĴ Ð°Ð»
àª¤ àª°
ĠDe el
ass er
Ġáİ¤ áİµ
ÑįÐ¼ ÑĢÑį
ler de
Ġus o
Ġmi Ã¤
åĺ ī
Ġí Į
cz im
Ð¾Ð¶ Ð¾
éĽ ¢
201 6
Ġkw adrado
à¾· à½¼à¼ĭ
Ð½Ð¸Ðº Ð¾Ð²
ĠÐ±Ð°ÑĪ Ð»
Ġàª¬ àª¨
Ġë° ľ
Ġger man
Ġsti agh
à°· à°¨
è¼ ī
ĠÑģÐ°Ð¼ Ð¾
ĠvÃµ i
ĠÐ°Ð³ ÐµÐ½ÑĤ
ĠÑĪÑĥ Ð´Ð°Ð°ÑģÑĤ
ĠÅ¼ e
Ġáİ¢áİ¦ áİ¢
å¡ Ķ
ĠÑĤÓ¹ ÑĪÑĤÓ¹
ĠAlex ander
Ä±ld Ä±
ÑĪÐ°Ð» ÄĥÑħ
Ġener gi
ĠÑĢÐµÑģ ÑĥÑĢ
u en
Ġd ili
Ġs na
Ġs amb
on ak
at ut
Ġc ong
ol ar
ĠA q
Ġy al
Ġj alo
ang el
à¤ķ à¤¤
Ã¤ is
ĠÑģ ÑĭÐ»Ð´ÑĮ
ĠR em
à¤¸ à¤µ
ÐµÑĢ Ð±Ð°Ð¹
Õ¡ Öĥ
à²° à²¡
ĠÐ¾ ÑĨÑİ
áŀļ áŀĵ
ĠØ¦ ÙĪÙĤ
Ø¦ Øª
ÑĥÐ» Ð»
à¤£ à¤ķ
Ãº l
ĠÐ¡ Ð°
ĠÐ¿ÑĢ Ð¾Ð±
×ľ ×§
ĠØ¹ ÙħÙĦ
Ġor i
×ŀ ×ª
ÑĭÐº ÑĤ
åį İ
à´² à´¤
à¤ĩ à¤ľ
éģ Ĭ
ÒĽ ÑĤÑĭ
Ġvi ol
Ġà¶ħ à·Ģ
à²§ à²¨
199 1
åĵ ¥
ĠáĢŀ áĢĬ
Ġtek n
æĦ Ł
ĠÐ¼Ð°ÑĢ Ð¸Ð¹
Al pes
ä»£ è¡¨
Ġpob lans
ç¾İ åĽ½
ĠgÃ¶ z
Ġgrand es
Ġded ic
ĠÑģÑĤÐ°Ð½ Ð¾Ð²
ĠÑİÑħ Ð°ÑĤÑĮ
æ§ ĭ
ĠÐ´ÐµÑĢ ÐµÐ²
ØµÙĪ Øµ
n ner
Õ ¦
â ´
áĥ ©
ÑĢ ÐµÐ·
Ð» Ð¸Ð¹Ð½
Ñį Ñĩ
Ġw od
ĠA i
Ð°Ð½ Ðº
à½ĳ à½ĳ
id ing
um maa
ĠN ed
ĠN ot
ĠÙħ ÙĦÛĮ
ĠÑĤ Ñİ
ĠÙĪ Ø§Ú©
ĠG erm
Ø¨ ÛķØ±
Ġan v
qu a
Ð¸Ð½ Ñį
og r
Ġal k
ha il
ÑĭÐ» ÑĬ
Ġta wen
Ð¸Ðº Ð¾Ð²
Ġsu c
ĠØ´ Ú©ÙĦ
ĠØ¢ Ø³ØªÙĪÙĨ
ĠÐŁ Ð¾Ð´
Ġà¦¬ à¦²
àº° àºĹ
Ġed dyr
å® ŀ
ÑĥÐ³ Ð°ÑĢ
Ġà²ħ à²ķ
à¤ĩ à¤ķ
ĠÐºÑĬ ÑįÑĢ
Ò³ ÑĢ
ĠSch w
att le
ĠCar ol
à½ĸà½ħ à½ĳ
Ġà¬ħ à¬Ł
ĠÑıÐº ÑĤÐµ
ĠEd ward
Ø¦ÙĬ Ø³
ĠrÃ© fÃ©r
ĠÙ¾ÛĮ Ø¯Ø§
ĠÃ¼Ã§ Ã¼n
ÛĩØ±Ùī ÙĬ
ilos oph
8 00
A ng
T L
w id
í Ĥ
Ġ ireo
an ak
en ze
Ġs le
Ġs era
Ġm ogu
Ġb eberapa
il ing
Ġf ej
ir ik
Ùī Ùĥ
áŁ ¥
Ġy Ã©
ĠC lar
ĠL iga
ĠØ¨ Ø£
ut at
ĠÙĪ Úĵ
ĠH ak
Ġun g
ĠO ct
Ġis ÉĻ
ĠÙĨ Ø§Ø²
ĠÙ¾ Ø§Øª
ĠØ¦ ÙĪØª
Ġ18 48
Ġpro pos
Ġet i
à¸Ļ à¸§
à²Ĺ à²°
×ľ ×Ĺ
Øº ÛĩÙĦ
Ġth en
ĠÐĳ Ð°Ð»
ĠSt ra
à¹Ģà¸ ĭ
à´Ł à´Ļ
ĠØŃ Ø±
ĠÃ¡ da
Ġ16 0
Ġ×ŀ ×Ĺ
ĠÐ±Ð¾Ð» Ð³ÑĬÐ°Ð½Ð´Ñĭ
áĢľ áĢĢ
ÙĲ Ùĳ
à¨¼ à©ģ
åĬ ī
áĢ¡ áĢĽ
ĠØµ Ø§ØŃ
Ġrep rez
Ġsv il
ĠØ§Ø³Øª ÙģØ§Ø¯Ùĩ
ÙĦØ§ Ù¾
ĠAd minist
à»ĥ àºĬ
Ġ188 5
Ġà¨° à¨¹
æ¥ µ
ĠìĦ ľ
Ġà°Ĩ à°°
à½Ĥà½ĳ à½ĵ
ĠÕ« Õ¶
Ġaast al
Ġêµ °
Ġnyo Ã«
ĠÆĻ asar
ĠPak istan
Ġ×¨×ĳ ×Ļ
ÐµÐ³ÑĮ ÐµÑĢ
ĠLumb Ã´i
g Ã¡u
l le
n ess
o q
p ed
t Ã´
w ur
¶ Į
an Ä±n
en ces
Ðµ ÑĬ
at al
Ġv Ã¨
Ġe cc
ad cast
ĠS ac
ol iko
om or
ĠA ust
ang kan
ĠC av
ĠC ym
Ġu y
Ġáİ ¥
li u
uk h
ha us
Ð°Ð´ Ð¾ÑĢ
ĠØ¬ Ø§Ø¨
ong er
Ã§ ones
à¸²à¸ ĺ
Ġwa or
ä¹ ħ
Ġmo Å¾e
ĠÃ§ ek
àºĻàº «
Ġsh Ä±g
Ġà²¬ à²¤
áĢ» áĢ±áĢ¬áĢº
Ġà·Ģ à¶»
Ġà¤ļ à¤¨
ÄŁ lu
Ġà²ħ à²ª
Ġmat ag
Ġà¦Ĩ à¦®
ĠPr em
ĠàªĨ àªª
Ø« Ø§Ø±
áĥĵ áĥĶ
ÐµÑĩ Ð¾ÑĢÐ°
Ġcum p
ĠÎµ Î¾
unn an
Ġwat er
Ġist or
Ġnd Ã«r
ĠÑģÐ² Ð¾Ñĺ
Ġsec ara
Ġ189 5
Ġà¨¬ à¨¹
Ġfamil io
illi i
èĩª å·±
Ð½ÑĭÐ¼ Ð¸
ĠWik imedia
ĠmÃ© ter
å¢ ŀ
Ġqil adi
iaÅĦ sczÃ©gÃ²
Ġëĺ Ĳ
6 00
o ul
p Ã¤i
ê ·
Ġ Ð°Ð³ÑĮ
Ġ íķ´
in Ã©
Ġs Ã¡
Ġs Ã¨ng
Ġt art
Ġt ongo
Ġp p
Ġp urt
Ġm ii
Ġn od
un en
et Ãł
Ġc Ãª
Ġo Å¾
Ġv ard
Ġf ara
Ð¼ ÐµÑĪ
Øª Ø¯
Ġr os
ĠÐº Ðµ
ĠK amp
Ñĸ ÑĨÑĮ
ĠN ep
ĠÙħ Ø¯Ø±
ĠÙĪ ÛķÚ©
ĠG eme
ĠâĢ ı
Ġen el
àµį ,
Ò¯ Ñĩ
ok uv
ĠV it
ĠJ r
ĠØª Ø§Ù¾
Ã¢ la
à¤ª à¤¸
ĠÙ¾ ÙĪÙĩ
Ġà¤ħ à¤¹
Ġet n
Ġà¤ľ à¤²
à¸Ļ à¸ģ
ĠØ´ Ø¨
à¤ľ à¤²
Ġam ma
ĠÐ» Ð¸Ð½
à¤¥ à¤¯
åľ į
áŀĻ áŀĽ
ÑģÑĮ ÐºÐ¾
ons o
Ġáİ¤ áıĤ
åŃ £
Ġci udad
ÑįÐ» ÑĬ
Ä§ Ä§
Úª Ø±
Ġdis ebut
áĢºáģ ı
ÐµÐ»ÑĮ Ñģ
ĠTe chn
à²¬ à²¹
Ġpod ruÄį
áİ¸ áı«áıįáıĵ
ĠÐŃ Ð½Ñį
å¥ ī
×ķ×Ļ× ĺ
×ķ×¨ ×Ķ
å¿ ł
èģ ²
Ð³ÐµÐ½ Ð´Ð¸
Ġword en
ÑıÐ¼ Ð¸
Ġáıĵ áıĤ
åŁİ å¸Ĥ
Ġmy Ã¶s
Ġkit ab
Î¹ÎºÎ® ÏĤ
Ġotr os
ĠÐ´ÐµÐº Ð°Ð±ÑĢ
ĠÑįÐ· Ð´Ð°
ĠBik Ã©yah
ĠØ¨Ø¹ Ø¶
ĠIndon Ã©sia
àªĺ àª°
Ġnch ini
ĠáıĹáİ¦áıĺ áİ¸
g iv
m br
s ek
w od
Ġà¤ ĭ
ar eng
Ġt ez
es che
Ġb agi
Ġh yd
Ġy em
ĠB eng
ĠÐº Ð°Ð¹
Ñħ Ð½ÐµÐ½ÑĮ
ĠL ux
ĠÑģ Ð¸Ð¼
Ñĸ Ñħ
ĠØ¯ Ø¹
ut us
ĠÙĪ Ûķ
he e
ĠH erm
ĠW an
áī ĭ
ob il
ĠU nder
ĠÄ ľ
Ġes paÃ±
Ġta im
ĠÐļ ÑĭÑĤ
Ġas h
Ã¬ e
Ġer an
Ġto Ê»
lar dÄ±n
Ġà¤¨ à¤µ
ÄĹ t
ĠÐ» Ð¸ÑĪ
Ø§Ø¯ Ø©
Ø§ÛĮ ÙĦ
eri al
áŀĻ áŀĬ
Ìģ ,
ĠÐĶ Ð·
Ø§Ø¦ Ùĩ
af e
ÐµÑģÑĤ Ñį
Ð¾ÑģÑĤ Ð¸
åĬ ©
áı« áı³
åľĭ å®¶
ÓĻÑĢ ÓĻÐº
à²· à²£
Ġfran Ã§a
Ġmus ul
Ġà¤ħà¤¸ à¤²
Õ¡ÖĢÕ £
Ġkol on
Ðŀ Ð»Ð°
Ġà¦ī à¦ļ
áº£ ng
Ġà¬ľ à¬¨
é» ĥ
æĵ Ĭ
Ġunivers it
ç® Ĺ
áŁı âĢĭ
Ġà¤²à¤Ĺ à¤Ńà¤Ĺ
èĺ ĩ
ë² ķ
ĠÐ²ÑĢÐµÐ¼ Ðµ
ĠLound res
ĠdeiÅĤ nÃŃ
7 00
S e
b ri
g Ã©
h um
l ÉĶ
m ot
n Ä±n
p uk
È ³
in Ã«
Ġs Ã¢
ar ren
Ġa iz
Ġn Ã¤r
al th
Ġl ata
Ġb lu
Ġb ato
ÛĮ ÙĪ
Ġc Ã©
à¨ Ŀ
ĠØ§ ÙĬÙĨ
ik en
ĠÑģ Ð°Ñı
ĠØ¨ Ø§Øº
Ġáĥ Ł
ent en
ĠÑĤ ÑįÐ¼
ĠÑĤ ÑĢÐ¸
Ð± Ð°Ñģ
ĠÐ½ ÐµÑĢ
ĠÐ½ ÐµÐ·
li v
Ġse e
Ġch Ã»ng
op t
ĠØª Ø´
Ġis lam
à¤¦ à¤®
ĠÑħ Ð¾Ð¹
Ġà¤ħ à¤«
ma ch
ĠÑĩ Ðµ
Ġat as
à®¤ à®¤
Ġáı £
ĠY un
ĠCh ile
Ġbe ing
×ŀ ×©
Ġà¦ķ à¦²
chi ed
ï» ²
ĠÐĽ Ñİ
Ġson o
Ġkap ital
oli ad
Ġáİłáı ķáİ¸
å» ¶
Ð°Ð³ÑĬ Ð°Ð½
Ð°Ð³ÑĬ ÑĭÑĢ
Ġdin asti
ĠØ§Ùħ ÙĨÛĮØª
ĠáĥĹ áĥĲáĥķ
Ġpun k
æİ Ĵ
Ġ188 4
è« ĭ
Ġê·¸ ìĿĺ
Ġà¹ģ à¸ķ
ĠìĹ °
ÐµÑģÑĮ Ðº
ĠÐ¿Ð°ÑĤ ÑĪÐ°Ð»ÄĥÑħ
ÙĨØ§Ùħ Ùĩ
ĠSim on
ĠÐ£ÐºÑĢÐ° ÑĹ
I S
U TC
t ta
y ay
Õ ¼
ÑĢ Ð°Ð³
Ġs la
Ġt Å«
on to
Ġc Ä«
Ġc ity
Ġc itÃł
Ġf ly
Ġw ek
Ð² Ð¾Ð»
ĠL eng
ĠK ep
ĠÐ± Ò¯Ñħ
ĠÑĤ ÑįÐ½
à¤µ à¤ļ
Ġal te
Ó© Ð²
je z
ne o
Ġpr am
Äį ne
ÑĦ Ñģ
Ġto ut
Ġon i
me er
Ġà¤Ń à¤µà¤¨
ĠÐŁ Ð°Ð²
era u
Ø§ÛĮ Ûķ
áģ Ĥ
áģ ģáģ
ÑĭÐ¼ Ðµ
à¸ĩ à¸Ħ
àºĩ àºĦ
ĠAr be
ĠÐĺ ÑĤÐ°Ð»
Ñī Ð°
ĠÐ¹ ÑĭÑħ
ĠÐºÑĬ Ð°Ð»
Ġdat t
Ġà¤ªà¤° à¤®
ese arch
Ġ: -
àªĹ àª£àªµ
ÒĻ Ð°
ĠÃ² d
Ġcan z
Õ½ Õ¯
Ġà¬° à¬¹
Ġwor rn
à»Ģ àºŃ
ĠAustr ia
ĠÐºÓ© Ð¿
Ú¤ Ø¦
ĠÑĤÒ¯ Ð·
ĠÑĤÐµÑĢÑĢÐ¸ÑĤÐ¾ÑĢ Ð¸Ð¿Ðµ
ĠbÃ© ÅĤ
àª¤àª® àªľ
, "
T O
V D
r ol
¨ à¼
è ľ
Ġk ari
Ġk Ã¶r
et Ã¼
Ġh alo
Ġg Ä«
Ġg Ã«n
Ġe Ã°a
Ñį ÑĦ
à¶ Ľ
ed al
te en
Ñı ÑĤÑĮ
ĠC ors
ic amente
ĠÑģ Ñĳ
ay d
Ã³ re
ĠN az
ĠN atur
ÃŃ an
ĠÐ¿ Ð°Ñŀ
ĠÑĤ Ð°ÑĤÐ°
ĠG ott
ĠÐ½ Ð¸Ð·
Ð¾Ð½ Ð¾Ð¼
ist es
uk as
iy i
Ð°Ð´ Ð°Ð¹
Ø¹ Ø¨
ong e
ĠÐ· Ð´
Ġon un
ĠÐľ Ð°Ð¹
Ïģ Ïī
×ľ ×ĺ
ĠØ¢ Ùģ
Ġtr at
Ã» s
ĠÑı ÑĪ
yr t
Ġbe h
ver y
Î¬ ÏĦ
Ġol lah
æŃ ·
à¾£ à½¼
Ġà®ķ à®²
Õ«Õ ¾
ĠÙģÙĬ ÙĩØ§
Ġ×ĸ ×Ļ×Ļ
áĥĲáĥł áĥĶ
áĪĪ áĪĿ
mas te
éĿ Ĵ
199 2
Úĳ Ú¾
Ġfranc Ãªs
ĠÐĲÐ½ Ð³
å°ĩ è»į
Ġrus Ã§a
Ġdepart em
P a
f ang
w ick
y ly
ł áı¯
Ġs ku
Ġt t
Ġt ana
Ġb erd
ch ar
it in
Ġc Ãł
Ġe zi
Ġf ah
ĠS at
ĠS or
Ġw erk
Ġin ne
ag ian
te ar
ĠP ow
ĠT ek
Ð°Ð» Ð°ÑĢÑĭÐ½
Ã³ ir
à¤Ĥ ,
ĠG un
à¥ĭ à¤ĥ
ĠÐ´ ÑĭÑĢ
Ġà¤ķ à¤¹à¤²
ĠF estival
ion n
Ġà° ı
ci jas
ĠW ir
ĠÕ ®
ĠÕ ±
Ġis p
Ġis tiq
ĠU nd
Ġqu ella
Ð¾Ð´ Ð¾
Ð¾Ð´ Ð¾Ð³
à¸²à¸ ¨
Ù¾ ÙĬ
ĠÑĩ ÑĭÐ³
19 70
ali h
áŀŁ áŀĦ
à´¯ à´ª
ÙĨØ¯ Ø§ÙĤ
áĮ »
ĠÃ© p
ĠÐ° ÑĥÐ´
àºĩ àºĹ
Ġ8 9
àªµ àª°
amb ar
àºģ àºĦ
yd er
lik u
à´ª à´¤
èĢ ĥ
ĠØ§ÛĮ Ø§ÙĦØª
å¸ ¶
á»¥ á»į
å¯ §
à¾· à½´
ç§ į
ĠÐ¿ÐµÑĢ ÐµÐ²
áĥ£ áĥĲáĥ¤
Ġpolit ica
ĠEurop ean
Ġtrad ic
ĠÐ¹ÑĭÐ»ÒĵÐ° Ò»Ñĭ
Ġabit Ãłn
Ġkeessa a
ĠSoci ety
ĠÑģÐµÐ½ÑĤ ÑıÐ±ÑĢ
I D
f us
k az
w ydd
Ġ à½ĳà½Ħ
Ġt ussen
Ġp ec
Ġm ane
Ġl alek
à¬ ħ
Ġc us
am et
Ġg ul
ĠÃ ļ
os itra
Ð² Ð¸Ð½
Ġi hr
Ġy ett
ĠD ob
ĠK ast
ĠÑģ Ð¾Ð½ÑĮ
Ã³ na
ĠÑĤ ÑĭÑĢ
ÑĬ ÐµÐºÑĤ
ĠÐ² Ð°ÑĢ
ĠØª Ùģ
Ð°Ð´ Ð°Ð½
iz im
ãĤ »
Ġà¤® à¤¤
ĠU TC
Ġ3 50
à´¨ à´®
Ġà¤¤ à¤¯
Ġáı ±
Ò» ÑĭÐ½ÑĭÒ£
Ð½Ð° Ðµ
ĠÑĦ ÑĥÐ½Ðº
Ó¹ Ð»
ĠÒ º
Ġà¸ Ĭ
ze j
Ġfr em
Ð°Ð½Ð´ Ð°ÑĢ
gi u
Å¼ a
Ġind ic
Ġà» Ģ
ØªÙī Ø´
Ø³Ùī Ø²
Ûĭ ÛĲ
Ã³r ia
åī µ
ĠØ§Ùħ Ø§Ùħ
199 7
å¿ Ĺ
áİ² áİ¢
Ã°i Ã°
ãĥ¼ãĥ «
à»Ĥ àº¥
Ð»Ñİ Ñĩ
Ð½Ð¾Ð¼ Ñĥ
íĸ Ī
ĠSov iet
ĠØ·Ø±Ùģ ÛĮÙĨØ¯ÙĨ
å¼Ģ å§ĭ
ĠÑĢÐµÐ´Ð°Ðº ÑĤÐ¾ÑĢ
Ġshum Ã«
Ġpruwinsy api
ĠKembre k
ĠáıĹáİ¦áıĺáİ¸ áıįáıĹ
q al
Æ Ļ
ê ±°
at om
Ġc la
Ġh ur
Ġv asta
ĠS á¹³
ul ah
ĠÐº ÑĥÐ¼
Ã³ zhÃŃ
ĠN ij
ĠÐ¿ ÐµÑĩ
ĠÐ´ ÑįÐ»Ñħ
ĠÐ¼ ÐµÐ»Ðµ
Ð¶ Ð¸Ð»
ĠV illa
ĠÐ³ ÐµÐ½ÐµÑĢ
ĠÑħ ÑĥÐ²
ug n
iz en
ÓĻ Ð¿
ĠÐ· ÑĮ
Ùģ ÙĪ
ev an
Äį nÃŃ
ÑĦ ÑĢ
à¶» à·Ģ
à¸ĩ à¸Ĺ
Ġed it
Äķ Ñģ
Ð¸Ð· Ð°ÑĨÐ¸Ñı
áĢ±áĢ¬ áĢ·
àºµ âĢĭ
à¦Ĺ à§°
Ġek ki
Ġtu ig
co urt
à¶½ à¶ļ
Ø§ÙĪ Ùĩ
Ġpre j
ĠØ§ÙĦÙħ Ø¹
Ð°ÑĢÐ° ÑĦ
cz y
Ġrep ublik
Äĳ er
ÙĨÚ Ĭ
ĠÐ±Ð¸Ð» Ðµ
Ġ188 6
Ã«t z
ĠKe ucamatan
ĠÎŃ Ïĩ
Ġesc rit
ĠÛ±Û¹Û ¹Û
ĠHol land
ĠsÃ¶ z
ĠMos k
agg io
Ġotr u
Ã¦ÑģÑĤ Ã¦
Ġzav atra
Ġzb og
ĠÑĦÐ°Ðº ÑĥÐ»ÑĮÑĤ
ĠSoomaal iya
ĠØ§ÙĦØ° ÙĬ
ĠdeiÅĤnÃŃ igo
E N
w ala
Ġs olu
ar Ãª
Ġt wa
Ġm ist
Ġn atao
Ġc en
Ġf ik
ĠA uf
Ġi Äģ
em os
Ø³ Ú©
ta va
Ġáĥ Ń
ĠÐ¿ Ð°Ð¿
od er
áĪ ´
Ð°ÑĤ Ð¾
ĠÐ´ Ð²Ð°
ud ar
Ð¾ÑĢ Ñħ
ĠÎ Ī
Ġch it
Ġch ur
Å¡ an
ÉĻ z
ĠØ´ ÙĪÙĬ
Ġti eg
ÏĢ ÏĦ
Ó¹ Ð²
Ð¸Ð· Ð¸
Ð½Ð¸ ÑĨÐ¸
emp ion
enn t
à´Ĥ .
à®¯ à®©
æĪ ¦
áŁĤ âĢĭ
Ġà¶´ à·ĥ
Ġà¹ Ģ
à°µ à°°
è¿ ª
ÈĽ ia
å¯ ¶
Ġkw am
å¥ ¹
ĠDa ug
åİ Ĩ
Ġ% ,
ĠáĥĿ áĥłáĥ
áĥĿáĥĳ áĥĺáĥ¡
Ú» ÙĬ
äºĮ å¹´
Ġdah Ã³lÇ«
Ġsed engkeun
æĵ ļ
ĠØ´Ø± Ú©Øª
Ó¹Ð¼ Ó¹
ĠÐ¸Ð½Ð´ ÐµÐºÑģ
Ġkond re
ĠdÃ©n ing
Ø§ÙĦÙħÙĦ ÙĦÛĮ
g ens
j á»į
l Ã²
r Ã¨
w Ã²
é ®
Ġs ÃŃn
ÑĤ Ðº
Ð» Äĥ
Ġt Ã¨r
Ġm ia
Ġm ondo
Ġn ella
at ia
Ġb ova
as ka
as si
it ional
ol y
Ð³ Ð¾Ð½
Ð² ÑĢÐ¸
Ã© st
ĠM ess
ĠB ig
ĠÐ± Ò¯Ð»
ĠÑĤ Ð°Ð¿
ĠG esch
ĠÐ½ Ð°Ð±
ud st
ÙĪÙĨ Ø§
Ġma ch
×Ĳ ×Ļ
ĠÐ¡ Ð¾Ð½
Ġke h
lar Ä±nÄ±n
Äĥ r
Ġcom mer
Ġë į
ell t
ĠØ¹ ÙĨÙĪØ§ÙĨ
oo y
ve y
ĠÃ¤ vver
ye e
Ġac u
×Ļ×Ļ× Ķ
Ġ×¤ ×¨×Ĳ
Ġber g
jen o
Ġà½ĳ à½ĸ
æī į
à¬¸ à¬¨
ĠØ¨ÙĪ ÙĪÛķ
Ġkh atir
ìľ Ħ
ĠRep ub
×Ļ×¨ ×ķ×ł×Ĵ
Ġbag Ã©an
iyan Ä±n
leri ÅĪ
Ġà¬ĵ à¬¡
Ġlok al
uke ut
Ġáİ§ áıģ
Ġ×ľ×Ĳ ×Ĺ×¨
Ġwen no
Ġà¶Ķ à·Ħ
Ø§Ø¤ ÙĨ
SE E
ahood zo
Ġáİ¢áı§áİ³ áİŃ
Ġpobla ciÃ³n
U s
j ena
m ien
n Ä«
t hai
áĥ ļáĥĺ
Ġp id
Ġn aman
as is
ch ester
Ð´ ÓĻ
Ġg ym
ĠS ed
ol es
Ġw anda
ĠA cc
Ã© si
ĠG il
ĠR ou
ĠF ac
ĠÞ ļ
Ġch Ãºng
og l
ĠW ien
Ġng Ãły
áĥĶáĥ ª
à¤¦ à¤¯
ĠÐ³ Ð¸
ĠÐ· Ð±
Ð¸Ð» Ð°Ð¹
Ø¬ Ùħ
Ð¸Ðº Ð¾
Ġka wa
Ù¾ ÙĪ
à¤ļ à¤°
19 60
Ä±n an
áĥ£áĥ ĳ
ĠÙĥ Ùĩ
Åį e
Ġà²® à²¸
ÑįÐ¼ ÑĭÐ½
be era
ĠUn n
Î¬ Ïģ
Ġvo i
Ġà¦Ĩ à¦¦
ĠFran Ã§
áĥķ áĥĺáĥĹ
Ġ×ķ ×ķ
ĠØ£ Ùĥ
ĠÅ¡ e
áŀ¢ áŀĵ
åĺ Ĺ
å¼ Ł
Õ«Õ ¹
ick Ã©
ĠØº ÙĬØ±
à¬Ĺ à¬°
Ġ189 7
ĠÐ°Ðº ÑĬ
ÑıÑĢ ÑĮ
Ġkum adwa
Ġtop a
Ġsak ing
ĠÐ¾Ñģ Ð¾Ð±
ĠFo und
Ġneb e
Ø³Ûķ ÛĭÙīÙĬ
ë¦ °
Ġsent ro
iÅ¾ ed
odh ya
ÏĥÎµÎ¹ ÏĤ
ĠÐ»Ð°ÑĤ Ð¸Ð½
ĠInde x
Ġtata u
ĠÐ³Ð¾Ñģ ÑĥÐ´Ð°ÑĢ
ĠÚ©Ø±ÙħØ§ÙĨ Ø´Ø§Ùĩ
A s
U S
r r
Å Ŀ
í İ
Ð½ Ð¸ÑĤ
Ġs f
Ġs ut
Ð» Ð°Ð¿
Ġn ay
is imal
et atik
Øª Ûĩ
ĠP yr
ĠN ach
ig od
Ð± ÑįÑĢ
Ú© Ûģ
ĠÎ ¡
ĠØª ÛĩØ±
Å¡ upa
ers ke
Ġpr ess
ĠÐ³ Ó¹ÑĨ
Ġst ran
áī ¤
ĠØ¬ Ø§ØªØ§
Ã§ Ãµes
Ð¸ÑĤ Ð°Ð¹
à¤· à¤¤
à²¯ à²¤
Ġcom er
ĠAl fred
ation es
eri es
ĠáĪ ķ
no Ã¹
Ø£ Ú©
Ġ12 5
Ã¡n u
ÑįÐ» ÑĤ
Ġge wa
æĹ ¢
ĠÑİ Ñĩ
ĠÙħÛĮ Ø§ÙĨ
ãģ« ãģª
áİ¬ áİ¢
å¯ º
onn ant
atur ik
Ġdist ribu
Ò¥ Ò¥
æµ ª
æĭ ľ
ÌĢ -
à»Ħ àºĹ
199 4
jon ijiet
Ġà¨ī à¨¨
Ġà¦ī à¦¤
Ð»ÑĬ ÑĥÐ½
Ġud aler
ÙĪÙĪ Ûķ
ìĻ ķ
Ġesp ec
æ¢ ħ
ãĤĪ ãģĨ
æŁ ¥
éŃ ı
Ġiw wer
Ġìĥ ģ
ĠØ¯ÙĪÙĦ Øª
Ġáĥłáĥ ĵ
ĠÐľÐ°Ðº ÐµÐ´Ð¾Ð½
Ġmamp iasa
ĠØ§ÙģØºØ§ÙĨ Ø³ØªØ§ÙĨ
b iy
k im
£ à¼
Ġa Ã±a
Ġt eke
Ġl ol
Ġo tt
Ġv yd
ol Ã³g
ĠÚ Ħ
um at
ĠB ib
ĠP asi
Ã¡ na
à¤ķ à¤®
ro gen
ig ne
ĠÙħ ÙĪÙĨ
ĠG ru
Ã¶ ld
la am
ĠÐ¼ Ð°Ðº
ĠÐ¼ Ð°ÐºÑģ
Ġse w
uk ar
Ð¾Ð² Ð¾Ð¹
Ð°Ñģ ÑĭÐ½Ð°
ob b
Ġqu est
Ġqu ale
Ð°Ð³ Ñĥ
Ġsu ti
ez z
Äį as
Ø® Ø§ÙĨÙĩ
Ġà¤¤ à¤¬
Ġq aba
Ð¾Ðº ÑĢÐ°ÑĤ
ze ch
isch t
ĠÑģÑĤ ÑĢÐ°Ð½
àŃŁ à¬ķ
áİ¬ áı«áı³
á»¥ c
áĥĺáĥľ áĥĴ
Ġà°¸ à°°
ĠÛ±Û ²
áĥĲáĥłáĥ ĵ
Î¹Îº Î¿Ïį
Ġà¥§à¥ Ń
àº« àº¥
Ġà®ĩ à®µ
Ġpan on
æ³ °
å½ ¼
ĠFr eder
åľ° åĮº
Ġà®ħ à®°
ĠRep Ãºblica
ÑĢÐ¾ ÑĦ
ĠáĥĶ áĥ¡
Úĳ ÛĮ
à¤ħ à¤¨
Ġáİª áı¢
ĠKal im
à¸Ľà¸£à¸° à¸Ĭ
Ġproc ess
ĠÐ·Ð°Ð¼ Ð°Ð½
à¤¸à¤Ń à¤ķ
ãģ¾ ãģŁ
ĠÐ±ÑĢ Ð¾Ñĺ
áı² áİ¯áİ
Ġbad ag
ĠÑįÐº Ð·
ĠáıĤáİ¦ áıĽ
Ġjs ou
¸ Į
æ ª
Ġ áĥĲáĥľ
er y
ÑĤ ÑĸÐº
Ġa ang
Ġp Äģr
is is
àº Ł
Ġh os
Ġh ub
Ġe ye
ÙĬ Ø³
Ġw eg
Ã© th
ĠM ok
ag og
ĠP ay
ĠD eb
Ñħ Ñģ
ĠL angu
ĠK it
ĠÑģ ÐµÑĤ
ĠØ¨ Ø¦
Ñĸ Ñİ
ĠØ¯ ÛĮÙĨ
ĠÐ¿ Ð¾ÑĢÑĤ
ÐµÐ½ Ñĭ
Ġan te
st ar
ĠF am
ĠÐ¼ Ð¾ÑĤ
×ķ× ļ
ĠÑħ ÑĬÑĥ
áĬ ©
ĠÑĢ ÐµÐ¿
ow oo
Ġà¤µ à¤¨
Ġcon ta
ĠØ´ Ûİ
Ã½ et
ĠÐ¿ÑĢ Ð¸Ð¼
Ġáİł áıĽ
Ø§ÛĮ Ø¯
Ġab sol
àº° àºŀ
Ġag ar
Ø£ Øª
×ŀ ×¨
à¹Ģà¸ ķ
uh t
ï» ¨
Ġod r
Ð¾Ð± ÑĢ
Ġ×© ×¤
ä»¥ åıĬ
áĢ¡ áĢķ
Ð°ÑĨ Ð°
à¶ľ à¶º
áĥĲáĥļ áĥĲáĥ¥
áĥĲáĥĽ áĥĺ
Ð°ÑģÑĮ Ðº
ĠJoh ns
Ġ189 4
Ġkol oni
×Ļ×¨ ×ĺ
ĠEst ado
Ð°Ð»ÑĤ Ð°Ð¹
Ġwur den
ÙĦÙīØ±Ùī ÙĨÙī
ĠAk adem
Ġess er
Ġkg ot
ĠBro wn
ĠFin land
Ġleb el
áĥ¦ áĥķ
SC O
ĠHul yo
Ġkews el
ĳ ×¢×¨
en ie
er no
Ð¸ Ð°Ð½
Ġa yr
Ġa ÅŃ
Ġp Ä«
Ñĭ Ð´Ñĭ
Ġb enn
Ġc ittÃł
Ġg ene
Ġf erm
à¤° à¤¥à¤®
ir us
ĠA bu
Ùī Ø¬
ik ani
ag ga
Ġy Ã¼
Ð°ÑĢ ÑĪ
Ð°ÑĢ ÑĥÑģ
ĠB ara
ĠÐº ÐµÐ¼
Ä± ne
ĠL an
ĠÐ± ÐµÐº
ay l
ĠÑĤ Ð°Ñħ
ĠH ir
st ro
je va
ĠÑĥ ÑģÐ¿
ĠÐ· Ð½
ĠÐ· Ð°Ð»
ep a
Ð¸Ñı Ð»ÑĬÑĥÐ»
Ð°Ð· Ðµ
ĠØ´ ÛķØ±
ĠÙĩ Ø¦ÙĬ
à¤· à¤°à¤¤
Ġsp el
Ġand er
ĠÒ ²
ĠÐĵ Ðµ
áŀħ áŀĵ
à¦ª à¦¤
pa ositra
ash in
àº¥ àº²àº§
Ġvar ia
Õ¸Õ ´
ĠÐ±Ð°Ð¹ Ò»Ð°Ð½
á»¥ rá»¥
Ġhan ya
ÙĬØ± Ø§ÙĨ
éĽ £
Ġ×ĸ ×Ķ
ĠÐ¿ÐµÑĢ Ð¸
ĠÐ¿ÐµÑĢ ÑĪ
áİª áıĽ
Ä¡ Ä¡
Ġ186 5
áĥĿáĥłáĥ ¢
Ġdre i
ĠÙĤÙīÙĦÙī Ø´
Ġáĥ¢ áĥĶáĥł
à§§à§ «
Ġfur m
Ê¼Äħ Äħ
Ġelektr on
ìłģ ìĿ¸
ĠÙ¼ ÙĪÙĦ
ì§ Ħ
ĠÏĢÏģ Ïİ
àª¯àª¤ àªĺàª°
Ġbras ter
ĠLiet uv
ĠSic ilia
ĠÐ¼Ð¾ÐºÑĪ ÐµÐ½ÑĮ
ĠÙħÙĨØ· ÙĤÙĩ
ĠBudd ha
Ġ(âĢ ŀ
áº± ng
% ).
C H
b ie
b ha
g Ã¡
k Ã¹
m il
v ÄĹ
en ya
Ġt hai
Ġt upu
Ġn ol
Ġl ad
Ġl yk
Ġh ien
Ġg ut
ur wa
ad ens
Ġj Å«
um ento
ĠP s
Ġdi par
à¦¾ -
Ã¤ tt
od or
Ġan yo
ÐµÑĢ Ð»
ĠÐ¸ Ð´Ðµ
ant as
Ġng ora
Ġsa z
á» Ń
Å¡ te
ĠØ¬ Ø§ÙĬ
ma in
Ġha f
à½Ģ à½ł
ĠÚ¯ Ø¦ÛĮ
Ïĥ Î±
ĠØ® Ûķ
ard u
Õ¸ÖĤ Öģ
×© ×Ķ
ĠÐĺ Ð¼
ĠÛĮ Ø§ÙĨ
áŀĩ áŀĵ
à´µ à´¯
Ġáİ¯áİ ¸
Ġjo ar
ici us
ĠInd i
Ġàª¸ àªµàª²
aran sa
Ġà¥§à¥ ¨
ĠOr gan
áŀ¶áŁĨ âĢĭ
Ò¡ Ð°
Ġ189 2
éļ »
ĠØ¦ÛĲ ÙĦØ§ÙĨ
ĠÐºÐ¾Ð´ Ð°
azz ioni
ĠÑħÑĥ ÑįÐ´
Ġindiv id
ĠàŃ§àŃ ¯àŃ
Ġbug naw
Ġ×Ļ×© ×¨×Ĳ×ľ
ĠFrant sa
ĠInstitu te
ĠÙĬÛķ Ø³ÛķÛĭÙīÙĬ
ĠáĥĿáĥ¨ áĥ¬
Ġàª¸àªµàª² àª¤
E S
R e
l ha
l ys
p el
Ġd ÅĤ
Ġd aha
Ġa wa
Ġm ans
Ġn Ã©n
Ġl ya
is la
un na
Ġv Ã©g
Ġf Ã¢
ol li
Ġw il
Ġw Ã¤r
ak er
Ġi er
Ġi on
Ġin ten
ti in
ĠÐº Ð°Ð±
ĠT anz
ĠC z
ic ia
ĠL imb
ĠK la
ĠÑģ Ã¦
àŃ Į
ĠN ova
ig na
ĠØ¯ Ø§Ùħ
Ġz nan
ĠÑĤ ÓĻ
ãģ ³
áĪ ĥ
ok ka
ist in
ĠØ³ ÛĨ
ĠØ³ ÙĬØ¯
ĠÐ³ ÑĢÐ°Ð½
ĠÐ³ Ð¸Ð¶
sk Ã©ho
ĠÙ¾ Ø§ÙĨÛĮ
ow ski
Ġ18 50
Ó§ Ð·
ĠÚ¯ ÙĪØ±
à¸Ń à¸Ńà¸ģ
ĠZ az
åľ ĸ
à®° à®¤
Ġwe h
ÑĥÐ³ Ð°Ð¹
áĢĽ áĢŀáĢĬ
ĠÐĶ ÐµÑĢ
ĠÐĶ Ð¾Ð½
ĠÃ§ heng
ÖĢÕ ¾
ĠÒ¯ Ð³
Ġund ir
Ġmed ic
ÑįÐ³ ÑĪ
àº§ àºĻ
ĠAm sterd
Ġkas al
Ġà®ª à®²
ĠÄį as
ĠØ¬ÙĪ Úĵ
ÑĭÐ¿ Ð°ÑĢ
Ġnj eg
ĠIl ay
áĥĶáĥľ áĥĺ
Ġtemp at
Ġfran ces
àªŁ àª²
ĠØº Ø±Ø¨
Ġcol or
Ġà´¤ à´¨
áĢĿ áĢĶ
åĽł çĤº
Ġcz as
ĠáĪ² áĪĨáĬķ
å»£ å·ŀ
Ġàª§ àª°
ĠáĥĽáĥĲ áĥĲáĥłáĥĹ
ĠØ¹Ø¯ Ø¯
ĠÐ°ÐºÑĤ Ð¸Ð²
ĠÐ¡ÑĭÐºÑĤÑĭÐ² ÐºÐ°ÑĢ
ĠÄ«hu Äģn
P ro
a ir
o ÅĤ
in tu
er et
Ġt ig
Ġn Ã½
Ġk und
at si
Ġb ene
à° ł
Ġo ct
Ġg eld
Ð¼ Ð°Ðº
Ġw ong
Ġw ich
us in
Ûķ Ø´
ĠD aniel
ĠC ina
ĠN ie
eg or
ĠÙĪ ÛĮØ±
Ġà¤ķ à¤ıà¤²
ĠF ort
ĠÐ² Ð¸Ñĩ
Äģ u
Ġà® ı
Ġng Ã¶n
áŀļ áŀľ
Ġes peci
Ú¯ ÙīÙĦÙī
ÅĤ od
Ġpar e
Ã½ pe
Ġ×Ķ ×ĵ
ĠÐŁ Ð¾Ñģ
ĠÐ° Ñĩ
ĠáĪ Ĭ
à¶Ń à¶º
à´Ł à´¨
ĠØŃ Ø¯ÙĪØ¯
à¸¡ à¸ŀ
å¾ ĭ
áĢ» áĢ¯
à®³ à®µ
à¨ķ à¨°
à¨ķ à¨¤
Ġmat h
ÐµÐ»ÑĮ Ð½Ñĸ
Ġà¨¨ à¨¹
ìĿ´ ëĿ¼
ĠØµ ÙĦ
ĠØ¨ÙĪ Ú¯
Ġpers oni
esch d
Ġdur ing
Ġrec ord
Ð¸Ð± Ð¸ÑĢ
Ġsec ond
Ġbet ween
æ¨ ¡
ĠìĹ Ĩ
à¸Ľà¸£à¸° à¹Ģà¸Ĺà¸¨
ĠÙĤÙīÙĦÙī ÙĨ
à¸ĵ à¸°
ĠBan jar
Ġrob ah
ĠEsp anya
ĠÐ´Ð¾Ðº ÑĤÐ¾ÑĢ
à»ĢàºĤ àºĶ
ĠÐ¿ÑĢÐ¾Ð¸Ð· Ð²Ð¾Ð´
ĠÚķÛĨ Úĺ
ĠBarcel ona
I M
j ir
k Ã©
n ad
o in
o ar
q e
Ú ¼
Ġ Õ¡Õ¾
en ye
à² ĩ
Ð» Ð¾Ð¶
áŀ ¥
Ġp Ã¡
Ġb ia
ÙĪ Ø§Ø¯
Ġg uru
Ùĩ Ùĩ
ĠA zi
ĠD alam
Ġz Ã¤n
áĪ ķ
à¤µ à¤³
Ġu um
ist Ã¤
ĠØ³ ÛĲ
ĠØ³ Ø§ÙĪ
ĠW r
ĠW all
Ġà¤ª à¤ŀ
ĠØ§ÙĦ ÙģØ±
ÑĥÑĢ Ðµ
ĠÙĦ ÙĥÙĨ
à¦¯ à¦¨
Ð´Ð° Ñħ
à´¤ à´®
Ġat Ã¡
áŀĺ áŀł
ĠØ¢ Ú¾ÙĬ
Ġhe a
Ġth ata
à´° à´¦
ĠØ§ÙĪ Ø¯
ĠÃ¡ t
Ġà²¸ à²¹
ÛĪ ÙĦ
Ġà¤ļ à¤°
ĠEl la
Ġà¦¹ à¦²
ĠÐºÑĬ ÑĭÑħ
à¬¬ à¬¸
ĠáĢ¡ áĢĲ
Ġann os
áĪµ áīµ
Ġpag k
Ġul y
Ã¶l le
Ð°Ð½ÑĮ Ð½Ñı
ĠáĮ Ĭáĭľ
Ò¡ Ð¾ÑĢÑĤ
èģ ·
ĠÐ¯ Ð¿Ð¾Ð½
Ġdig un
è£ ½
Ġoc up
Ġkara a
Ġmain it
ĠÎºÎ±ÏĦ Î¬
ĠØ³ÛĮØ§ Ø³ÛĮ
ĠìĻ ķ
Ġnhi á»ģu
H e
d Ãºn
f urt
j im
Ġp y
Ġp ala
Ġm oh
as hi
ur ne
ĠB ez
ĠD omin
ĠC ongo
ĠK Ã¶
ĠÙĪ Ø§Ø³
ĠÙĪ Úĥ
ÑĭÐ½ ÑĮ
ĠÐ¼ Ð°ÑģÑĤ
ĠÐ¸ ÑģÐº
ĠÙ¾ ÛķØ±
Ð¸Ð» Ð´
to ut
Ð¸Ñı Ð¸
Ġka odim
ĠÐ¡ Ð¡Ðł
Ġper and
Ð°Ñħ Ð°Ð´
Ġx Ã©
Ġáİł áİ¦áı
yr y
amb ana
Ġgo ÅŁ
inn er
inn ya
à®© à®¤
Ġà²® à²°
ĠÃ§ yk
ÑĭÑĤ Ã¦
ĠÃ¶ ld
Ġà¦Ĩ à¦ķ
æŃ ²
ĠPro v
ÙĬØ± Ø©
Ġà¨ľ à¨¨
éĸ ¢
ÑĥÐ² Ð°Ð»
Ġ188 7
àºĪ àº°
Ġsak umna
Ġbes ar
ĠLu is
Ġesta bl
ĠÐ¸Ð¹ ÑĭÑĪÑĤÐµ
Ġresp ons
ube ul
çį ¨
ĠáĥĲáĥłáĥ Ĺ
Ġìĸ ´
ĠÐ°Ð´Ð¼ Ð¸Ð½Ð¸ÑģÑĤÑĢÐ°ÑĤÐ¸Ð²
ĠØ¢Ø² Ø§Ø¯
Ġeis ini
Ġà³§à³ ¯à³
ĠboÊ»l gan
ĠKaw as
ĠÐ¿ÐµÐ´ Ð°Ð³Ð¾Ð³
ĠKard ydh
ãģ¨ãģĦ ãģĨ
l Ã³
p ur
r era
s hi
Ġd Ã²
Ġd ala
en om
Ġs ant
Ð¾ Ð¾Ð½
Ġt unn
Ñģ Ð»ÐµÐ´
Ġk la
or me
un ch
à¨ ł
Ġv Ã®
Ġf isk
Ġw odhya
ĠØ§ ÙĤØª
Ã© Ê¼
áŁ ¤
ĠB ie
ĠB art
ĠD j
ĠL ew
ra q
ĠØ¯ Ú©
Ġz om
Ġna c
Ñĩ Ð°Ð»
Ġen k
ĠÚ© ÙĦÙħ
de e
Ġse ason
Ð¶ Ð°Ð½
Äģ ka
ĠØª ÛķÙĦ
Ġst ore
eng er
Ð¸Ñı Ð´Ð¸Ð½
ĠÑĩ Ð°Ð»
Ġsi udad
Ġso ort
Ġà¦¬ à¦¹
Ïħ Î½
ĠLa w
Ġpo te
Ġden de
enn es
×ª ×ķ
ĠáĥĽ áĥ£áĥ
àªķ àªŃ
ÑĥÑģ Ñĥ
à¸Ĺ à¸ĺ
Ġmas sa
Ø§ÙĬ Ø¯Ûĩ
ĠÓ© Ð½
Ġex per
æŃ ¥
po Ã©
à·ĵ .
à©Ī ,
ĠÄį i
Î¹Îº ÎŃÏĤ
Ġpan jang
ĠÑįÑĢ Ñħ
Ġà®ħ à®²
199 3
æł ¸
à½ĺà½ģ à½¢
ĠÐ°Ð¼ ÐµÑĢÐ¸Ðº
à¶¶ à¶±
ĠÐĲÑĢ Ñħ
Ġcent re
áĥĺáĥĲáĥľ áĥĺ
Ġáĭĵ áĪĺ
áĥĲáĥĸ áĥĶ
ÑģÑĤÐ¸ÑĤ Ñĥ
ë¦ Ħ
Ġciv il
ÑĦÐµÑĢ ÐµÐ½
stant in
ĠÒ¯Ñĩ Ò¯Ð³ÑįÐ¹
ĠÎ¿ÏĢÎ¿ Î¯
ĠzÄ± wan
L in
l yn
p ut
z ig
ì ĨĮ
ÑĢ Ð¸Ð·
Ġs red
ar ag
Ð» Ð¾Ð³
Ġn ua
Ġn orth
Ġk Å«
at um
à¨ Ľ
Ġde ukeut
Ġg lav
Ġw ahn
Ġi ar
ik wa
ik ali
Ġy es
ĠP rez
ĠÐº ÐµÐ»ÑĮ
ĠT y
ĠT ot
ĠT iong
Ġàª ĩ
Ġz el
ĠE ss
ĠH ung
ĠÐ¼ Ð¸Ð½Ð¸ÑģÑĤ
ÙĤ ÙĤÙī
ĠJ on
Ġar ch
Î± Î³
ĠÙ¾ Ûķ
az zi
Ùģ Ø©
Ø¦ Ø³
Ã§ Ä±
Ã§ ilik
Ùĥ Ùħ
ĠÐļ Ð°ÑĤ
à¤¶ à¤®
à¥Ī à¤ĥ
ĠáĬ «
áĮ ĥ
à¸ĩ à¹Ģà¸Ľ
áŀĽ áŀĳ
Ð¾Ðº Ñĥ
à²ª à²¡
áŀĻ áŀħ
à²Ł à²ķ
ä½ Ľ
ĠÃ§ h
âĢĿ ãĢĤ
à»Ģàº Ħ
Ġmas u
Ġkon k
×¤ ×ľ
Ġok up
ĠÐ¥ ÑĬ
Ġà²¤ à²¨
Ġseg undo
áĪĺ áĪŃ
à½łà½Ĥ à½ł
Ġpat ri
yt et
è¦ ı
ä¾ ¿
Ġce ety
cy cl
á»Ļ i
ä¸ī åįģ
Ġ188 1
ĠGre at
Ġsor atra
Ġpay is
èªŀ è¨Ģ
ĠDur ante
ĠBh ÃŃ
egov ina
Ġjanu ari
èĦ ±
Ġkac atet
ĠÐ±Ð¾Ð»ÑĮ ÑĪ
Ġsoft ware
k ez
o an
y embre
Ġd l
Ð½ Ó§Ð¹
Ġn Ãł
al ui
at lar
as se
ch ak
am ag
Ġf us
Ð¼ Ð¾ÑĢ
ĠS n
ĠS os
Ġr oc
Ġj ier
à¤¯ à¤£
ĠC up
ĠL ot
ay on
ab al
ĠØ¯ Ø¤
eg s
ĠG ard
ĠÐ´ Ð¾Ð²
ĠF amil
ok k
à¦° à¦®
ĠV inc
ĠÐļ ÑĮ
Ø³Øª Ùī
ere a
ĠÐ» Ð°Ð¿
ĠÐŁ Ð¾Ñĩ
ÛĮØ± ÙĪ
Ġà¤ī à¤¸à¤ķ
Ġ9 4
ĠÃ¡ s
uc c
be eld
Ġva Ä¼
Ġve Äĩ
à®± à®©
ĠÐºÑĬ Ð¾
Ġpre f
go ta
Ġ×Ĵ ×Ŀ
Ġdir ect
Õ¿ Õ¶
Ġáİłáı ²
Ġsta v
Ġ190 2
Ġeg z
Ġà²Ĺ à²³
Ġbin on
ĠBel gi
à½Ĥà½ı à½ĺ
Ġà¥§à¥¯à¥ ®
ĠtÃ© Å¼
Ġregi Ã¹
ĠBud y
ĠØ¦Ø§Ø³ Ø§Ø³
Ġreh iyon
ĠÕ¡Õ¼ Õ¡Õ»
ĠÑĥÑĢÑĭÐ½ Ð»Ð°ÑĪ
ĠØ¯Ø±Ø¨ Ø§Ø±Ùĩ
G A
l ama
u es
y Ãªn
z ec
Ġd ÅŃ
Ð½ ÑĥÑĤ
ar lar
Ð» Ð¾Ð½
Ġk ell
es cht
at ang
Ġh Ãª
Ġh odi
Ġv ya
Ġw onten
ĠA ch
Ġi alah
ti fic
ĠÐº ÑįÐ¼
Ġdi en
ĠT iene
ĠC E
ĠK wa
ab er
ĠN ak
Ġz er
ut ur
ĠÑĤ ÑĢÐ°Ð½
le ik
qu in
Ã¶ ll
Ġch Ã¨ng
Ġch Ê¼osh
ĠØ³ Ùģ
ĠW ales
á» «
ĠØ§ÙĦ Ø³ÙĦ
Ð¾Ð² ÐºÐ°
Ġpr zy
ob u
âĢĭ áŁĶ
à¸² à¹Ĥ
ĠÑĢ Ð°Ð¼
×Ĳ ×Ķ
Ġ18 30
to j
Ð¸Ñı Ð´Ð°
Ġpar s
ĠÐ» Ð¾
à«Ģ àªĤ
Ġre ci
ĠÚĨ ÙĨØ¯
Ġdes imal
àªµ àªµ
Ġà¸ ļ
Ð»Ð° Ñĥ
Ġum ur
Ġkom and
åŃ Ł
áıĵ áıħ
éģ ·
Ġà¦Ĩ à¦°
ĠÏĥ Ïį
ĠÃ¼ st
ĠÐ¾ÑĢ ÑĪ
Õ«Õ »
Ġfin ale
Ġdem okrat
ĠØµ ÙĨ
Ġtan om
àª¦ àª°
ÖĦ Õ¸ÖĤÕ´
åľ° æĸ¹
Ø§ØŃ Øª
Ġ×¨ ×¢×Ĵ
Ġant es
ĠÐºÐ» Ð°Ñģ
ull it
asÄ± na
Ġbah sa
è¯ ¥
éĤ £
áĥĶáĥłáĥ Ĺ
Ġkul lan
Ġmand rit
NE SCO
ĠRuss ell
ĠBund es
Ð»Ð°Ð³ÑĮ Ð°Ð¹
ÄĻd Äħ
ĠMundi al
ĠChic ago
ĠÐ¹ÑĭÑħ ÑĭÑĪ
c j
h j
n ir
t ag
t á»¥
u at
v Ã¬
w ers
z Ã¡
¥ à¼
Ö ¿
ë ¹Ħ
Ġd yn
Ġs ida
Ġm int
Ġk ez
is si
Ñĥ ÑĦ
Ġb hi
ÛĮ Ø³
Ðº Ð°Ñħ
Ġg us
Ġg inn
ĠS tu
Ġr eng
Ġw edi
ed r
ul um
ĠB ou
ta o
Ã¡ il
Ñı Ð²Ð°
re u
ĠÐ¿ ÑĥÑĪ
ri as
ĠÐ´ Ð¾Ð³
ĠÚ© Ø£
Ð¾Ð½ Ð·Ð°
ĠÐ² Ð¾Ð±
Ġng aran
ĠÐ³ Ò¯ÑĢ
ĠÙ¾ Ø§Ø³
se ud
ara a
Ġel ley
Ã® l
Ã® va
ow any
ĠÐ¡ Ðº
à²Ĺ à²¤
ÙĪÙĦ ÙĪØ¨
ĠÑı Ð³Ð¾
ĠÐĴ Ð¸Ðº
Ġ8 7
Ġàº Ķ
ÙĬÙĨ ÙĪ
inn u
Ø§Ø¨ Ø§
Ġum m
å° Ħ
Ġve el
ĠÛĮ Ø§Ø²
à³ĩ à²Ĥ
âĢį à·ĬâĢį
ĠLe it
Ġ×ĵ ×¨
uf a
à¸ª à¸£
Ġreg ional
wo aie
ĠáĢ¡ áĢĳ
Ġwo ch
Ġbol Ä±p
æī ¹
ĠGr und
à¹ģ à¸ļà¸ļ
çķ ¥
Ã¤l t
×¢×ł ×ĵ
Ġmp ik
Ġnh áº¥t
Ġwur dt
ovi Äĩ
ĠÙħÛķ Ú¾
Ġsud ah
Ġë° ĺ
é¡ ¶
Ġngan j
ĠÃī ks
ĠìĦ ł
ÐµÐ½Ðµ Ò£
ĠdÃ¶ wlet
ĠÕ½ Õ¿
ĠÑĤÐ¾ÑĢ Ð³Ð°Ð½
ĠtÃ¡ va
ĠRepubl ica
Ġintern ational
Ġáı°áİµ áıĩ
Ġà»Ħ àºĶ
ĠÙħØ³ÙĦ ÙħØ§ÙĨ
ĠÐºÐ°ÑĦ ÐµÐ´
Ġ316 6
ĠbikÃ¡aÊ¼ gi
Ġobj Ã©k
d Åº
i Ã³n
z al
é ³
ê ¹
Ġ ira
in ak
ÑĢ ÄķÐ½
Ġa uk
Ġm ing
Ġk udu
Ġl ista
Ġc me
Ġh ac
Ġf Ã®n
ĠÃ Ĭ
Ġi Å¼
ĠÐº ÄķÃ§ÄķÐ½
ĠL iter
ĠK et
ĠK enn
ĠÑģ ÑĢ
ĠÑģ Ð°Ðº
ĠØ¨ ÛĮÙĦ
ĠI sa
ab as
Ġz ich
ĠÐ¿ Ð¾Ð½
ent emente
Ġan ci
ĠÐ¼ Ð¾Ð³
Ġà° «
ĠÐ¸ Ò»
ĠO ber
iz ina
à¨¾ à¥¤
Ġì ĨĮ
ĠÐ· ÑįÑħ
Ġte ir
Ä« bu
Ã½ mi
Ø® ÙĦ
ĠÐľ Ð¾ÑĢ
à²¯ à²®
à®¤ à®®
à¦¼ à§ĭ
à´¯ à´¨
à¤¬ à¤¤
Ġdes en
áĢ¼ áĢŃáĢ¯
ond u
ĠáĪ ³
ÐµÐ¹ ÑĤ
Ġak ar
ĠDe utsch
Ġom rÃ¥
áĢ» áĢŃ
áĥĶáĥĳ áĥ£áĥļ
Ġuna an
Ġkar ena
ĠÚª ÙĪ
ĠÚª Ùħ
ĠSe e
ĠÄį lan
Ġcum me
Ġmod erne
Ġwar en
å» ·
Ġà¨® à¨¹
omin in
Ġ×§ ×Ĳ×ŀ
Ġkab entuk
Ġgro up
ï¯ ¨
ÑįÑģ ÑįÐ½
ĠÐ¦ Ð¸Ð»Óĵ
áĥĲáĥ® áĥļ
ĠÐºÐ¾Ñĺ Ð¸
Ġ×Ĳ×ķ×Ļ× ¤
ĠØ° ÙĦÙĥ
à¬Ĩ à¬°
Ġorig inal
Ġëı Ħ
ĠlÄ« dz
ĠÐľÐ¸Ñħ Ð°
ĠIN SEE
ĠÙģØ¹ Ø§ÙĦ
C L
g ll
k reis
l om
n ici
r á»ĭ
v ant
v ert
ì Ī
at Ã«
it Ã¢t
am n
Ġf ast
Ð¼ Ð±
Ġá ¼
ĠA sh
ĠØ§ Ø·ÙĦ
Ġj oka
ĠÐº ÑĥÑĩ
ĠÑģ ÑıÑĢ
ĠØ¨ Ø·
ĠØ¨ Ø±ÛĮ
ĠI ta
ĠE du
à¤® à¤¹
ĠH amb
Ø´ Ú¯Ø§Ùĩ
de ck
Ã¦ Ð·
Ġng em
Ó© Ó©Ð»
ug ht
Ġì ´
Ġka Å¾
ĠÚ¯ ÙĪÙĨ
Ġad Ä±
àº²àº °
áŀı áŀĺ
ĠCh amp
ĠAl bum
ĠÙĬ ÙĪÙĦ
ko on
àª¯ àª®
ĠMar ch
×¤ ×ª
ash d
áĥ¡ áĥ¢
Ġza idi
æķ İ
ÐµÑĪ ÑĤ
ä¼ ¼
ĠRe ino
Ġdir ekt
ger ek
ĠáĥĻ áĥĲáĥļ
å¿ µ
ĠÏĥÏĦ Î±
à«ģàªĤ .
Ġmor te
àºµà»Ī âĢĭ
ĠÑĤÐ°ÑĢ Ð¸Ñħ
Ġà´ĩ à´¨
Ġty re
ĠÐºÐ¾Ð´ ÑĤÐ°
èī ¯
Ġchh á¹³
ÐµÑģÑĤÐ² Ð¾
Ê¼Äħ ÄħÊ¼
ĠHen ri
Ġged Ã©na
Ġprofes or
ĠÐºÐ° Ð¾
ĠÙħØ±Ø¯ Ùħ
á»ķ i
ĠMatt he
ç° ¡
Ã©ns ina
ĠÐ°Ð³ÑĮ Ð°Ð»
Ġdepartem antan
Ó¹Ð² ÓĵÐ»
Ġpanon poÃ©
ĠáĥĿáĥ¨áĥ¬ áĥĲáĥľáĥ£áĥł
] ;
b Ã©
f le
k is
Ù ¢
Þ ¤
Ġa ige
Ġp ik
Ġp ier
Ġm im
Ġm Ã¦
Ġm ust
ÙĨ Ø§ÙĨ
Ġg ang
Ġf isiana
Øª Ø§ÙĨ
Øª ÛĩØ±
Ġr ib
um ma
Ñħ ÑįÐ½
ĠK ro
ĠÑģ Ð°Ð±
ĠØ¨ ÚĨ
ÃŃ onn
ĠÙħ ÛĲ
ĠR ak
ĠR aj
Ñĩ ÑĭÐ½
Ð¿ Ð¸ÑĢ
Ġan tig
Ð°ÑĤ Ð´Ð¸Ð½
Ã¼ g
Ġch im
Ð¶ ÑĭÐ»
ĠØª ÛĮÙħ
ĠW ater
iv en
Ġis aa
ip end
ĠÙĦ ÙĦÙħ
nd re
à²ķ à²Ł
Ġ×Ĳ ×Ł
Ġq ol
ĠØ® Ø§Ø±
Ã¥ de
åľ ĺ
ĠÃ© l
ĠÙĬ Ø§Ø´
Ġag i
Ġbe ubeul
àªµ àª¤
ĠÙĥ Ûķ
Ġ17 0
Ġà¸ §
Ġà¸ Ĥ
Ġom maq
inn ing
ĠÃ¡ ll
ĠáĥĽ áĥĲáĥ¡
ĠáĥĽ áĥĿáĥ¡
ĠÃ§ ÑĭÑĢ
íķ ł
Ã©n tris
Ġ12 00
ĠÐ±Ð¾Ð» Ð·Ð°
ÅĦ i
Ġà¦ħ à¦¹
ĠáĢ¡ áĢĦ
Ġut ama
ÑıÐ½ ÑĭÐ½
Ġà½ĳ à½Ķ
ĠPro d
à¤¼ à¤¿
Ġnum er
ĠHo use
Ġwor ld
ĠÚ©Ø±Ø¯ ÙĨ
ĠÙħÙĤ Ø§ÙĦÙĩ
Ġllaq tam
èĤ ¯
Ġtamb i
ĠPres ident
ĠÃ¾e ir
ĠÑĤÐµÑħ Ð½
Ġíĺ ¸
ĠÑħÑįÑĢÑįÐ³ Ð»
ĠplanÃ©t isimal
Ġì¡° ìĦł
Ġmutlak na
ĠÐºÑĥÐ½Ð´ ÐµÐ¼
ĠrÃ©fÃ©r Ã©nsina
Ġmpik ambana
Ġnganj rek
ĠÃīks Ã©ntris
Ġbeubeul ahan
ĠÃīksÃ©ntris itas
f ilm
r and
u wa
y te
¤ à¼
é Ķ
Ġd Ã¸
Ġs á»±
Ġn ig
Ġk ya
Ġk atu
Ñĭ Ñĭ
at ag
Ġf ia
Ġf az
ĠÃ Ĺ
Ġr ele
ed de
Ġy Ã¡
ti h
id em
um bi
Ã¡ id
ĠT il
Ġà¨ Ľ
ĠL ove
ĠK omp
ĠK orea
ĠN FL
ah ari
ĠØ¯ ÙĬÙĪ
ĠØ¯ ÛĮØ§Úº
Ġz it
ud an
Ġch ampion
Õ¡Õ ©
ĠO ut
ne je
à¤Ĺ à¤¦
ĠÑħ ÑĭÐ¿Ð°ÑĢ
Ġqu y
Ġqu ai
Ã² a
av u
Ġas al
Ð¸ÑĢ Ðµ
me Äĳu
ØŃ Ø§Ø¯
Ġà¤Ń à¤ķ
ord an
ĠAl p
uh u
Ġdu ine
Ġ×ĳ ×ľ
erd er
à´Ĥ ,
à²® à²ķ
Ð°Ð½Ð´ Ð°Ð½
ÏĮ Î³
Ġ×ŀ ×¨
Ð¸Ñĩ ÐºÐ¸
ï» ´
Ġpe ople
áĥķ áĥļ
Ġ×¤ ×Ļ×¨
ÐµÑģÑĤ Ð°
éĢ ī
Ø³Ùī Ùħ
ÑĭÐ´ Ð¶
è¿ Ķ
aran jarah
ÑĭÑħ ÑĬ
àµ½ à´ķ
Ġfan isana
Ġáİ¤áı ª
Ġà¬® à¬¸
Ã©t Ã©
Ġce wa
ìľ ł
ĠÛĭ Ø§ÙĤ
ìŀ ¬
Õ¥Õ¬ Õ«
ĠÐ°Ð± ÑĥÑĢ
Ġmang e
è© ŀ
Ġ186 9
Ġáĥĳ áĥł
ãĥ¼ãĥ Ī
Ġáĥ£áĥ Ľ
ovan ni
×Ļ×Ĳ ×ł
Ġfamili i
àªĵ àª¨
aram pehint
ĠÐ±ÑĥÐ¾Ð» Ð°ÑĢ
pon in
ë¬ ´
Ġprobl em
å² Ľ
Ò« ÑĤ
dah aranjarah
dah arampehint
ĠÐ³ÑĢÑĥÐ¿Ð¿ ÑĭÑĪ
ĠRoy al
Ġáĥĺáĥ§ áĥĿ
Ġtieg Ä§u
ĠKalim antan
daharanjarah asin
daharampehint any
I L
T h
f all
s ar
v on
w ikk
± ´
Ġ áŀĹ
er ba
Ġn Ã£o
Ġk ih
Ġl ett
Ġl á»Ľ
at em
Ġb Ä±
Ġb uli
or eva
Ġf ayy
Ð³ ÑĥÐ½
Ġr aso
Ø¯ Ø§Ùħ
Ã© z
Ð°Ð½ Ñģ
Ġy urit
ĠÐº Ð¾Ð¸
ang ang
ĠD agiti
ÃŃ os
ut tu
Ġna ar
ÑģÑĤ Ñį
ĠÐ½ Ð°Ðº
à¦¿ ,
ĠÐ³ ÐĨ
ari us
ĠÄ Ŀ
ãĥ ĳ
ka ominin
ĠÐľ Ð°Ñģ
ĠÐ½Ð° ÑĨÐ¸Ð¾Ð½
ny e
Ð¾Ñģ Ð¾ÑĦ
ĠCh ap
áĥ£áĥ ¢
ä¹ İ
Ġtr en
ĠÃ© v
Ġbe e
ÐµÐ· Ðµ
Îº Î±Î½
åŃ «
áŀħ áŀĩ
ĠLe op
à½Ł à½ĸ
Ġà¨¸ à¨¥
àº¡ àº²
ĠØ£ ÙĬ
ĠÄĳ Ã³
Ð¸Ð¸ Ðµ
Ð¾Ñħ Ð¾Ð´
ÑĭÐ· Ñĭ
Ġà²ĩ à²°
ĠOr d
ĠØ¨Ûķ ÙĦ
åħ¶ ä»ĸ
Ġà®ħ à®Ł
ÅĨ s
.) :
çĪ Ń
áĥ¨ áĥĶ
Ġàª¶ àªķ
nÃ© ho
ĠÑĤÐ°Ðº ÑģÐ°Ð¼Ð°
áıįáıĵ áı²áİ¯áİ
ĠÐ¾Ð· ÑĭÐ½
ebr ero
ĠÑħÐ° Ð°Ð½
ì¡ °
èį ī
áıĺ áı´
Åįl li
çĩ Ł
ĠÐ¤ÐµÐ´ÐµÑĢ Ð°ÑĨÐ¸Ñı
ĠÐºÐ°Ð»ÐµÐ½Ð´ Ð°ÑĢ
ĠÏĮÏĦ Î¹
Ġáĥłáĥĵ áĥ·
Ġmandrit ry
Ġtambi Ã©n
a al
v ier
Ġ à½ł
ÑĢ Ð¸Ð¼
Ġt ie
Ġp Ã¤d
Ġm ih
Ġk une
Ġl Ã«
at ore
el um
un es
Ðº Ð°Ð³Ð°
ur is
ĠS iya
Ġr und
us Ãµ
ĠM ih
ĠM edia
ĠM PO
ik el
id ay
ĠP ab
ĠP le
ĠD Ã¤
Ä± lan
ĠC yn
Ð· Ð°Ð²Ð°
ĠK es
ĠK re
eg al
Ð± ÐµÐº
ot er
ot as
à¤µ à¤£
ov ys
op u
à¨¾ ,
áŀĵ áŀĺ
à¾² à½ºà¼ĭ
Ùģ Ø¸
Å¾ an
Ġcon oc
Ġya wan
Ð°Ð· Ð´Ð°
ĠÙĩ Ø°Ùĩ
Ġon ly
ĠÐ¿ÑĢ Ð¸Ð²
ĠÙģ ÙĦØ³
ini Å³
Ġku ul
ĠÐ¶ Ð°Ñģ
ĠÐ¶ Ò¯ÑĢ
Ġso ÅĪ
ĠAl ban
emb ar
ä» ¬
ä» ½
áĢŀ áĢĶ
Ð½Ð° Ñŀ
Ð¾Ðº ÑĤ
Ġ9 7
Ġbi ÅĤ
à¸¢ à¸¡
à»Ģàº ĸ
Ð¾Ð¿ Ð¾Ð»
à´µ à´¨
Ġex tr
oll en
Ġwo ort
ÈĽ Äĥ
Ġul ih
èĪ ¬
ãģĹ ãģ¦ãģĦãĤĭ
ÛĬ Ø±
Ġcons erv
ĠÐ¾Ð» Ð¾Ñħ
ĠOl imp
Ġ187 8
ĠVer lag
Ġê² °
ĠÐ±ÐµÐ» Ð°ÑĢÑĥ
Ġï» £
angg ap
Ġmuz ik
Ġchu id
Ġpartic ul
ÚĨÙīÙĦÙī ÙĤ
laÊ¼ ashd
ĠHein rich
jre ve
ebab kan
ĠFound ation
Ġdesimal y
b and
b ab
c Ã©
g ul
h ed
m t
n ego
s es
t is
Ġ à½ĸà½¦
Ġp oj
Ġk Ã«
ch ten
à¬ ĺ
Ġc Ã´ng
Ġh aka
Ġe j
ir di
os lov
Ġw enn
Ġin an
áİ ±
ĠG las
Ð± Ð¾
à¤® à¤ª
st wo
Ġch ir
Ã¦ ÑĤ
Ã¢ na
Ġis i
Ġpr Ã³
Î¿ Î¯
ĠÄ ĥ
ac in
ÐµÐ» Ð¾
ĠÐ¡ Ð°ÑĢÐ°Ð½
áŀĢ áŀĳ
all as
Ø§ÛĮ Ùĩ
ĠÙĬ ÛķÙĨÛķ
ĠÃ¤ k
Ø· Ø©
ĠáĥĽ áĥĵ
ÑĥÐº ÑĤÑĥÑĢ
oz of
Ð¸ÑģÑĤ Ð¸
Ġà²ħ à²§
Ġson de
áĥĽ áĥĿáĥ
Ø§Ú Ļ
ĠÐ¾ÑĢ Ð´ÐµÐ½
fer ence
åº ķ
à»ģ àº¥
mas uk
Ġaut om
ç½ ª
Ġstud io
Ġach ter
ÄĿ o
çº ª
ÑĭÐ³ÑĬ ÑĥÑį
ĠJac k
ÑįÑĢÐ³ Ñį
ĠØ¨Ø§Ø² Ø§Ø±
áĪ® áī½
arde erd
ĠÐ¼ÐµÑħ Ð°Ð½
Ġthro ugh
ĠÑĢÐµÑģÑĥÑĢ ÑģÑĤ
S i
c ji
f ort
l Ãłn
l Å¯n
p it
r ang
r ug
s em
t om
w ell
Û ³Û
Ġ 01
Ġd ri
Ø§ Ûĭ
Ġp ela
Ġm jen
Ġk ita
Ġl ike
et r
Ġh Åį
ĠS ist
ĠS imp
Ġr ub
Ùħ Ø§ÙĤ
em d
Ġy oki
Ġj Ãº
um er
ĠÐ± Ð¶
ĠØ¨ Ø§ÙĤ
ĠG us
Ġà¬ Ł
ÐµÑĢ Ð¼
ĠÐ² Ð¾Ð»
ĠÐ² ÑĥÐ¹
Ġà´ ¡
wa j
Ã¢ ne
ĠØ§ÙĦ Ø´Ø±
Ġst er
ĠÙĨ Ø§Ø±ÙĪ
ĠU N
ÛĮÙĨ Ø§
ich en
Ġno f
ann ar
Ġba ÄŁ
ĠÐ» Ð°Ð¼Ð°
à¤¥ à¤µ
à¤§ à¤ķ
ĠCh Ã»ng
Ġth aro
ĠÅ »
à½ķ à½£
×ĳ ×¢
Ìģ ;
Ġà¦¸ à¦¨
ĠMar ÃŃa
Ð¸Ð´ Ð·
Ġol un
à®µ à®Ł
Ġvi el
æĿ ĥ
è¿ ½
áıĴ áıĵáİµ
×Ľ ×Ķ
Ġáİ¤áı ²
Ġdet te
à²¶ à²¨
Ð°Ð²Ð° Ñŀ
Ġkor u
Ø¹Ø¯ Ø§Ø¯
Ġdec ember
Ġwal ay
Ġáĥľ áĥĿáĥ¦
ĠtÃŃ t
Ġgy da
Úĳ ÛĴ
è¶ Ļ
åı¯ èĥ½
Ġpost al
Ġlim ba
Ġref eri
åĿ ĩ
ĠÙĨÛģ Ø±
ĠÐ·Ð°Ð² Ð¾Ð´
ÃŃo cht
rid ge
uvv ennu
ĠìŀĲ ìĭł
ĠyÃ¬ ÃŃ
g at
g ot
é Ĵ
Ġd ÃŃ
Ġd apit
Ð» Ð°Ñħ
Ð» ÑĭÐ³Ñĭ
Ġt Ãªn
Ġt Ã¤h
Ġp las
Ġm ere
Ġm entre
al um
or wa
Ġc over
am ik
Ġh Ã¤t
Ġg Äĵ
ĠS anto
ol an
Ð³ Ð°Ð¹
Ġr isp
ĠØ§ Ø±Ø¯
ĠØ§ Ú¯Ø±
ĠM Äģ
ĠM ata
ed ic
Ñħ ÑĤ
ĠC ara
ĠL ak
Ñĸ Ð³
od es
ĠR on
ĠR Ä«
le iÃ°
Ú© ÛĴ
Ġda u
est re
ĠØ³ ÙĪÛĮ
ci pl
ug en
áĭ İ
ĠØ¦ ÙīÙĦ
ÅĤ ug
Ġta as
ni ÅĪ
ĠÐļ Ð»
ĠÙĩ Ø²Ø§Ø±
ĠÐ¿ÑĢ Ð¾Ð¼
à½¡ à½ĸ
Ġà¤Ń à¤µ
Ġme ist
Ġth á»ĥ
Ġmu os
ont ra
Ġ×ĳ ×Ļ×Ł
å¾ ģ
Ġpa u
ĠÐŀ Ð½
áŁģ âĢĭ
if i
ĠÐĽ Ð¸ÑĤ
Ġvi Å¡e
ĠáĢ¡ áĢĶ
àºļ àºļ
isti ca
ÛķÛĮ ÛķÚ©ÛĮ
ÑĭÐ· ÑĭÐ»
ÑįÑĤ ÑįÐ¹
áĥĲáĥłáĥ ¢
à»ģ àº«
Õ¡ÖĢ Õ«
ĠEs paÃ±a
ĠÕ´ Õ¡ÖĢÕ¤
Ġkl ass
Ġà´ħ à´¦
oth er
Ġ186 1
Ò¯Ð¹ Ð»
Ġpla ce
ĠØ¦ÛĨ Ø²Ùī
ĠÐ±ÑĭÐ» Ð¸
ĠÕ£ Õ¸ÖĢÕ®
å² ¸
ĠÑħÐ¾ Ð¾ÑĢ
ĠÕ©Õ¾Õ¡Õ¯Õ¡Õ¶ Õ«
ĠÐĺÐ²Ð°Ð½ Ð¾Ð²
ĠáıĻ áıĴáıĵáİµ
ocrat ic
ÅĤts o
ĠnÃºmer o
ĠabitÃłn cc
é® ®
f is
j Ã³r
l g
o ut
Ġ à½łà½ĸ
Ġ ÉĹ
in ye
ÑĢ Ð¾Ð±
on io
Ġn us
Ġl ot
Ġl lan
Ġb ri
et ha
Ðº Ð²
Ġo ik
Ġv and
Ġv ig
Ġv ij
Ġde w
ĠM erk
áŁ £
ul ang
ĠT in
ĠÐ± ÑįÐ¹
ĠØ¨ Ø²Ø±
ĠÑĤ ÑĭÑħ
ĠÙĪ Øº
ÐµÐ½ ÑĤÐ°
ĠF erdin
ĠÐ² ÑĭÑģ
Ð¾ÑĢ ÑĥÑģ
og on
Äģ v
Ð°Ñģ ÑĭÐ½ÑĭÒ£
ĠÐ³ Ð°
Ġqu em
ĠÑĢ ÑĥÐ·
ni Ã°
Ġma xim
Ã§ il
Ġ18 15
à¤ļ à¤ķ
ĠÙĩ ÙĦ
ÑĥÐ½ Ð°Ð½
ÄĹ je
ĠÐ» ÐµÐ·
Ġku ta
Ġà¤Ń à¤ı
ĠY ah
ĠÚ¯ Ø±Ø¯
ĠÚĨ ÙĦ
Ġmu ze
Ġni em
sch de
Ġà¤ī à¤¸
ĠDe itsch
Ġom o
áŀĸ áŀĽ
inn ig
àºĻàº Ī
Ì¤ ,
à®³ à®°
à¦ª à¦°
ĠÃ¾ Ã¡
Ġà¦ħ à¦¸
ĠÎ± ÏģÏĩ
Ã¼n Ã¼
ste in
Ġing g
à¹ģ à¸«
ĠÐ¸Ð½ ÑĤÑĭ
Ġáİ¤áı ĥ
ĠáĥĻ áĥĿáĥľ
Ġcont ro
ĠÒĽ Ð°Ð»
ê° Ī
Ø§Ùģ ÛĮ
Ġà¬ħ à¬Ń
áİª áİ¯
è¥¿ çıŃ
à½łà½Ľ à½ĺ
Ġmol ek
Ġlet ter
ĠáĭĪ áĭŃáĪĿ
Ġáİª áıª
éĩį è¦ģ
igu el
Ã¼t Ã¼n
Ġges jreve
ĠÐ·Ð°Ð¿ Ð¾Ñĩ
ĠÏĩ Ïģ
ĠOt to
Ġwob yd
ĠìĿ¼ ë³¸
ĠÑĢÐµÐµÑģÑĤ ÑĢÄķÐ½
ĠÛĮØ§Ø± Ø§ÙĨ
ĠNapole on
Ġ×¨×¢×Ĵ ×Ļ×¨×ķ×ł×Ĵ
ĠÑħÑĭÐ¿Ð°ÑĢ ÄķÐ¿Ðµ
è¥¿çıŃ çīĻ
. (
b ia
g li
n ice
r Ã©s
Û ¸Û
ê ´Ģ
Ġ ËĪ
ĠÐ ģ
Ġt all
Ġk iy
Ñĥ Ò£
Ġb av
àª Ĩ
Ġo is
Ġh ang
Ġh orn
Ġv iss
Ġe un
Ġf ollow
Ġr ela
ĠM p
ik ah
ag ang
Ġy ÄĻ
Ġen te
ĠÐ¼ Ð½Ð¾Ð³
Ġch ÃŃnh
ĠÐ¸ Ð³ÑĢÐ°
Ð¾Ð» Ð°Ð¹
ĠØ³ Ø§Ø±
ĠJ ust
ĠO ld
Ó© Ðº
à¤¦ à¤Ľ
Ùģ ÙĪØ³
ev in
à¦² à§°
Ä« k
à¤ľ à¤®
áŀĢ áŀĤ
ĠØ± ÙĬ
ĠÑĩ ÑĥÑĢ
ill y
ĠØ® ÛĨÛĮ
ĠÑį Ð¹
ÐµÑģ ÐµÐ¹
Ġor ta
ĠÐ° ÑĥÐ¼Ð°
æĸ Ļ
Ġ×ĳ ×©
Ġter ra
çĶ »
Ġod der
Ġ×Ĳ×Ļ× ĳ×¢×¨
áĢ¡ áĢĶ
áĥĵ áĥĶáĥĴ
ĠÃ¦ Ð½
Ġà¨ĩ à¨ķ
Ġmon ument
ĠÃ¥ rs
åħ¬ éĩĮ
Ġtut ti
è© ²
á»ĳ ng
áŁĥ âĢĭ
áĥĲáĥłáĥĹ áĥķáĥĶáĥļ
ĠÂ» ,
Ġfre qu
Ġtod os
ĠÐ¿ÑĢÐµÐ· Ð¸Ð´ÐµÐ½ÑĤ
ì£¼ ìĿĺ
ĠBet rieb
Ġkerd o
ĠÃ©t Ã©
Ġcirc ond
Ġà¤¸à¤¦ à¤¸
ĠÐºÐ¸ÑĪ Ð²Ð°ÑĢÐ¸
ĠØ³Ø§Ø® Øª
ĠÙħØ´Ùĩ ÙĪØ±
ĠColumb ia
ĠÑĥÑĢÑĭÐ½Ð»Ð°ÑĪ Ò¡Ð°Ð½
f ac
f ach
k á»į
n ega
en es
Ġs ora
Ġt ed
Ġp elo
Ġl agi
is em
Ġb am
Ġb iv
Ġb ash
Ġc amb
à® ŀ
Ġh ulle
Ġg ha
Ġg uvern
ĠS of
Ġr uss
om y
ĠA x
us qu
ĠØ§ ØµÙĦ
ĠM ass
Ġin tr
Ġj im
à³į )
ĠÐº ÑĥÐ³
à¤² à¤¸
ĠÑĤ Ó©Ð»
ãģ ĺ
áĪ ²
ot y
st ri
ĠÐ¼ ÑĥÐº
ÙĤ Ø¹
Ġng h
Ġpr at
à¤Ĺ à¤¸
ib r
ĠÑħ Ð¾Ð»
ĠÙ¾ Ú»
ĠÙĦ Ú©Ùĩ
Ġte e
Ù¾ Ø§
Ñİ Ñī
ĠÙĩ Ø°Ø§
Ġto ur
Ġha Äį
ÑĥÐ½ Ð°Ð¹
ĠÑĩ ÐµÐ¼Ð¿
ÄĹ k
ere in
ĠÙģ ÙĪØª
à¨° à¨ľ
ua i
eri i
åĪ ĩ
à¸¡ à¸«
enn is
ena u
ÛĪ Ùħ
rat ongo
bo ard
Ġfam ig
Ġur ban
ĠáĥĲáĥ ķ
à´³ à´¤
ks on
go a
ÑĭÑģ Ðµ
Ø§Ú ĺ
ĠIs ra
ux a
×Ľ ×ĺ
Ø§Ø¹ Ø§Øª
Î¸ Îµ
nÃŃ ch
ĠØ¯ÙĪ Ø§ÛĮ
Ã¦ÑĢ Ð´
ĠÕ¯ Õ¡Õ¦Õ´
Ġalt Ã¨sa
áĥĹ áĥĲ
Ġ187 1
ĠÚ©Ø±Ø¯ Ùĩ
etti h
stan bul
ĠDem okrat
à³¦ à³¦
ĠCat al
ĠÑĤÑĥ Ò»
ĠComp ut
Ġnorm al
Ġà¬ī à¬ª
Ġmom ent
ĠÑıÐºÑĸ Ñı
Amer ikani
ĠÕ°Õ¡Õ´ Õ¡ÖĢ
áĥĶáĥ¥ áĥ¢
Ġuch un
ĠImperi um
czÄħ tk
Ġà®Ĭ à®°
ĠCatalog ue
S c
i os
p ara
x in
Õ ®
ç ¡
Ġ ),
Ġd t
Ġs ond
Ð¸ Ñĥ
Ġt esti
Ġp Ãµh
Ġn de
Ġl uk
el ia
Ġc Å©ng
il eng
Ġh ingga
Ġh ingoa
Ġg era
Ġe ur
Ð¼ Ð¾Ñģ
ÙĬ Ø§Ø±
Ġw elk
Ġi ya
ik ut
à½Ĥ à½Ħà½¦
ĠB uk
ĠÐº Ã¦
ĠH om
ĠH art
à¤µ à¤¦
ĠF ol
ĠÐ² Ð¸Ñģ
Ġà´ ĵ
ĠØ³ Ø§ÙĤ
Ġal fab
Ã¦ k
ĠØ§ÙĦ Ø¨Ø±
à¤¹ à¤ķ
ib an
Ġà¤ħ à¤Ļ
ma il
Ġte j
ĠØ± ØŃ
Ġà¤° à¤ļà¤¨
à²Ĺ à²²
ĠÐľ Ð°ÑĤ
à²µ à²¤
Ġà¤Ń à¤ĩà¤²
à¤§ à¤¤
à¶» à·Ħ
à¸Ń à¸§
à¦® à¦ķ
Ġap pro
áŀĻ áŀĩ
à¶ļ à¶º
ĠÐµ Ð´Ð¸Ð½
Ġ×ĳ ×Ĺ
Ġà²® à²¨
à«ĭ .
ĠÃ¡ nÃŃ
ĠMar s
à¤ĩ à¤°
Ġsk ip
à´µ à´¸
à¶¯ à·Ħ
Ġà¦ħ à¦¬à¦¸
po is
Ø§Ùĩ Ùĩ
ament al
ĠáĥĴ áĥĶáĥĿ
Ã³r un
ĠGu inea
Ġaut omat
ãģĦ ãģ¦
à§± à¦¸
ë¥ ¸
áĪĭ áĭŃ
ĠÏĥÏĦ Î¹ÏĤ
ç» ĵ
Ġà¤Ī à¤¸
ĠÙ¿ Ø§
áĮį áĪŀ
ĠØ¯Ûķ Ûĭ
Ġalt ri
áĥĺáĥł áĥĺ
à¤°à¤µ à¤£
ograf ia
Ġsuper fÃ¬ce
ĠGro up
Ġrez ult
jÃ³ Ã°
ç¹ ¼
nou z
ĠØ´ÙĪØ± Ø§
ĠManu el
ĠÑĦÐ°ÐºÑĥÐ»ÑĮÑĤ ÐµÑĤ
Ġáİ¯áİ¸ áıįáİ©
ĠáĥĽáĥĲáĥĲáĥłáĥĹ áĥĲ
A S
b li
f Ã¸r
k amp
p y
y ek
Ġ à½¡à½Ħ
à¼ İ
en ju
à¦ ¢
Ġs Ã¦r
Ġm av
al bum
à¸ Ŀ
Ġo uch
Ġf Ãºn
ti er
à½Ĥ à½ĵà½ĺ
ĠK ons
ĠÑģ ÑİÑĢ
ĠN ow
eg an
ĠÙĪ Ø¯
ĠÐ´ ÐµÐ³ÐµÐ½
ĠÚ© Ø§Øª
ĠF ab
la is
ist rat
na Äį
Ġpr Ã©s
iz we
ãĥ ģ
ĠÐļ ÑĥÐ»
ĠØ´ ÙĨ
Ġke j
ĠÑĩ Ð¾Ðº
Ġba ix
Ġcom una
ho ut
Ó§ Ð³
ĠÐĳ Ð°
áĮ Ń
Ġab á»¥á»į
à¤Ń à¤¨
Äķ Ð»
Ġà¦ª à¦¦
Ġja aka
Ġom b
ĠØ§ÙĪ Ø³
Ġci u
ori al
ï» ¥
Ġser ta
ĠÐ¥ Ð°ÑĢ
Ġ×Ĳ×Ļ× ¨
à¦Ľ à¦¤
è¿ °
ĠÐ³Ð¾Ð´ Ð¸Ð½Ð¸
ÙīÙĦÙī Ø±Ùī
Ġà¥§à¥ ©
Ġts wa
Ġsup ra
ĠÎ¼ Î¹Î±
ĠáĥĻ áĥĽ
Ġup ang
lig t
Ġà¥¨ à¥¦à¥¦à¥¦
str uk
à¬ľ à¬¨
Ø§ÙĨØ¯ ÙĬ
Ġmai or
à´Ĺ à´¤
Ġ186 7
Ġfun c
ĠWe urt
ĠÛģÙĪ Ø¦ÛĴ
Ġtip o
Ġà¥§à¥¯à¥ «
à¤Ĩ à¤°
ĠÂ» .
Ġllaq tan
Ġgrand eso
Ġcentr um
Ġdens eso
ĠÐ´ÐµÐº Ð°
ĠÙħØ§Ø± Ø³
ĠÐºÐ¸Ð» Ð¾Ð¼
line o
ĠÑĤÐµÑħ Ð½Ð¸Ðº
ĠÐ³Ðµ Ð¾
ĠÐ¼Ð» Ð½
Ġdao ine
b orn
j id
l á»į
Ġ Ç£
Ġd Ã¤m
à¦ Ĩ
Ġs ost
Ġs ensus
Ġs ÅĤu
Ġm atoari
Ġn uair
à¸ İ
Ġb att
Ġh und
Ġf ru
ad igan
ĠS amu
ol et
ĠM am
Ġin stit
ĠB it
ĠB ow
ĠÐº ÑĥÐ·
ĠT Ã¤
ĠL oc
à¤² à¤Ĺ
ĠÐ± Ð¸Ð¹
ab et
Ġz il
Ġz Ã¡k
à½ĵ à½ĳ
ĠR ic
ÑģÑĤ Ð¾ÑĢ
st at
ĠF ord
Ġal am
ĠØª ÙĪÙĨ
ant ongo
ĠÕ ³
ĠÑĥ ÑĥÐ»
ĠU EFA
Ġes per
ev u
ada an
Ġya x
Ġer i
Ġam at
Ð¾Ð³ Ð¾ÑĢ
Ġ5 000
Ð°Ñħ ÑĤ
à¦¼ ,
ĠØ® ÛķÙĨ
ĠCh Ãºng
å¹ ¿
ane f
à®Ł à®°
Ã» ra
ÐµÐ¹ Ð±
Ã£ p
Ġiz v
ìĹ Ń
áİµ áıįáıĹ
ĠFran Ã§a
Ġga eve
Ġra ibh
ĠáĥĲáĥ Ĵ
ĠÎ± ÏĢ
uss Ã¬
ĠÐ²Ð¾ Ñĺ
çĽ Ľ
Î¹Îº ÏİÎ½
ĠOr ganiz
ë¡ ł
Ġáİ¦ áıļ
Ġata h
Ġhav as
Ä¡ un
Ġamb any
Ġ187 9
Î¿Ïį Î½
ÌĦ -
ãĤĤ ãģ®
Ġdok ument
Ġpov reso
å¸Ŀ åĽ½
Ġwh ere
ĠÙħÛĩ Ú¾
Ġterrit orio
ĠÐ±Ð¸ Ð¸ÑĢ
è¡¨ ç¤º
ĠÎµÏĢ Î¯
Ġclas si
Ġà¤Ĩà¤ª à¤²
ĠÕ¡Õµ Õ¶
ĠbÃŃ laÊ¼ashd
Ġìĥ Ŀ
ĠSlov en
ÑĥÐ½Ñĥ Ò£
ĠÐ¿Ð°Ð¹ Ð´Ð°
Ġavou Ã©c
ĠÐ¸Ð·Ð´ Ð°ÑĤÐµÐ»ÑĮ
ĠÑģÑĳÑĢ Ð¼Ð°Ð´
ĠÐ±Ð¾Ð»Ð¾ Ð¾Ð´
Ġà¤¤à¤¹ à¤¸
ĠÑĤÒ± ÑĢ
ĠÙģÛĮÙĦ Ùħ
Ã¼y Ã¼k
ĠÃ¦Ð² Ð·
ĠKern ow
C om
n te
t Ä«
u as
Ġ ÑĭÑĢ
Ġ ÑĭÑĪ
ł áı±
Ġs ine
Ð» ÐµÐºÑĤ
on se
Ġl lam
Ø± Ø§ÙĨ
Ø± Ø§ÙĤ
Ġb Ã´
Ġg ard
à¤° à¤¹à¤°
ur ia
ĠS as
ĠS ob
ak l
ul ka
ĠB un
ĠB ed
im ana
Ñħ Ð¾
ĠN S
Ġz al
ĠH ad
ĠÐ² ÑĭÐ½
ĠÐ² ÐµÐ¶
Ð¶ ÑĭÐ½
ĠV erb
ĠW it
à¤ª à¤²
Ġst Ã¨
ĠÙĨ ÙĪØ¨
ãĤ §
Î¿ Îº
ez da
end s
Ġpro jek
ĠÐ¡ Ð»Ð¾Ð²
ÑĦ Ð¾Ð»ÑĮ
Ġà¤° à¤ķ
à¤¶ à¤¸
Ġcom a
à¤¡ à¤²à¤¯
Ġ×Ķ ×Ļ×Ĳ
Ġhe im
áŀı áŀĢ
ĠáĬ ¢
ĠÑį ÐºÐ¸
Ãµ r
ĠÐĳ Ð¾ÑĢ
ĠÑĦ Ð¾Ð½
×ŀ ×ķ
ili i
à¸¡ à¸²à¸ģ
mi ÅŁtir
áĢ¾ áĢ¬áĢ¸
ĠØ² Ø§Ùħ
Ġci Åıng
uv chi
ÖĢÕ ¤
Ġà²ħ à²¦
Ġiz meÄĳu
Ġkar eng
Ġsom t
Ã¡s Ã¡
bl ica
ÈĽ Ã¢
ÙĦØ§Ø± ØºØ§
dan as
Ġmag areng
ĠSo cial
imb abwe
à¸Ĭ à¸Ļ
nÃŃ m
ÐµÑĨ ÑĮ
ment s
æ¸ ł
ÑĨÑĸ ÑĹ
Ġà»ģ àºķ
æĢ ¥
Ġwor de
ë¦¬ ê³ł
Ð°Ð»Ð´ Ð°ÑĢ
Ġê° ķ
cl us
ĠÐ¿Ð¾Ñģ Ð»ÐµÐ´
ĠÐºÐµÐ» Ð³ÐµÐ½
Õ¸ÖĢÕ ¤
ĠBak ratongo
ĠÐºÐ½Ð¸ Ð³
Ġtran sport
onta e
ĠLud wig
ĠÒ¯Ð¹Ð» Ð´
Ġniv el
ĠHistor y
ĠÙħÙīÙĦ ÙĦÛķØª
èĭı èģĶ
ĠÐ²Ð¾Ñģ Ñı
jew Ã³d
èĴ Ļ
ĠFI FA
ingg ana
ĠGov ern
ĠáıĮ áıĬ
ĠNÄĽ m
ĠØ¨ÙĪÙĬ ÙīÚĨÛķ
A c
D E
d ig
j Å¡
k od
w h
Ó ³
Ð½ Äķ
Ġp ud
Ġp lo
Ġk ush
Ðº ÑģÑĤ
Ġo ce
Ġg is
Ð¼ ÓĻÑĤ
ĠS aks
ol b
Øª Ø¨
Ġr Ã¥
Ġw ili
ĠA U
ak tor
ĠM w
à¤¨ à¤Ĺà¤°
ĠB uc
ĠP ul
im pi
ta x
ĠÑģ Ð¸Ð»
re i
Ġz ad
ĠÙħ ÛĩØ±
ĠÙħ ÛĮÙĦÛĮ
ĠR Ã©
ĠH ong
Ġu h
Ġu i
Ã¨ st
ĠF le
ĠÐ¼ Ð¸
ci us
je Å¡
ĠÑħ Ð°Ð´
eb wa
Ú¯ ÛķØ±
Ã® ne
ec tion
Ð¸Ðº Ð°Ð»ÑĭÐº
hi in
ĠÐļ ÑĥÐ±
Ġet ti
Ġya itu
Ñİ ÑĨÑĨÐ°
Ġha uwe
Ø® Ø¯Ùħ
ĠÙĤ ÙĦ
à¶º à¶Ń
we h
Ġcom b
Ð°Ñħ Ð¾Ð´
ĠÚ¯ Ø°
ÛĮØ§ ÛĮ
Ø§Ø¯ Ùī
lu ud
ÑĭÐ¼ Ð°
ĠÐ¢ Ðµ
Ġak adem
ÛĮØ± Ùĩ
áĢħ áĢī
Óĵ Ð¼
gi i
à¸Ĺ à¸£
ĠØ£ Ùħ
Ø¯Ùī Ùħ
à°¡ à°²
uw ar
ĠØ¦Ùī ÚĨÙī
Ġá» ĭ
Ġsta bil
ĠÃ» nder
ĠEs per
Ġmus ica
ÑĥÑį ÐºÓĢ
Ġwal la
ĠHar ry
àº® àº½
é» ĳ
Ð¸ÑĩÐµÑģÐº Ð¸Ð¹
Ġih re
ãĥĥ ãĥĪ
ĠÐºÐ½Ð¸ Ð¶
ĠÐ¤ÑĢÐ°Ð½ ÑĨÐ¸Ñı
éħ į
Ġheman aro
Ġvot ik
ĠProgr amm
Ġfav or
ĠHr vat
ĠáĬ¥áĪµ áĬ¨
ĠÚĨÙī ÙĤÙī
Ġáĥ¤áĥĺáĥļ áĥĽ
ĠÐ¡Ð¾Ñİ Ð·
Ġgewa ardeerd
N g
g ia
l uss
m az
o Å¾
q aa
r ent
w á»į
y la
Ġ à½Ĥà½¦
Ġd rie
áŀ §
is ed
Ġb ast
Ġb izi
et ah
il fa
Ġo tu
Ġh ep
Ġde us
Ġg ba
Ġe ven
ad ra
ĠS ett
ol en
Ġr ong
Ġw ik
Ġw ata
Ġi ye
ĠM iguel
Ġy ela
Ġj at
Ġj og
ĠP Ã²
im um
Ã¤ kt
Ä± st
ĠL und
ÑĪ ÐµÐ½
Ð°Ð» Ð¸Ð¼
ĠÑģ Ð¾Ð³
ĠÑģ Ð¾Ñħ
ab aa
ĠÙħ ÛķÙħ
Ġla f
Ø§ÙĨ ÛĮÙĨ
ĠÑĤ Ð¾ÑĤ
ĠG el
Ġà¬ ĺ
ĠÐ² Ð°Ð·
ĠÐ¼ ÐµÐ¼
ov ia
ĠÐ¸ ÑĩÐ¸Ð½
ĠØª ÙĦ
Ð°Ñģ Ð¿
up pe
iz wa
ĠÙĦ ØŃ
Ð°Ðº ÑĤÐµÑĢ
ÛĲ Ø¯
Ã½ d
à¶± à¶§
ĠÑĩ Ð¸Ð½
ĠÑĩ Ð¸Ñģ
Ïĥ Î±Î½
ach adh
áĮ «
ĠÐ¢ Ð°ÑĢ
ĠÐ¢ Ð°ÑĤÐ°ÑĢ
áŀĽ áŀĸ
áŀĽ áŀĩ
Ġag ric
ĠÅ Ŀ
Ã¸ k
ĠØ² Ø±
Ûİ ÛĮ
ĠØ¯Ø± ÙĪ
Ġsh ow
Ð°Ð½Ð´ Ð¸
Ġod nos
Î¬ Î»
×Ļ×Ļ× ĵ
ett y
ÅĦ y
Ġ×ľ ×¤
Ġvi ÅĨ
Ġmi ent
gr ad
éĥ İ
à¹ģ à¸ģ
ĠØ¦Ùī ÙĨ
áĥĲáĥł áĥĺáĥ¨
Ġprim ma
Ġik k
Ä±l mÄ±ÅŁ
ĠEs is
erb it
Ġrec on
Ð¸Ð± Ð»Ð¸
×Ĳ×ł ×Ĵ
Ġà¨Ĺ à¨Ī
ìķ ĺ
éĤ ¦
Ġdip un
inta h
Äįi Å³
ÑĢÐ°Ð· Ð¸Ð»
ĠÃ¹ n
ĠÐĳÐµÐ» Ð°ÑĢÑĥ
ç³» çµ±
ĠÄī e
Ġcast ell
ĠØ²ÙĨØ¯ Ú¯ÛĮ
Ð¸ÑıÐ½ ÑĭÐ½
Ð°Ð³ÑĢ Ð°Ð´Ð°
ĠMold ova
A z
C N
G e
H ol
I X
I NE
P R
f ico
é ª
an is
Ġd ut
Ġd eng
in Ã¤
à¦ ĥ
Ġs and
il lar
Ġo da
ur ang
om on
à¶ Ł
ed ra
um Äģ
Ñı ÑģÑĮ
Ñħ Ð°Ð¹
Ã³ la
Ã³ ÅĤ
ĠØ¯ Øª
ĠÑĤ Ð¾Ð»ÑĮ
ĠÑĤ Ð¾ÑĢÐ°
ĠR oc
Ã¨ w
Ã¨ na
Ġà¤ķ à¤¨
Ã¼ ss
ĠÐ² Ð¿
ĠÐ² ÑĤÐ¾ÑĢ
ud er
Ġda ug
og ne
Äģ j
ĠÐ¾ Ð½Ð¾
ĠØª Ø§ÙĦ
à¤Ĺ à¤£
ub re
Î¿ ÏĦ
Ġà¤ħ à¤¬
Ã¬ t
Ġke un
Ġper man
ill on
Ġë ħ
à¶» à¶«
ny d
Ġor b
ĠLa ut
ĠÃ¤ tter
×ĳ ×Ļ
àªķ àªµ
Ġ×ŀ ×§
Ð¸ÑģÑĤ Ð¸Ðº
pr im
Ġaf á»į
à¦ĩ à¦¨
Ġmas omes
ĠÐºÑĬ Ð°Ñĩ
ber to
ĠÓ© Ñģ
Ġah oli
ä¸Ń èı¯
Ġà¬ķ à¬²
ĠNa Ê»e
ĠÐķ Ð²ÑĢ
Ġcum u
Ġsing le
ĠÎ¼ ÎŃ
eth er
Ġuk uba
Ġhav is
Ġlab or
Ġâ ĪĴ
ĠPol it
áĥĿáĥĳ áĥĲáĥ¨
Ġà¶ľ à¶Ń
Ø¨ÙĪ Ø³ØªÙĩ
Ġ186 4
Ġà»Ģàº ŀ
aku Ã©ra
197 5
çĻ¼ å±ķ
ĠÔ± Õµ
íĸ ī
ĠÃ¶n Ã¶
ĠProvin cia
ĠPart y
ĠSing ap
ĠØ§Ø³ÙĦØ§Ùħ ÛĮ
ĠØ¬ÙĬÚª ÙĪ
ĠFern ando
iyy ÉĻt
×Ļ×Ļ×¢ ×¨
ĠØ¦ÛĩØ± ÛĩÙĤ
ĠAmsterd am
m und
er um
Ġs ole
Ġp apa
al os
al ing
Ġl ir
Ġl emes
is yon
Ñĥ ÑĨ
Ġb á»ĭ
il io
Ġe mer
Ð³ ÑįÐ½
ĠM em
ĠM ana
Ġy Ãªn
ul ong
ĠÐº ÑİÑĩ
ĠÑģ Ð°Ð³
ĠÑģ Ð»Ð°Ð²
ay in
Ø§ÙĨ Ø¯Ø§
ĠE uro
Ñĩ Ð°Ðº
ĠÚ© ÙĦÛĮ
Ø´ Ø¯
ĠÐ¼ ÐµÐ±
ov ala
ĠØª Ø§Ø¦ÙĬÙĨ
Ġar abi
iz in
iz ione
ĠÙ¾ ÙĦ
Ã® z
ĠÙĦ Øº
ou e
Ġpro to
ĠÙĩ Ø³Øª
ĠÙĤ Ø¯ÛĮ
ini u
à¨° à¨¬
Øº Ø§Ø²
ÚĨ ÙĬ
ÚĨ Ú¾
áĬķ áīµ
à®ª à®°
ĠÊ» ene
âĢĿ ï¼Į
Ø§Ø¦ ÙĪÙĨ
Ġsh k
Ġê ´Ģ
Ġà·Ģ à·ĥ
Å¯ d
Ġus u
Ø§ÙĬ Ø§Øª
Ġ×¤ ×Ĳ
Ġye o
ÑįÐ´ Ð·
Ġà¨ħ à¨¨
Ø° ÙĦÙĥ
Î´ Ïģ
Ġmun isip
Ġall em
ĠÏĥÏĦ Î¿Î½
çĦ ī
áĥ· áĥĽáĥĲ
ĠØ§ÙĦØ¹ Ø§ÙĦÙħ
ĠØ¯Ûķ Ø¨
áĢĿ áĢĲ
ĠÐµÐ» ÐµÐºÑĤ
uer to
ĠAp ollo
Ġnav Ãª
ÉĻs indÉĻ
Ġë§ Į
Ġvor u
Ġsj Ã¡l
áıįáıĵ áı´
Ġà¶ī à¶±
ĠgÃ¶r n
ĠØªØŃ Øª
áĥĺáĥłáĥ ķ
å¡ ŀ
æĪĸ èĢħ
Ġjanu ar
Ñľ Ð¸
ĠÚ¯ÛĮÙĦ Ø§ÙĨ
æĳ ©
ĠÐĺÑĢÑĤ ÑĭÑĪ
ĠáĪĺáĬķáĮįáĪ¥ áīµ
ĠkÃ¶n nen
I ÑĥÐ½
b eg
d ist
g eme
s il
® àŃ
Ù ¤
é ¬
Ġ à½ĸà½¢
an ie
ar al
ar to
Ġp ulo
Ġp uru
Ġm Ã¹
Ġn Åį
Ġl edi
ÙĦ Ø§ÛĮ
Ð´ ÑĭÐº
Ðº Ð¸ÑĤÐµ
Ġde ze
ur uh
ir is
ik si
Ġy ez
ĠI f
ĠÐ¿ Ð°Ð½ÑĤ
ent as
ãģ Ľ
Ø¨ ØŃ
ĠF al
à²° à²¹
Ġda an
Ã¦ re
ĠÕ Į
Ð¾Ð² Ñĸ
Ġpr ema
Ġar o
ĠÙĨ Ø§Ø®
Ø§ÙĦ Ø¯
Ð°Ð² Ð°Ð½Ñĭ
ãĥ ĵ
ÑģÐº ÑĭÐ¹
Ð°Ð· Ð°ÑĢ
ĠÐ¿ÑĢ Ð¾ÑģÑĤ
Ġq e
ĠØ¹ ÙĪ
Äĵ ra
ĠÐ¶ Ð°Ð·
åı ¬
áģ ħ
Ġà¤¯ à¤Ī
Õ¡Õ¶ Õ£
å¾ Ĳ
Ġà²¬ à²Ĺ
×ĵ ×Ķ
×¤ ×§
Ġok us
áĥķ áĥľ
å¸ Ń
Ġby gg
ĠÐ±Ð°Ð¹ Ð´
ĠÃ± oom
Ġà®ķ à®°
éĻ Ĳ
Ġkun ne
Ġkr al
fe e
×ķ×Ļ× ĳ
Ġkal end
áī° áĬĽ
à¹Ħ à¸Ĺà¸¢
Ġà¤ľà¤¨ à¤ªà¤¦
ĠÑĤÐ° Ò¥
Ġà¤īà¤ª à¤¸
è® ¾
ä¹Ł æĺ¯
à¾¨ à½²
áıįáı ķáİ¸
×ķ×ľ ×Ŀ
Ò¯Ð³ ÑįÑĢ
Ġ187 5
æ¨ £
ĠHar vard
Ġimp urt
ĠGi ovanni
Ø¨Ø¯ ÛĮØ±
ĠAustr alian
Ġprogr ama
ĠÐĲÐ· ÐµÑĢÐ±Ð°Ð¹
Ġperson al
Ġáĥ® áĥĿáĥļáĥĿ
Ġbot lh
ëŀ Ģ
èĭ± æĸĩ
ĠÛ²Û°Û±Û ·
Ġà¦§ à¦°
ĠÐ³Ð°Ð» Ð°Ð·
ĠÐºÐ¸Ð¶ Ð¸
ĠÙĩØ¦ Ø§
ĠBraz il
Ġà¹Ħ à¸Ķ
ĠáĭĺáĪĺ áĬķ
áİ¸áı«áıįáıĵ áıģáıĹ
A ustria
I P
b Ã¡
e ft
j ala
m eki
o wa
y Åįtl
Ġd Ã¢n
ar it
ar kan
Ġa haa
Ġt imp
Ġp ien
Ġm Ã³r
Ġn agh
Ġk ov
al ig
is ation
or to
Ġc w
Ġh ah
Ġg si
Ġf ou
Ġà¦ ·
Ã© ben
ĠM illi
ik us
um enta
Ñı Ð±
ĠK ongo
ĠÑģ ÑĤÑĭ
ĠØ¯ ÛĮÙĦ
ut or
ĠÙĪ Ø±Øª
ĠR eb
ĠH erc
à¤¸ à¤Ĺà¤³
Ã¨ ve
ĠÐ² Ð»Ð°ÑģÑĤ
ĠÐ¼ ÑįÐ´
áĥĺáĥ ¬
ĠJ ar
ĠØª ÙīÙĦ
ĠW in
ers ey
Ġar c
ĠÐ³ ÑįÑĤ
Ġst Ã¡
Ġte Å¾
ĠÑĪ ÐµÐ³ÑĮÐµÑĢ
ann es
Ġku ch
Ġq as
Ġ×Ķ ×¨×Ĳ×©
ĠØ¢ Ø«Ø§Ø±
ĠÚ¯ Ø±Ùģ
Ġth á»±c
Ïħ Ïģ
ĠÐ¢ Ð°Ðº
àª® àª£
àºĶ àºģ
sh ire
Åį hu
ÑģÑĮ ÐºÐ°
Ã¸ Ã°
ÑĭÑĪ ÐµÑĤ
Ġà¦® à¦¤
Óĵ ÑĤ
Ġser o
éģ ł
Ð°ÑģÑĤ Ð°
Å¼ y
Ġex c
æŃ Ĳ
ÑĭÐ² Ð»Óĵ
Õ¸Õ µ
Õ¸Õ Ń
ĠInd un
ĠÐ¤ ÑĢ
×Ľ ×ª
15 0
alis mo
ĠØ¦Ùī Ø¬
Ġáİłáı ģ
Ġsal ek
Ġpopul asi
Ġà¦ī à§İ
áī³ áīµ
Ġtop on
sc ar
ĠìĿ´ íĽĦ
ĠØ±Ùĩ ÙĬÙĪ
ëĿ ½
Ġcy ane
ìļ ´
åĽĽ å¹´
ĠÙħØ³ ÙĦÙħ
Äįk ih
ãĥĥ ãĤ¯
éŃ ¯
ĠÐ£ÑĢ ÑĥÑģ
àºĶàºĹ àº°àºĻ
Õ¡Õ² Õ¡ÖĦ
ë¯ ¸
ĠØ¨Ø§ÙĬ Ø¯
ĠPenns ilfa
ÐºÐ» Ð¾ÑĢ
ĠÚ¯Ø±ÙĪ Ùĩ
ĠRÃ¨ z
ĠÑĤÓ§ Ð»ÑĭÑģÑĮ
ĠLietuv os
áıįáıĵáı²áİ¯áİ ²
a it
d Ãł
e us
f om
h ti
h Ãº
n or
y f
z g
¦ à¼
ç §Ģ
Ð½ ÓĻÐ½
in na
er land
Ġs Ã©r
ar as
Ðµ Ð¾Ð½
ÑĤ Ð°ÑĪ
Ġa ja
Ġt ev
Ġt Ã³n
Ġn Ã³g
Ġk ultura
is aa
Ñĥ Ð°
Ġb Ã³k
et ten
am ol
Ġg um
Ġf ili
ÙĬ Ø¨
ol oj
ĠA ct
ĠB Ã©
ĠÐº ÑĭÐº
ĠD ig
ĠC entre
ĠN Ä«
ĠN BA
Ġla w
ĠR iv
Ð°ÑĤ ÑĤÑĭ
ĠÐ´ Ð¸Ð²
Ø´ ÙĤ
Ãª d
ud es
ĠÐ¼ Ð¼
ov at
de el
ci i
ĠV l
ĠØ§ÙĦ Ø§Øª
ĠÑĥ ÑħÐ°
ĠÙĨ ÛĨ
ĠÑħ Ð¸Ð»
Ð°Ð¼ Ð¶
ip h
Ø§ÙĦ Ùī
ĠU z
à²¨ à²ķ
Ø² Ú¯
×¢ ×ķ×ª
ka i
ÙĪØ± Ø©
Ġma akt
Ġcon te
ÑĥÐ» ÑıÑĢ
Äį an
Ãº i
ÑĦ Ð¾Ð½
Ïĥ Î¹
Ïĥ Î¯Î±
å¤ Ħ
Ġáİł áıįáıĵ
Ġim pl
aj o
Ġàº Ĥ
Ġà¸ Ķ
Ġpo int
Ġ9 1
ï» §
×Ļ×Ļ× ¡
ĠÙħÙĨ Øª
Ġex pl
Ġí Ĩ
Ġí ĽĦ
ÑįÐ¹ Ð½
Ġkun i
æĪĲ çĤº
Ġà¦ļ à¦¨à§°
Ġ189 1
ç» ´
urn ar
Ò¯Ð³ Ò¯
ä¸ĸ ç´Ģ
ÙĦÙīØ±Ùī ÙĨÙīÚŃ
Ġdon de
Ġtip isi
å¤© ä¸ĭ
Ġ185 9
àº® àºĩ
ìĺ ¤
Ġáıĵ áİ¶
Ġdest in
Ġà§« à§¯
ĠØ§Ùĩ ÙĪ
Ġekonom i
Û°Û° Û°
ĠAst ero
ĠÙħÙĬ Ø¦ÙĨ
Ġà¶Ķ à·Ģ
ĠÐ°Ð²ÑĤÐ¾Ð½ Ð¾Ð¼
ĠÐĶÐ² Ð¸Ð½Ð°
M idd
N a
h ou
u atu
Ġd ura
Ð½ Ð¾Ð³ÑĢÐ°ÑĦ
Ġm ate
Ġk olo
it aj
Ð´ Ó©
et n
Ġh anga
Ġg on
Ġf est
Ġf Ã¹
ĠS ap
om be
Ùħ Ø¨Ø±
ĠØ§ Ú³
Ùī Ø®
Ġin strument
Ġdi jel
ĠÑģ Ð²Ð°
Ã³ ra
ĠN al
ĠÐ¿ Ó§
ĠÑĤ Ð°Ð¼Ð°
ÑģÑĤ Ð°Ð½ÑĤ
Ġun i
qu is
Ġse f
op ia
ĠJ ed
ĠJ ane
ĠÑħ Ó©Ð³
ob us
à²² à²¸
ĠÄ Ĵ
ac ions
Ú¯ Ø±Ø¯
ni je
end ra
à¸²à¸ ĵ
Ä« c
ĠÙĩ Ø¯
ĠÙĩ Ø¬
Ġha es
Ġku cing
à®¤ à®°
all et
à´¯ à´¯
Ġsp re
ĠCh ampion
Ġak in
ĠÑĦ ÐºÑı
Ġbe a
áĢķ áĢĬ
ĠÃ¤ lif
á¹³ ng
Î¼ ÏĨ
Ġmed io
Ġáĥĵ áĥĲáĥĽ
Ġáĥĵ áĥĲáĥ¡
ĠÙħÙĨ Úģ
Ġáİ¾ áİ¯áı³
ĠÄĳ á»ĥ
è¡ Ĺ
ÅĽ i
ĠÅŁ ah
è¿ Ń
lÄ± g
Ã¤Ã¤ l
ĠÔ ´
Ġáİ¤áı łáı±
Ð¸Ñĺ Ñĥ
Ġcons id
×Ļ×ł ×Ĵ
Ġkad ar
ĠÚ©ÙĪ Ùĩ
Ġhav de
è® ¤
áĥ· áĥľ
Ġorgan iza
Ġloc a
Ã¡m egi
ĠSal v
èŃ ĺ
Ġà¥§à¥¯à¥ Ń
Ġlug ha
à½Ĥà½ĳ à½ĺà½¦
ĠØ§Ù¾ ÙĨÛĮ
à°¹ à°¦
ë° ©
ĠÐ°ÑĢÑħ Ð¸Ð²
Ġáİ¢áİ¬ áı±
Ġsic ili
Ġcompl et
ĠBern ard
Ġclas e
Ġíĥ Ģ
ãĤı ãĤĮ
Ġassa je
inÃ¼k ons
ĠØ³Ø§ØŃ Ùĩ
ĠÐĴÐ»Ð°Ð´ Ð¸Ð¼Ð¸ÑĢ
b ere
l ela
o Ê»
v ern
Ù ª
Ú Ħ
Ġ ÑĭÐ½
Ġs eme
Ġt ary
Ġt oga
Ġp ih
Ġk uda
Ġf ekk
ĠS Ã£o
os z
Ġw aka
ĠM S
Ð°ÑĢ Ð¼
Ġj Ãł
ĠP age
ĠT ah
ĠL j
ĠL Ã¶d
ĠØ¨ ÙĬØª
ĠØ¯ ÙĪÙħ
Ġz es
ĠÙĪ Ùĥ
ĠÙĪ ÚĪ
ÐµÐ½ ÑĨ
ri um
ĠÐ´ ÑĥÑħ
ĠÚ© Ø±ÛĮ
Ã¶ ps
ĠÐ² Ð¸ÑĢÐ¸
la f
de v
ĠÐ¾ Òķ
ĠW as
Ġpr ad
Ġst ation
ug er
ob an
à§° à¦¥à¦®
Ġ3 000
ĠÑĢ Ð¾Ð±
ĠØ± ÙĪØ¯
Ġko e
ĠÙĤ Ø§ÙĬ
×ľ ×Ļ×Ŀ
à°° à°Ń
Ġme ar
ast en
ĠØ® Ø¯Ø§
å¤ ľ
ä¹ ¦
ont in
Ġpo ol
àª¯ àªķ
Ġci am
çĶ ²
áĢ½ áĢ±áĢ·
Ġà¦ı à¦²
atu ur
Ġbo oda
à¤ĩ à¤¡
ian an
ÛĶ ÛĶ
Ġur te
Ġà¦ħ à§°
Ġby la
Ò¯Ò¯ Ñģ
ement o
ĠÐ¤ Ð¸Ð½
ÙĥÙī ÙĨ
ÙīÙĦÙī ÙĤ
ĠÐ§ ÐµÑħ
à¬¥ à¬®
Ġà¶ħ à¶´
ĠÐºÐ¾Ð½ ÑĤÑĢ
Ã¶l is
ĠÑĺ ÐµÐ´
Ġáİ¤áı Ł
Ãªr s
Ġmot u
Õ¥Õ¬ Õ¸ÖĤ
ĠáĢĽ áĢĢ
Ò± Ð»
ĠAg osto
ĠÐĲÐ¼ ÐµÑĢ
à¤ħ à¤°
Ġlim it
Ġnaf ar
à¸ŀà¸£à¸° à¸£à¸²à¸Ĭ
Ð»ÑĭÐº ÑĬ
à¨ħ à¨¦
ĠÕ¾ Õ¥ÖĢ
ĠRoman um
ĠInter na
ĠBos nia
ĠØ¢ÙĦ ÙħØ§ÙĨ
Åĵ u
ĠÑħÐ°Ð» ÐºÑĬ
å§Ķ åĵ¡
ĠpoÄį et
ĠaÅĤ Ê¼ÄħÄħ
Ġáĭ° áĮįáĪŀ
Ġà¤ħà¤Ĺ à¤¸
ĠDay toy
Ġë¯ ¼
Ġperts ona
ĠáĥłáĥĿáĥĽáĥĶáĥļ áĥĺáĥª
Ġ×Ļ×Ķ ×ķ×ĵ
Ù £
í ı
Ð½ ÐµÑĤ
ÑĢ Ð°Ð»ÑĮ
Ġp ind
Ġp Ã¶pinumam
Ġm Ãºs
Ġn imi
Ġl áº¡i
as en
it ter
Ð´ ÑįÑĢ
Ġc osta
âĢ ³
Ġh ost
Ġg over
Ġf Ã¼
ĠS ard
Ġr ij
im on
ĠL ep
ĠL amb
ĠK ot
ĠN ad
ĠÙħ Ø±Ø¨Ø¹
Ð± Ò¯Ð»
ĠH end
Ð°ÑĤ Ñĥ
ĠÐ´ Ð¸Ð¿
Ð¸Ð½ Ð°ÑĢ
Ø´ ÙĪØ±
Ãª ne
Ø§Ø± Ø§Øª
la cht
ci ji
Ġal dÄ±
áĥĺáĥ ¦
ĠØ§ÙĦ ÙĬ
ÏĦ ÎµÏģ
ip er
Ġqu Ã¢n
ĠØ¦ Ø§Ø¨
ãĥ §
à¦¤ à¦ķ
ÑģÐº Ð¾ÑĤÐ¾
ĠÑĢ ÐµÐ»
ĠÑĢ Ð¾Ð¼Ð°Ð½
Å¾ ÃŃ
ĠÐļ Ð¸ÑĢ
ina e
ĠÐĲ Ð´Ð¼
Ġno ta
Ġ4 50
ÑĥÐ½ Ð¸
ĠÐ¿ÑĢ Ð¸Ð·
Ïģ Îº
ĠÙģ ÙĦÙħ
ill es
Ġq os
Øº Ùī
ans u
Øµ Ùģ
any u
Ó¹ ÑĪÑĤÓ¹
å® ³
ĠÃ¤ dabin
Ġlo olu
ĠAr n
ĠÐĶ Ð°Ð½
Ġà²¬ à²¹
Ð¸Ñĩ Ð½Ð¾
ä¸Ģ èĪ¬
à°¦ à°°
ĠÚ¾ Ø§
of laku
Ġann antu
áĢ¡ áĢĢ
ĠDi os
ĠÙģÙĬ Ùĩ
ken inÃ¼kons
alis m
Ð°ÑģÑĮ Ó§
Ġval odo
åľ° åįĢ
ĠáĥĹ áĥĺáĥ¨
Ġ188 2
ĠIng gr
Ġkam ar
ĠTim Ã¼
Ġàª° àª¹
Ġ186 6
×Ļ×ľ ×Ķ
çº ¦
Ġmut ta
ĠDem Ã¼
Ġà¤ħà¤Ń à¤µà¤¤
Ġinte gr
Ġbid Ã¤da
ĠØªØ¹ ÙĦ
ĠlÃ¶ lik
Ġstol at
Ġhel p
Ġvl ast
ĠlÃ¶d Ã¶ps
ĠÑİÑħÐ°Ð½ÑĪÑĭÐ² ÄĥÐ½
ĠLatin ans
ĠÙĨØ´ Ø³Øª
ĠÃ¤binÃ¤d on
Ġï Ń
Ġterit ore
ĠÙĪØ´ ÙĪÙĨ
ĠÃ¤lÃ¶d ons
ĠØ§ÛĮØ´ ÙĦ
Ġasc Ã¬
Lin ux
ĠLÃ¶d anef
w yn
y ana
© áĥ¥
Ê ĥ
an en
Ġd ong
à² ĺ
Ð¸ ÑĽ
Ġt ong
Ġp Ãł
Ġp ant
Ġl arg
Ġl emesed
es icius
is lat
Ð´ ÐµÐ¹
Ġc ilis
Ġv rij
Ġe aste
Ð¼ Ñĭ
ad ha
Ð³ Ð°ÑĪ
ĠA M
Ġi v
ÑĮ Ð»
em ia
ĠB Ã¤ld
ĠÐº ÑĳÑĢ
ÃŃ sk
Ġz Ã´
ĠÐ¿ Ð°Ð¹Ð´
ent ar
ent is
ĠÑĤ Ð°Ñģ
Ð± Ð°Ðº
Ġun s
ĠÐ½ ÑĥÑĤ
Ã¼ tt
ĠÐ² Ð°Ð¹
Ġse va
ĠØ³ Ø¦
ĠJ ones
ĠW ol
ĠO per
Ġle igod
Ð°Ñģ ÒĽÐ°Ð½
ne v
Ġpr imi
áī ´
ug ons
à§° à¦¹
Ùģ ÙĤ
Ø¦ Ûķ
Ð¸ÑĤ ÑĤÑįÐ½
áĥĿáĥ ¥
Ã¬ u
Ġà¤ľ à¤Ĺ
ÑĥÐ» Ð°Ð¹
ĠÐ¡ ÑĢ
lar ynyÅĪ
Ø§Ùħ Ùĩ
und es
Ġtr Ãªn
×ł ×ķ×ª
Ġest o
Ã£ n
ĠÃ¤ keninÃ¼kons
Ø§Ø¨ Ø¹
ÑĥÐ³ ÑĮ
ĠØ² ÙĬØ§Øª
àºĻàº ļ
Ġci ud
Ġsh qip
Ġob serv
ĠÐ±Ð¾Ð» Ð°Ð´Ñĭ
ÑĥÐ¼ Ð¸
Ġpe yna
Ġmat ans
à¬¬ à¬¨
olog o
Ġfu it
ĠØ§ÙĦÙħ ÙĦÙĥ
Ã©r t
ÅĻ i
Ġà®ª à®ķ
Úĵ ÛĮ
à¤°à¤® à¤£
dan adens
èĪ Ĭ
Ġáĥ¬ áĥĲáĥłáĥĽ
Ġ×Ļ ×ĵ×Ļ
Ð¸Ñĺ Ð¸
Ã¶d Ã¶l
Ġà¦² à¦¯
ĠHo a
Ġvom as
ç© į
Ġneb o
Ġpus o
ÓĻÐ» ÓĻÐº
Ġdun iya
çĶ± æĸ¼
ĠJac ques
ĠGra puk
Ġlomane f
Ġlomane fa
Ġlomane fas
á»ĥ n
Ġhim atan
Ġpic c
ĠlÃ¶ danas
ĠlÃ¶d Ã¶p
ĠArth ur
ĠØ§ÙĨØª Ø®
fas oliad
Ġrayon Ä±nda
Ġviet ans
ĠÃ¤lÃ¶d Ã¶lis
ĠÃ¤lab ons
ĠÃ¤lab oms
ĠÐ¼Ð°Ð¼ Ð»ÐµÐºÐµÑĤ
ĠfamÃ¼ la
isipal iti
obol Ã¶dÃ¶l
ĠpÃ¶ fasoliad
ĠkalÃ£dÃ´r za
ĠvÅ¡ ak
ĠØ§ÛĮÙĨÚ¯ ÛĮÙĦÛĮØ³Ø¬Ùĩ
ĠLÃ¶ danadens
ĠÐ±Ó© Ð»Ñĸ
Ġpram isi
ĠgÄ« ven
ĠzÃ¤n edo
ĠpÃ¤d ugons
ĠÃ¤k obolÃ¶dÃ¶l
ĠÛĮØ§Ø±Ø§ÙĨ ÙħÛĮØ´
Ġsomt engi
Ġlemes edi
Ġsalek ism
ĠÃ¤lif ons
ĠÃ¤dabin Ã¶l
ĠBÃ¤ld ot
Ġleigod Ã¼
ĠGrapuk esicius
ĠLÃ¶danadens it
I m
d ob
t ri
Ö ´
Ù ¨
Û ¹Û
ì ¼
Ġs Ã»
Ġs ido
Ġa il
Ġp uss
Ġk ent
Ġl Ã½
es cu
Ġb Ãº
as ed
ch hi
Ġc osa
ĠS Ã¼
Ġw rit
ĠØ§ ÙĨÙĩÙĨ
em in
Ġy at
Ġ2 20
im per
ĠÐº Ò¯Ð½
Ð· ÑĮ
ĠK um
ĠØ¨ Ø§Ø³
Ġen de
ÑģÑĤ Ð¾ÑĢÐ¸Ñı
Ġan cu
ÐµÑĢ Ð¸Ð½
ĠÐ½ ÐµÐ´
ĠÐ¸ ÐµÑģÑĤÑį
Ġda al
est ro
wa a
ĠO S
ĠÑĥ ÐºÑĢÐ°
ĠÑħ Ð¾Ð½
ug an
ĠØ¬ ÙħÙĩ
ĠÛ ±
ĠØ¦ Ø§Ù¾
ow ym
×Ĳ ×ª
Ã° s
Ġcon me
äº Ĵ
Ġam i
ĠÑĪ ÑĥÐº
ĠÑĩ ÐµÐ»
ĠÙĤ Ø§Ùħ
Ġme x
ani an
Ġvan ne
ĠÑį ÑģÐ°
ĠAn tar
Äķ Ð½Ðµ
Ð½Ð¸ ÑĨ
Ġgo aill
Ġter masuk
enn er
Ġkom pan
Ġ10 5
Ġus a
ĠÑĸ Ð·
Ġsk al
eh r
Ð°Ð½Ð° Ñı
Ġmin or
ĠØ¨ÛĮ ÛĮÛķ
ĠCom mun
ĠØ· ÙĪÙĦ
Ġinf iz
ĠØ¯ÙĪ ÙĪ
ĠáıĹ áİ§
à¹Ĥ à¸¥
ĠMal ta
ĠÚ©Ø± ÙĨ
ĠÐ±Ð°ÑĪ Ðº
ĠJo ohr
ĠÎ´ ÎµÎ½
Ġnh Ãł
á»ĩ u
Ġà¤ĵ à¤°
Ġ×Ĳ×ķ×Ļ× ļ
á»ĥ u
Ġà¦ĺ à¦°
ĠÒĽÒ± ÑĢÐ°Ð¼
lÉĻ ÅŁ
ĠÚĩ Ù¾
ĠìŀĪ ëĬĶ
Ġfeder al
à¸ªà¸¡ à¹Ģà¸Ķ
Ġjum lah
Ġáİ¾áıįáı ĩ
Ġá¹£ e
Ø§Úª Ø³ØªØ§ÙĨ
áıįáİ¦ áı¯
pun kt
ĠCum hur
ÐĲÐ¢ Ðŀ
Ġáİłáı° áİ²
Ġà·ĥà¶³ à·Ħ
ĠØµØ§ØŃ Ø¨
ĠáıĵáıĤ áıįáıĵáı²áİ¯áİ²
m ac
m á»į
Ê Ĭ
ç £
Ð» ÐµÑĢÐ¸
Ġp hi
Ġn Ã¥
Ġl ur
ch od
Ġc ic
Ġc af
Ġo iko
Ġh old
Ġv ap
Ġf id
ĠS oria
os en
Ġà² ĸ
ag in
à¤¯ à¤ļ
ĠC ath
ĠÑģ ÐµÐ²ÐµÑĢ
Ã³ lo
ut ing
ĠE ra
ĠÑĤ Ð¸Ð¼
ĠR oll
Ġáİ ¨
ud zi
à²° à²¨
ä¸ ģ
Ø§ÙĦ Ø¨
ran k
ou Ã¨
Î½ Ïī
ĠÐĲ Ðŀ
Ġha fa
lar Ä±nÄ±
Ġ×Ĳ ×ķ
Ġba x
Ġba ad
Ġku v
Ġku w
ĠÐĳ Ð°ÑĪÐº
ÄĽ r
à¤Ń à¤°
ji i
Ñŀ Ð»Ñı
Ġmet ung
ÑĭÑĪ ÑĤÐ¾
ĠØ² Ø§ÙĨ
à²³ à²Ĺ
ĠáĥĽ áĥĲáĥĹ
ĠáĥĽ áĥ£áĥľ
ula u
ire ann
Ġmen ing
à¨ķ à¨¸
åĽ ¢
Ġbo ut
à¬® à¬¨
ide o
Ġber k
Ġáĥ¡ áĥĺáĥĽ
ĠØ§ÙĦÙħ Ø¬
ĠÐ¾ÑĢ Ð¾Ð½
Ġà®ķ à®£
Ġkun is
à¹ģ à¸£à¸ģ
Õ¿ ÖĢ
ÖĦ Õ¨
æĭ ¼
apa i
áĪ¨ áĪµ
Ġlib o
inc oln
Ġdar b
ĠÐ¯ Ðº
ĠHo ch
Ð´Ð¶ Ñĭ
ÛĮÙĦÛĮ Ø¨Ø¯ÛĮØ±
ä½ľ åĵģ
Ġord en
Ġê° ľ
ĠìĹ Ń
Ġkomp on
æĵ į
ç² µ
Ġáİ¡ áıĨ
Ġprob ab
ĠÚ¯Ø¤ ØªÙĪØ±
Ġìĸ ¸
áıķ áıĺáı´
Ġslu Å¾
Ġ×ł×Ĳ ×ļ
Ġjedh amu
alir izo
ĠMedi um
d l
g ed
l angan
m Ã©
r or
t ong
x en
z Ã©
è Ľ
Ġ Õ¡Õ´
Ġd zi
Ð¾ Òķ
ĠÙ £
Ġl Ã¥
un isipaliti
Ġh oof
ĠS ea
ir ala
Ġw Ã²
ak ab
Ġi yi
ĠØ§ Ø¨Ø±
ĠØ§ ÙģØª
ĠM h
ik on
Ġin ay
ti u
Ġdi per
ÑĪ ÑĬ
Ø§ÙĨ Ø³
ĠE li
áĪ ¶
Ġà¬ Ľ
Ð¸Ð½ Ð¾
Ø´ Ø§
à½Ķ à½İ
Ġse orang
uk sen
ĠV at
ĠO wr
ĠÑĥ ÑĭÐ¹
ĠÙĨ Ø³Ø¨
ĠÙ¾ Ø§Ú»
Î¿ ÏĢÎ¿
Ø² Ûķ
ran ee
ĠÙĦ Ø§Ø³
Ġta f
ec tiv
ĠÐ¡ Ð¾ÑģÑĤ
àª° àªµ
tu ar
ĠÐľ ÑĥÑħ
ĠÐ¿ÑĢ Ñĭ
à½¡ à½ĵ
Ġdo e
ĠY onnant
all an
à´¯ à´ķ
Ġfor me
ĠAl man
Ãµ st
Ġti ek
Ġag inggana
åĲ ¾
sh ir
emp lo
Î¯ Î´
ass o
à¾Ĳ à¾±à½²
uc ation
íķ Ļ
ÑĭÑĤ ÑĭÐ½
Ã¶r p
Ã¤n t
Ġmi unisipaliti
Ġir ra
Ġbar ak
ÑĥÑĪ Ð°Ð½
Ûĭ ÛķØª
Õ«Õ ¦
à¸Ħ à¸¥
å¯ «
å¯ ¾
ÃŁ en
udi os
ÒĻ Ñĭ
Ð»ÐµÐ½ Ð°
ìķ Ī
Ġïº į
iche an
Ġà®Ĩ à®®
197 9
ĠÐ²ÐµÐ» Ð¸Ðº
ĠMil an
ãģķãĤĮ ãĤĭ
ĠÐ½Ð°Ð· Ð²
ĠÑĥÐ¶ Ð°ÑĪ
ĠBol iv
Ġà§© à§¨
çļĩ å¸Ŀ
Ġngu Åık
Ġktor Ã½
Ġactu al
ĠÙģØ§Ø± Ø³ÛĮ
ĠÑĤÐ¾Ð½ Ð°ÑĦ
Ġgreg Ã²r
çī©çĲĨ åŃ¸
ĠÐ°Ð´Ð· ÑĸÐ½
ĠÑģÐ¿Ð¾ÑĢ ÐµÐ´
ĠÐļÐ°Ð² ÐºÐ°Ð·
ĠÐļÑĭÑĤ ÑĪÑĭ
ĠJohns on
Ġyurit ayna
E C
s pr
í Ĵ
Ġd ire
Ġd han
in ki
ÑĢ Ð°Ðº
Ġs oc
à² Ĩ
áĢ Į
ar st
Ġt j
Ġm ili
is ko
Ð´ Ó©ÑĢ
Ġde de
Ġg Ã¡
ĠÃ ĺ
ĠS j
Ġw adan
ik er
ag un
Ġj el
id ea
ĠB ok
im eter
ĠT ang
ĠL l
ĠÐ± Ð¾Ð³
ĠI ha
ĠN akon
ÃŃ ne
ĠØ¯ ÙĪØ³
ĠÙħ Ø´Øª
ĠÙħ ÙīÚŃ
ĠG ur
ĠR im
ot n
ĠÐ´ ÐµÐ²
Ġà´ Ł
Ġch ooid
Ð¶ ÑĮ
Ð°Ñģ ÑĥÐ»
ĠÐ³ ÑĢÐ°ÑĦ
ĠÑħ Ð°Ð¼Ð°
ãĤ ¬
Ø§ÙĦ ÙĦÙĩ
ÑģÐº Ð¾Ð³
ĠÑĢ Ð°Ð³ÑĬ
ĠÙĦ ÙĪÙħ
Ñİ Ð¼
ÑĦ Ð°Ð²
Ġdel a
Ġne e
ĠÐ» Ð¸
Ûģ Ø§Úº
ĠÐŁ ÑĥÑĪ
ĠÐĳ ÑĥÐ´
ä» ģ
Å« ng
áģ Ī
àºĩ àº¡
Ġ×ŀ ×ŀ
Ø±ÙĬ Ø¯
Ġmed ie
æĹ ħ
ÅĦ c
Ð°Ð¶ Ðµ
Ġ×¤ ×ľ
Ġra i
éĢ Ĳ
ciÃ³n s
Ã¤Ã¤ t
àµ¼ à´·
Ġà²Ĩ à²¤
à¾¤ à½º
ĠMe ente
ĠCom un
Ġsch o
Ġaw al
ÑģÑĤÐ² Ð¾ÑĤÐ¾
àº¸ à»Ī
áĪ¨ áīµ
Ġìŀ ¥
Õ¸ÖĤÕ©Õµ Õ¡Õ´Õ¢
Ġ188 8
ãĤ¹ ãĥĪ
ÅŁt Ã®
Ð¸Ð½Ð³ ÑĢÐ°Ð´
êµ Ĳ
Ġë° Ľ
ÚĻ ÙĪ
ĠÐºÐ¸ Ð¸ÑĢ
ĠWa x
Ġê° Ļ
ÑĬÑĳÑģ ÑĭÐ·
kas adpan
ĠÐŀÑĢ Ñħ
ĠÐĲÐ· Ð¸Ñı
Ġdial ect
Ġequ ip
Ġngok uba
Ġkn own
ĠÑĩÑĭÐ» Ð´Ð°
ebu erg
ĠÑģÑĤÐ°ÑĤ ÑĥÑģ
ĠØ¨Ûģ Øª
áıĤáıı áıįáİ©
ĠáĬķ áĮī
ĠÕª Õ¡Õ´
ĠØ¨ÛķÚµ Ø§Ùħ
ĠØ±Ø§ÙĬ ÙĪÙĨ
ĠØ²ÛĮØ§Ø¯ Ûģ
ĠØ¬Ø§Ø¨ Ø²
ĠIndun isia
" ;
O C
b ek
Ġd isa
Ġd ike
Ġa haan
Ġp Ã¨r
Ġk oll
Ġk oko
Ġk andi
Ġl ate
Ġl ive
at ul
at ud
as je
ch Ã²
Ġh apit
om ha
Ġw Ã¶rd
ĠA ur
ĠA si
Ã© nd
ed ad
Ġy v
id hich
im es
ta p
Ñı Ð½Ð°
ĠK ali
ĠÑģ ÐµÐ´
Ñĸ Ð´Ð·
ĠN em
ĠÙħ Ø£
ĠÙĪ ØŃ
ï¼ ģ
ĠÐ´ Ð°Ñħ
à¦¿ -
ov Ã½ch
ĠV ald
ĠJ ndr
wa it
Ġst oria
Ð°Ð¼ Ð°ÑĤ
ip as
âĢĻ ,
ĠU NESCO
ĠÙ¾ Ø§
ĠÙ¾ Úļ
Ð¾Ð´ Ð°ÑĢ
Ø¬ Ø¨
Ø¬ Ø©
ĠÐļ Ñĥ
ung k
Ġet o
ĠÐĲ Ð¡Ð¡Ðł
Ø³Øª Ø±
à¦ķ à¦¤
äº Ĥ
ÐµÐ´ Ð¸Ñı
Ġà¤Ĩ à¤Ĺ
ens es
Ġë Ĳľ
oh en
res se
Ġog uer
ĠÐ¶ ÐµÑĤ
à¸ĩ à¸¡
àº° àºĬ
Ġgr und
ura i
Ġter let
Ġmet ri
enn en
be y
áĢ» áĢ¬
ĠÒ¯ Ð¹
ĠÒ¯ ÑĢÐ³
à¤ĩ à¤Ł
×ķ×ª ×¨
ĠÐ°Ð´ Ð°
Ø±Ø¨ Ø§ÛĮ
entr um
éĿ Ī
ä¾ Ŀ
ç´ ¢
è® ©
à²¥ à²¶
Ø¯ÙĨ ÙĦØ±ÛĮ
ĠlÃł m
æķĻ èĤ²
Ġidi oma
Ġwak ati
Ġsuper ficie
Ġáİłáıĵ áıħ
Ġout ros
Ġtsh ela
ĠWilli ams
áĪĨ áĬĳ
ĠÐ½Ð°Ñģ ÐµÐ»
Ġtran sp
ĠKong Ã³
Î¼Î±ÏĦ Î±
Ġkommun adir
ĠÐĲÐº Ð°Ð´ÐµÐ¼
ĠØªÛĪØ± Ùĥ
ĠÒĽÐ°ÑĢ Ð¾ÑĢ
ĠÐĶÐ°Ð³ÑĬ ÑĥÑģÑĤ
ĠáĥĽáĥĺáĥ¡ áĥĺ
ĠÐĽÐ¾Ð¼Ð¾Ð½Ð¾Ñģ Ð¾Ð²
ĠÐºÑĥÒ»Ð°Òķ Ð°Ð½
ĠFranÃ§ ois
ĠØªÛķÙĦ ÛķÙ¾
Ġstolat Ã©gÃ²
! !
A T
E x
P K
f te
j Ãł
k ien
m am
r una
Ú ĩ
è Ķ
Ġ ).
in ti
ÑĤ ÑĭÐ»
Ġm ali
Ġk ind
Ġk ira
Ġl á»į
Ġl imb
at to
Ġb ub
Ġb eb
Ġb ini
Ġb ard
am d
Ġh end
Ġv ista
Ġg im
Ġf Ã³r
ÙĬ Ø§ÙĨ
ĠS yn
ĠS unda
ir am
Ð³ Ð¾Ð²
Ġr ow
ik ana
ag ement
Ġy ii
id di
ĠB ac
Ä± stan
ra cy
ÑĪ Ñĸ
ĠØ¨ Ø§Ú©
ĠØ¯ ØªØ§
Ġz ik
ĠR ip
ri va
st on
à½£ à½Ĥà½¦
ĠÐ½ Ð¾Ñģ
Ò¯ Ò£
Ġch ui
Ð¶ ÑĭÐº
Äģ c
ĠØª Ùī
ĠW ald
Ġsa va
ĠÐ³ ÑĥÑĢÑĤ
up iter
sk rit
ong en
ĠÑĢ Ð°Ð²
Ð°Ðº Ð°Ð½
ĠÐ¡ Ñĥ
ĠÐ¡ Ð°Ð»
ÑĦ Ð°
Ø® ÙĦØ§ÙĨ
Ïĥ Î¼
ord on
ĠáĪ Į
Ġak w
åĲ ´
asa an
×ĳ ×ľ
Ġà¦¸ à¦¹
Òĵ Ð¾
ĠAr ist
ge h
áŀħ áŀĺ
ĠUn t
ĠÐ£ ÑĢÐ°Ð»
áĥĶáĥĳ áĥ¨áĥĺ
ĠÅ¡ upa
ĠÙĦÛķ Ø³ÛķØ±
Ġà²µ à²¸
áĥĲáĥ¨ áĥĶ
Ð³ÑĬ Ñĥ
Ġà´ķ à´£
yen z
çķ «
à»ģ àºģ
à¤ī à¤°
Ġà¬® à¬¨
Ġtab i
ĠLat v
Ð¿ÑĢ ÐµÐ²
ĠMus lim
Ġáį ²áį±áį»áį
éĹ ¨
åĽł ä¸º
äºĶ å¹´
áĥĶáĥĿ áĥļ
Ġdepart ament
à»ĥàº« àºį
Ġpog ost
Ġprez ident
mÉĻ k
ĠrÃ¨ g
Ġzitu en
Ġnec ess
ĠÒ¯Ñĩ Ò¯Ð½
ĠÐ¼Ð°ÑĤÐµÑĢÐ¸ Ð°Ð»
Ù¾Ø¯ÛĮØ§ Ø³ÛĮ
elee uwen
ylvan ia
ĠÑĤÐ°Ð¼Ð° Òĵ
ĠØ§ÛĮØ´ÙĦ Ø¯ÙĨÙĦØ±ÛĮ
Ġterlet ak
Ø®ÙĦØ§ÙĨ ÛĮÙĦÛĮØ¨Ø¯ÛĮØ±
A f
B e
c ke
n iej
o Ã«
s us
u ff
w ez
Ì Į
ĭ °
Ð» Ð¾ÑĢ
Ġt sch
Ġt ake
Ġm akan
Ġn Ã²m
Ġk Ã¬
is ang
el da
ÙĦ ÛĩÙĤ
ĠS ala
ir it
ĠM inn
Ùī ØºØ§
Ġin ti
ĠB uch
ta is
Ġdi vi
ĠD Å¾
ĠT Ä±r
ic ano
ĠÑģ Ð¾ÑĢÐ°
ay r
ĠØ¨ Ûİ
ĠÐ¿ ÐµÑĪ
ĠG ed
Ø¨ ÙĪÙĦ
ot es
ud ia
ĠÞ Ŀ
ci an
Ġal li
wa zi
ĠáĢ Ħ
Ġis an
Ġpr vi
ĠÐ³ ÑįÐ´ÑįÐ³
iz itza
ãĥ Ł
Ûĩ Ø´Ùī
ĠÙĦ Ú³
Ġta a
ĠÐ¡ ÑĭÐ»
Ġof te
à²ķ à²¨
ĠØ± Ø§ÙĪ
Äĥ Ð²
ens tein
Ġáı Ķ
ÑĭÑĢ ÑĭÑģ
à¦¼ à§Ģ
ĠØ¹ Ø§ÙĦÙħ
art in
à¸Ń à¸¥
à¦® à¦¤
à¦¬ à¦¤
ĠÑĦ Ð¾Ð»ÑĮ
aj ar
Ġàº ®
Ġàº ĤàºŃàºĩ
ĠÙĥ Ø§Ø±
×ĳ ×ķ×¨
åį ł
ĠØŃ ÙĪØ§ÙĦ
Ġem ak
à¦ĩ à¦ķ
Ġsk ulle
Ġ×© ×¨
ĠÃ¾ ess
ÅĦ o
Ġco untry
Ð´Ñĭ ÒĽ
ĠáĢ¡ áĢķ
amm ar
àµ¼ à´µ
Õ«Õ¶ Õ£
Ġà¦¦ à¦²
ÙĦØ§Ø± Ø¯Ø§
çĽ Ĭ
Ġà²ĩ à²µà²°
àªª àª¨
ubl ika
à¨µ à¨°
Ġprim o
×ķ×ł ×Ļ×Ŀ
Ġsur at
Ġ×Ľ ×Ļ
ĠÙĪØ§ÙĦ ÛĴ
Ġnov e
for me
éļ ¨
rod uk
ĠÐºÐ¾Ð» Ð³Ð°
à»į à»ī
198 3
ĠpÃ² d
ÑįÐ¶ ÑĮ
ĠPas kah
Ġpred stav
Ġwh ile
ĠÐ¼ÓĻ Ð³ÑĬ
ĠDist rict
åĦ ª
Ġwier d
ĠëĮĢ íķľ
ĠÐķÐ²ÑĢÐ¾Ð¿ Ð°
ĠWo od
roc od
Ġpartic ular
Ġáİ¢áİ¬ áıĤáııáıįáİ©
Ġlingu as
ĠÙħØ§Ø¯ Ø¯Ø§
Ġterd apat
à°ł à°¶
ÙĪÙĦÙĪØ¨ Ø¯ÙĪØ±
Ġà¤ľà¤¨à¤ªà¤¦ à¤¯
Ġáıĵáİ¶ áıĤáİ¨
ĠÚ¯Ø¤ØªÙĪØ± ÙĪÙĦÙĪØ¨Ø¯ÙĪØ±
U SA
b est
c en
c ur
d ate
j ara
ĳ ľ
in je
er ch
ÑĢ ÐµÑģ
Ġa un
Ġn ic
Ġn ego
Ġk asa
es us
un ar
Ð´ ÑįÑį
Ġc im
il gen
am Ã¡
Ġh ore
ĠS aw
Ġr ab
os es
ĠA re
us z
ak es
Ð°Ð½ Ð²Ð°Ð¹
ĠM ens
Ùī Ø¯ÙīÙĨ
áŁ §
Ø³ Ø©
ĠP Ã¥
Ġà¨ ı
ĠØ¯ Ø§Ø±Ùĩ
ÐµÐ½ Ñģ
Ġen i
ĠÎ ĺ
og an
og Ê»
Ġà® °
á» ı
ĠáĢ Ĭ
iy alar
ĠÑħ ÑįÑĤ
eb izitza
ĠÙĦ Ø§Ø²
yn u
Ð¸ÑĤ Ð°Ð»
tr ol
Õ¶ Õ¤
ĠÐľ Ð¸Ð½
×ľ ×ŀ
Ġba wah
Ġcom ena
àº²àº «
Ġog ni
ĠAn ne
ĠÚĨ ÙīÙĤ
áĢĻ áĢĬ
are y
ÑĭÐ¼ Ñĸ
áŀĽ áŀĬ
áĬķ áĪĿ
Ġgr amat
ĠÒ ĳ
à¥ĩà¤Ĥ à¥¤
ĠÐł ÐµÑģÐµÐ¹
à¹Ģà¸ ļ
Ġap o
Ġter et
ĠÐĵ Ð°Ð»
ust us
æĪ ²
ä¸Ģ ä¹Ŀ
Ġà²ħ à²®
Ġol araq
uf e
Ġ×ľ ×©
å· ®
Ð¸Ñħ ÑĮ
àŃŁ à¬¨
Ã©r Ã©
Ð¸ÑĪ Ð¸
Ø§Ú ³
ÅĻ e
Ġà²Ĩ à²¸
Ġmag n
Ġsub t
Ð¾Ð»ÑĮ ÑĪ
ember g
Ġval st
à¶´ à¶º
ç§ ģ
áĢĨ áĢĦ
à¨ª à¨¤
ago za
ĠÑģÐ¿ Ðµ
Ġbet g
è® ®
ism us
à¾¨ à¾²à¼ĭ
å§ ĵ
Ġà¹Ģà¸ ŀ
Ġ187 6
ê² ½
ëĤ ´
Ġkin ab
Ġcat al
Ġjan Ã«
ĠÃ¹ Å¼
Ġbha ile
Ġfut bol
Ġlit ter
ĠtÅį n
ĠëĤ ´
ĠÐ½ÐµÐ³ Ð¸Ð·
ĠÐ´ÑĢÑĥÐ³ Ð¸
ĠÑħÑĥÑĮÑĢ ÑĥÑĮÐ½
ì² ´
ĠTok yo
laÊ¼ ii
ĠÐ²Ó§ Ð»Ñĸ
Ġ×Ĳ×ĳ ×¢×¨
Ġgag we
à¸¤ à¸©
Ġ×ĵ×ķ×¨ ×ļ
Ġà¦ļà¦² à¦ļ
ĠÐ¥ÑĢÐ¸ÑģÑĤ Ð¾Ñģ
ĠÐ¿ÑĢÐ¾ÑĦÐµÑģÑģ Ð¾ÑĢ
udst aden
ĠÑİÑĩ ÑİÐ½
R o
U N
f h
p ia
w t
§ à¼
Ã ĩ
ê ¶Į
Ġ ÑĭÐ¹
Ġ áŀĲ
Ġp Ã¬
al aka
ÙĨ Ø±
âĢ ı
Ġo so
Ġg ala
Ġg itar
Ġf oto
Ñį ÑģÑĤ
ĠS Ã¼d
Ð³ ÑįÑįÑĢ
Ġr ich
om os
om me
ĠA ber
ak ukan
Ġi u
ĠM ov
ul uk
id ed
Ø³ Ø§ÙĦ
à¤¯ à¤¦
ĠT ran
ek ete
Ñĸ Ð½Ñĭ
Ø¨ ÙīÙĬ
à¤µ à¤¶
ap s
ap os
le w
ĠÐ¼ Ð°Ñħ
ci pe
Ġpr ik
ug ge
ÐµÐ» ÓĻ
Ð¾Ð¼ Ñģ
end re
ma cht
Ġpro ject
Ġcon fl
Ġka am
ada a
Ãº m
à²ķ à²µ
à¤· à¤®
Ð¾Ð³ Ñĭ
Ġper f
ata an
Ġcom ente
áĢĢ áĢĶ
áŀĺ áŀĶ
ÑĭÑĢ ÑĭÐº
ell ig
ĠÐ¶ Ð°Ð»
Ġx ar
áĢ¼ áĢŃ
ost on
ĠSt ro
Ġav en
Ġap ud
ÐµÐ² Ð¾
Ġmo Å¾
ĠØŃ ÙĪ
Ġgo e
Ġpa q
Ġkom t
ĠáĥĽ áĥĲáĥ®
ĠMar gar
áŀĩ áŀĶ
åĽ º
Ð¸Ð³ Ð¸Ð½
ĠØ§ÛĮ Øª
Ġáīł áĪĽ
ĠáĥĲáĥ ¥
ĠÏĢ Î±ÏģÎ±
ras te
ĠÃ½ ag
ĠÃ½ az
à¨® à¨°
ĠÅŁ Ã¤h
Ġmer id
Ġho at
its che
ĠÔ »
ĠØ¦Ùī Ùĥ
çķ ª
è¡Į æĶ¿
åĸ ľ
ç» Ħ
ĠØ¨ÙĪÙĦ Ø³Ø§
jon ali
Ġhabit ants
ĠÚĺ ÙĪ
Ø´Ø± Ø§Ø¨
ÑģÑĮÐº Ð¸Ð¹
Ġà½ĺ à½ĳ
ĠPort ug
ĠÐ¼Ð°ÑĤ ÐµÑĢ
à½ĸà½ı à½ĸ
Ġkem udian
ĠÑģÑĭÐ» Ð»Ð°Ð°Ñħ
ĠÙĤØ§ÙĨ ÙĪÙĨ
Ð½ÐµÐ½ Ð´Ð¸
æ¶ Ī
ÉĻrÉĻ f
Ġbec ame
ĠHab s
ĠMagn oli
ĠÃħ rs
çħ §
é¨ İ
Ġinsp ir
Ġáı´ áı«
Ã«tz ebuerg
ĠÐ¿ÐµÑĢÐ¸ Ð¾Ð´
gll Ã©se
Ġfayy ad
A D
G o
d Ã¨
r k
Ġ Ð°Ð½Ð³Ð»
Ġd ud
Ġd ate
in j
Ġs ke
Ġm Ä«
Ġn yn
at ge
Ġb oz
Ġc Ã¡
Ġc ola
Ġf oki
ĠM ala
Ġy eh
id ge
ĠK ana
ĠÐ± ÐµÑĤ
àŃ §àŃ
ut os
ĠE liz
ĠG em
Ñĩ Ò¯
Ñĩ Ð¸Ðº
Ñĩ Ð¸Ñģ
ĠÚ© ÙĦÙĩ
ĠÐ½ Ã¦
ĠÐ² Ã¶
est in
áĥĺáĥ ¤
iv at
ĠÑĥ Ð¿
ĠØ¬ Ø¨
ÑĥÑĢ Ð³
ãĥ Ļ
ka ch
Ã® na
Ã§ as
Ð¾Ð¼ Ð±
×Ĳ ×ļ
Ġas os
ÛĮÙĨ Ø¯
Ġof icial
áŀĢ áŀļ
lar e
à¶± à¶¸
ĠÑĩ Ð°
Äĥ n
ĠÐ¿ÑĢ Ðµ
Ġë Ħ
ĠØ® Ø¨Ø±
Ġsi Ê»i
ĠÑį Ð±
Ġth áº¿
Ð¸Ð¼ Ð¾
ä¹ Ĳ
áģ ĥ
ĠÚĨ Ú©
za j
å® Ł
Ġman ana
Ġáİ¤ áİ¶
Ġfr ont
ĠÐĿ Ð°ÑĢ
àªķ àª°
ler ine
ĠÑģÑĤ Ð°Ð²
ĠMa in
sp an
à°Ł à°²
à¸« à¸²à¸£
Ġfo otball
Ġà²¨ à²²
10 6
ĠÅŁ i
ĠMe e
éĽ ħ
ĠÑĥÐ» ÑĥÐ³
Ġsam t
ix i
Ġist o
ĠAb ra
Ø§Ùģ Ø¸
áĥĴ áĥłáĥĲáĥ¤
Ġspe cial
áı³ áİªáıĽ
asan ya
Ġair son
áĥĻ áĥ·áĥĽáĥĲ
è© ¦
Ġinv ol
198 5
áĥłáĥ «
Ġà¶ĳ à¶¸
ãĥ¼ãĥ ī
à»Ģ àºĻ
æı ´
è£ ħ
Ä±lÄ± q
æº ĸ
ĠÚı ÙĬ
Ġà¶ī à¶Ń
igg hi
é© Ĺ
Ð´Ñĸ Ò£
ĠÐĿÐ¸Ðº Ð¾Ð»Ð°Ð¹
Fran ce
ĠÕ´Õ¥Õ »
ĠØ³ÙĪØ± ÛĮÙĩ
ĠØ§ÙĦÙĦ Ûģ
ĠÐ¿ÑĢÐ¾ÑĨ ÐµÑģÑģ
ÙĨÚ« ÙĦ
áİ¬áı©áİ¶ áıĹ
Ġistiq omat
ĠÐ¦Ð¸Ð»Óĵ Ð¶Ó¹
B O
b ÃŃ
e ÅŁ
h ong
Ġm iss
Ġk una
ÙĨ Ûķ
à´ ĺ
il im
Ġe adar
ĠA gr
Ð°ÑĢ Ð´Ð°
id ia
ĠP rop
ĠD z
ĠC anton
ĠL av
ĠK od
ĠK ru
ĠØ¨ ÙĪÙĨ
Ġz if
ut to
Ð± ÑĥÑĤ
Ø¨ ÛķØª
ĠR as
ri y
ĠÐ½ Ð¸Ðº
ĠJ ersey
ĠW er
iv es
ers che
ÅŁ k
ara an
ãĥ ı
ĠÐļ ÐµÑĩÐµ
io un
ij Äģ
Ġto et
à®ķ à®²
ĠÑĪ Ð¾Ñĩ
ĠØ¢ Øª
ÚĨ ÙĪ
emb ang
Ġest Ãª
ĠÙĬ ÙĪÙħ
Ġab s
sh Ä±
ess ion
áŀĸ áŀī
ĠAr men
mi i
Ġkom b
ĠÐĿ Ð°Ð¹
ĠÛĮ Ø¹
af i
Ġang gota
×Ļ×Ļ× ¨
Ġmat em
ino is
ĠÐĽ ÑĬ
ÙĦÛĮ Ùħ
Ġpu eb
éĻ £
alar y
Ġà¶¸ à·Ħ
Ġten k
Ġáİ¦ áı¬
ĠBa u
ÒĻ ÑĭÒ£
Ġmon di
Ġpolit ic
Ġ188 3
ĠÐºÑĢ Ð°Ð¹
Ġnet work
Ġsitu at
ÄĿ as
ĠÑĤÓ¹ ÑĢÐ»
ĠÑıÑĢ ÑĭÐ½Ð°
Ã¦Ð» Ã¦
Ġfot ograf
ĠÐ±Ð°Ð» Ð°Ð½Ð´
Ġíķ ¨
Ġsemp re
Ġsvo je
ĠÐ¾ÑĢÐ½Ð°Ð» Ð°ÑģÒĽÐ°Ð½
b Ã³l
f ani
f ace
k ot
m Ä«
n tu
r ika
r á»į
w iz
ÑĢ Ð´
Ð¾ Òĵ
Ġp yr
Ġn aka
es imal
it ude
Ġv ila
Ð¼ Ð½
à¤° à¤Ĺ
ÙĬ Ø´
Ġr upi
Ġr hy
ĠÑ Ĺ
ag ana
ti b
Ð· Ñĥ
ĠØ¨ ÙīØ±Ùī
ĠI h
ĠN ur
ĠÙĪ ÙĥØ§ÙĨ
ĠH Ã¨
qu it
Ð¾ÑĢ Ð²
est en
ĠØª Ú¾ÛĮ
Ġle it
ĠÑħ ÑĥÑĥÐ»
ĠØ¬ ÙĪØ±
eng n
eb at
Ġel ego
Ð¸Ð» ÑįÐ½
ez et
à¸²à¸ Ĥ
ĠØ± ÙĪØ³
Ġam an
ÙĪÙĦ Ø§
ĠØ¢ ÛĮ
áŀĦ áŀĽ
ĠY an
ĠÚ¯ Ø±Øª
ĠCh urch
Ġx alÄ±q
Ġand a
ye u
mi Ãłng
ĠØ² ÙĨØ¬
ĠáĥĽ áĥ£áĥ¨
Ġdal la
áİ© áıįáıĹ
Ġmed eltemperaturen
ĠÑĨ ÐµÐ»
Ġ×© ×ĺ×Ĳ
Ġà¦Ĩ à¦²
áıĽ áİ¾
Ġgen o
ä»¥ çĤº
Ġfo und
à¾¤ à½¼
Ġà¥§à¥ ª
ĠÑĥÐ» ÑģÑĭÐ½
É£ t
adh na
Ġaw á»įn
à»ĥ àºĪ
ĠTr in
à¤µà¤¤ à¤¨
Ġvers ion
ĠÙħØ¹ Ùħ
imp in
Ġà¤īà¤ª à¤°
ĠØªÙĪ Ú¯Ùĩ
è¾ ¦
ĠÑĥÑĩ Ð¸Ð»Ð¸
Õ¡Õ¾ Õ¡ÖĢ
ĠÐºÐ¾ÑĤ ÑĢ
ĠÐ¿ÑĢÐ°Ð² Ð¾ÑģÐ»Ð°Ð²
ÙĦÛķØ± ÙĨÙīÚŃ
æŃ£ å¼ı
ãģ¾ ãģ§
Ġtemper atur
Ġsiy as
æĴ Ń
ĠÒļ Ð°Ð·Ð°ÒĽ
ĠHind u
Ġett Ã¤
ĠNig eria
ÑĺÐµÐºÑĤ Ð¾ÑĤ
ĠJumi eka
ĠÑħÓ©Ð³ Ð¶
ÓĻÐ»ÓĻÐº ÓĻÐ¹
ĠÑĤÓ¹ÑĢÐ» Ó¹
A d
C o
a us
d re
p j
r ÉĻ
w ind
y je
Ġ Ð°Ð½ÑĤ
Ġd ys
ar le
Ġp ont
Ġn Ã¦r
Ġl ama
Ñĥ ÒĽ
Ġb ya
el em
el je
Ð´ ÑĥÐ»
am al
Ġh Ã¥
Ġv ann
Ġg itas
ĠS Ã®
Ã© rie
Ð°Ð½ Ðµ
ik un
Ġy uta
ul f
Ûķ Ø²
te el
ĠD aw
ĠC ant
ĠK le
ab ba
Ġz ie
ĠÑĤ Ð¾Ð²
ĠÑĤ Ð¾Ð³Ð¾
od on
ĠH em
Ġun ner
ri en
Ð°ÑĤ Ð¾Ð²
st rat
Ġu ban
Ġáİ ©
ĠÐ² Ð»
ĠØ³ Ø§ÛĮÛĮ
Ġal ta
ĠW el
Ġà® ľ
Ġst al
Ġst ata
ĠÑħ ÑįÐ´
×¨ ×Ł
Ã² s
áŀļ áŀĽ
à¸Ļ à¸ĺ
à¦ķ à¦Ł
à¤· à¤¸
Ġam ba
tr ic
à¸£ à¸£à¸¡
ĠÙĤ ÙĪØ±
ĠIn w
ÑįÐ½ ÑĤ
ĠØ® Ù¾
ĠØ® ÛĬ
Ð¾Ñģ Ð»Ð¾Ð²
Ġáĭ ķ
ĠÚĨ ÛĮÙĨ
Ġmu ch
ane y
lo ch
aka x
Ð¾Ðº Ð°
ins Ã©
ÛĮÙĦ Ø§Ø±
à¸¡ à¸²
ÑĭÑĪ Ð¾
Ì¤ .
Ġob las
ÖĢÕ »
Ø±ÛĮ Ø²ÛĮ
æĺ Į
Ġge ograf
Ġol muÅŁ
ĠÓ© Ð½Ð´
enti on
Ġfam ÃŃ
uf i
Ð°Ð¶ Ð´Ð°Ð½
Ġvar maste
Ġza i
eni u
áıħ áıĹ
ĠÎ± Î½ÏĦ
Ð¸ÑĪ Ðº
æ° Ĺ
ÑĥÐ¿ Ð°
Ġà²Ĩ à²«
Ð¾Ð¶ ÑĥÐ¼
ĠÐķ Ð²
Ġdir ig
Ġnom oro
Õ¡Õµ Õ¸ÖĤÕ´
Ġà¶ħ à·Ģà·ĥ
æ² ¡
ĠÃ® nt
àªľ àªķ
×ķ×ł ×ķ×ª
ÉĶ lÉĶ
ĠÑĢÐ°Ð· Ð»Ð¸Ñĩ
Ġsim pl
Ġ187 7
á¹£ a
istan Ãª
áĥĶáĥĹ áĥĺáĥ¨
Ġáį Ī
Ġbro j
Ġbro adcast
àº¼ àº±
Ġwak imbizi
unc il
çį İ
áĥĺáĥłáĥ ¡
èİ ·
med eltemperaturen
ĠÙĤØ§ÙĨ ÛĩÙĨ
ĠWh ite
æ» ¿
à¸£à¸ĩ à¹Ģà¸£
Õ¸ÖĤÕµ Õ¶
ĠÏħ ÏĢÎ¿
Ġì° ¨
Ġì° ¸
Ġkall aste
akti bo
Ġzosta ÅĤ
ĠSran ank
ĠTex as
ĠDez ember
chid aceae
ÛĭØ§Øª ÙĤØ§ÙĨ
Ġfej n
ĠbÃŃlaÊ¼ashd laÊ¼ii
ĠOwr ur
Ġemak ume
ĠÃħrs medeltemperaturen
. ;
I r
P as
c tic
k Ã¤
l ow
l ina
m ur
m and
m Ã¤Ã¤
p lan
t um
y ske
Ù Į
Ġ à½ĩ
an us
Ġd Ã¶n
Ġm Ãº
Ġm usi
Ġk ere
Ġl ast
Ðº ÑĥÐ½
Ġc Ãªu
Ġg ih
Ġf og
Ġf ari
ĠS S
Ġr ing
Ġr aya
Ġà² Ĭ
Ġj is
Ġj il
ĠP om
ĠP ac
Ã¡ ne
Ġdi y
à¤ķ à¤µ
ĠK ore
ĠK han
ĠÐ± ÑĭÐ²
ay rt
ek ke
ĠN on
ut Ã©
ĠÐ¿ Ð°ÑĢÐ°
eg na
Ġna ziun
ap ar
ĠÐ¼ Ñı
ĠÎ ¶
ĠV un
wa ÅĤo
ĠÙĨ Ø®
ĠÙ¾ Ú¾
ãĥ Ħ
Å¾ io
Ġ18 40
ĠÐļ Ð°Ð¼Ð°
io c
lar ida
ce j
ĠÐ» Ð¸Ð¹ÑĭÐ½
Ġdo ar
ĠÚ¯ Øª
áŀı áŀĶ
ard Ä±
ĠáĬ ĵ
ier re
Ġth ree
Ġáĭ ĭ
Ãµ i
Ð¸Ñģ ÑĥÑģ
Î· Î³
ĠáĪ ļ
ÐµÐ¹ Ñĭ
ÐµÐ¹ Ð¸Ð½
Ġak hir
lan adÄ±
à²ª à²¤
ert h
Ã£ zÃ«
ĠLa ur
áĢħ áĢħ
ĠÃł dd
ÑĥÐ³ Ð°Ð»
àºĻàº ³
æĪ ¿
áĥł áĥĶ
àº¥ àº²àºĬ
uss ia
éĻ µ
à¾¤ à¾²à½¼
áĥĲáĥļ áĥ£
Ġast ron
unn en
ubl ice
Ġchi am
Ġdist rik
ĠÄ« tÅį
ĠEs c
Ġinc lu
Ġkir k
ĠPer u
ĠáĥĿ áĥĳ
Ġmul tu
ĠÐ½Ð¾ ÑıÐ±ÑĢ
198 7
larÄ± na
áĥłáĥ ĵ
è² »
ãģĵ ãĤĮ
çº ¿
à»Ĥ àºĶàºį
Ġà´Ĩ à´¦
Ġses wai
ĠJac kson
ëĵ¤ ìĿ´
ĠáĪĪ áĪĺ
Ġcer ca
à°¥ à°®
Ġkia h
kr ing
á¹Ń á¹Ń
omet shela
ĠØ®ÙĦ Ú©
íĺ ¸
Õ¡Õ· Õ¿
Ġstro bo
ĠApp le
ĠÐ¼Ð¸Ð» Ð»Ð¸
ĠImper io
ĠØ¦ÛĨØªÙĥÛĪØ² ÛĪÙ¾
ĠÐ°Ð»ÑĮÐ± Ð¾Ð¼
Ġdigun akan
ĠÐ¾Ð·ÑĭÐ½ Ð»ÑĭÐ³Ñĭ
ĠSranank ondre
c it
g Ãµ
l ok
l oh
m Ã¢
q ala
r ti
Ð° Òķ
er z
ÑĢ ÑĭÐ½
à¦ ħ
ÑĤ Ò¯
Ñģ ÑĭÐ·
Ġp Å¯
Ġm iyan
Ġl iba
or re
Ġc ell
Ġg oll
ĠS ag
os k
Ġw Ã¶r
ĠM uk
Ùī Ø¯Ø§
ĠÐº ÑĸÑĢ
ĠL eta
ra ad
ĠK ub
ĠÑģ ÑĭÐ½
ĠÑģ ÐµÐ¿
ĠØ¨ Ø³ÛĮ
ek to
Ġz or
ri x
ÐµÑĢ Ðµ
ĠÐ´ Ð·Ðµ
ie i
Ã¶ Ð¹
ĠÐ½ ÐµÐ²
Ãª la
Ãª di
Ð¾ÑĢ Ð¾Ð²
li y
ĠJ ez
ĠJ ugos
ĠÐ³ Ð»
Ġst yr
Ġst ruct
ĠÑĥ Ð¿ÑĢÐ°Ð²
ĠØ¬ Ú¾
ãĥ İ
ÑģÐº Ð¾Ð¿
ĠÙĦ Ø£
Ø¬ ÙĦ
ÖĢ Õ«
Ġka ik
Ġha ar
ĠØ± ÙĪÛĮ
Õ¶ Õ¡Õ¯Õ¡Õ¶
ĠÐ¿ÑĢ Ð¸Ñģ
à²µ à²²
à²µ à²£
Â» ).
à®¤ à®©
Ġq Ã¹i
áıĹ áıĴ
ani ja
ĠZ o
ard ie
ä» į
áĢŀ áĢĦ
any ika
à¦¸ à¦ķà¦²
ÐµÐ² Ðµ
à¦Ł à¦¨
åĪ ¤
ts te
Î¯ Îº
Ġfr ag
ĠØ¯Ø± Ø³
áİ¾ áİ¯
áīµ áĬķ
aw i
ĠÑĨ Ã¦ÑĢ
iss u
×§ ×¢
jo en
Ä±r g
ash ch
ema in
ÑĥÑĪ Ð»Ð°
ĠAm b
Ġing Ã¥r
Ð°Ð»ÑĮ Ð½Ð¾Ðµ
ĠKo ta
ĠDi al
Ġkr usu
çĽ £
ĠØ¨Ø± Ø®Ùĩ
Ġà¤§ à¤¨
pu is
ĠÙĩÙħ Ùĩ
å½ ¹
ê° ľ
ãĥ³ ãĤ°
ĠÙħØŃ ÙĦ
cy ji
Ġins an
è® Ģ
Ġnum ero
itar ranee
Úĺ ÛĮ
áĥĺáĥļ áĥĺáĥ¡
ĠÐºÑĥ Ñĭ
Ġà¶ĳ à·Ħ
Ġáį į
ĠMed itarranee
ĠÐŀÑĢ ÑĥÑģ
Ġnal ika
ĠNu eva
Ġà¶¢ à¶±
ĠØ¨Ø§Ø² ÛĮ
Ġotr as
Ġà¤ľà¤¨à¤¸ à¤Ļ
ãĤ¿ ãĥ¼
ĠÙĦÛĮ ÛĴ
Ġà¸Ľ à¸£à¸°
Ã¨k Ã©
ĠÐĲÑĤ Ð»Ð°Ð½
Ġáİ¤áıĻ áı¢áıĴ
ë¶ Ħ
ĠÐºÐ¾ÑĤÑĭÑĢ Ð¸ÑģÑĮ
áıĤáİ¬ áİ¬
ĠÐĹÐµÐ¼ ÑĦ
ĠÐ³ÐµÐ½ÐµÑĢ Ð°Ð»
ĠgÃ¶rn Ã¼ÅŁ
Midd eleeuwen
ĠÐ¼ÓĻÐ³ÑĬ Ð»Ò¯Ð¼
ĠMagnoli opsida
A M
G u
f era
j us
j Ã¤
k Ã³
l ji
m ad
m id
v Ä«Å¡u
Ã Ĺ
Ã ľ
an cia
Ð½ Ð°Ð³
Ġs ast
Ġs ano
Ġs Ã¡n
Ġm adi
Ġk res
Ñĭ Ð´Ð°
un al
un ter
Ġg c
Ġg aba
ÙĬ ÛķØª
ĠS hi
os ter
ĠM ut
ĠP end
ĠÐº ÑĢÐ¸ÑĤ
ang go
ĠÙħ Ø§Øª
ĠÙħ ÙĨÙĩ
ĠÙħ Ø§Ø´
ĠÑĤ Ð°ÑĤÐ°ÑĢ
od ar
Ð¿ Ð°Ñģ
Ð°ÑĤ ÑĤÐ°ÑĢ
×ķ ×ķ
ÑĭÐ½ Ð½Ð°Ð½
Ġch or
ĠØ³ ÙĪÙħ
ĠØ³ ÙĬÙħ
ĠØª Ø§Ùħ
Ãł re
Ã¦ ra
ĠÕ ĸ
ĠU K
se a
az io
ĠØ¦ Ø§Ø²
Ø¦ Ø´Øª
à¸²à¸ °
à¤ľ à¤µ
Ġha qq
Ġam o
æľ ±
ĠÑĩ Ð¾Ð½
ĠÚ¯ Ø¦ÛĴ
ÚĨ Ø±
ĠÐ¶ Ò±
Ġso it
áģ ĩ
ĠÚĨ Ú¾
Ġap le
Ġmo y
Ġkan al
ula i
à°¯ à°¨
Ġok okuba
Ġà¤Ľ à¤¤
ïº ĺ
Ġra ja
Ø§Ùĩ Ø±
Úª ÙĨ
Ò¯Ð½ Ò¯Ð½
Ġyang o
Ġpri p
ĠÑŀ Ñģ
Ġáİ¤áı Ķ
ĠÙħÙĪ Ø§ÙģÙĤ
Ø§Ø¹ Ø©
Ġtur n
Ġeg in
áİ³ áıħáİ¯
ÛĬ ÙĨ
Ġvol ta
ĠØ±ÙĪ Ø³ÛĮ
ãĢĭ ãĢģ
è³ ´
by gg
ĠÐ¿Ð¾Ð» ÑĥÑĩ
ĠÐ¹ÑĭÐ» Ð´Ð°
à¦°à¦¤ à¦°
ĠMas o
198 6
ĠrÃ© ew
iej ÄĹ
ĠKu ala
Ġqab u
ĠÐłÐ¾ÑģÑģ Ð¸Ð¸
Ð¾ÑģÑĮ ÑĤ
ÑģÐµÐ½ Ð½ÓĻÐ½
ĠCer ro
ë¶Ģ íĦ°
Ġà¤ħà¤² à¤Ĺ
ĠlÄĽ ta
Ġetx ebizitza
åĳ¢ åĢĭ
ĠÏħ ÏĢ
araq al
ĠØªÙĪØ± Ú©
íĨ µ
Ġstanov nika
ĠëĶ °
ĠCors ica
Ġllaqtan qa
ĠtÅįn alli
/ )
A nd
j ud
l Ã¢
m ina
u os
v l
w ich
x y
x ia
Ù ¦
ì ¤ĳ
Ġd ÃŃÃŃ
ar si
Ġm Ã¬n
Ġk urs
Ġb iti
Ġb org
as tu
as Ä±nÄ±n
or z
ÙĦ ÙħØ§ÙĨ
Ðº Ð¾Ð»
Ġc Ã£
il Ã¶
am Ã¼
Ġh Ä«
Ġh orm
Ġv s
ĠS ri
ĠS amar
os te
Ġw Ã«
Ġw ant
Ġj iske
ĠB all
ĠP ublic
ĠP ower
ĠÐº ÑįÐ»
ĠD ia
ĠT ul
ĠL Ãª
ĠK hi
ĠÑģ ÑĳÐ»
and ing
×Ļ ×ķ×Ł
ÃŃ och
ĠÙħ Ø¦
ut ra
Ġla innya
ĠG az
ĠH ard
Ð¸Ð½ Ñĥ
Ġch r
ĠØ³ ÛĩÙĦ
ÙĤ Ûĩ
ĠÐ¾ ÒĻ
ĠW olf
ĠO c
ĠO nt
Ġsa a
da v
Ð¾Ð² Ð°Ð½Ð¸Ñı
à¦¨ à¦¯
ĠÐ³ ÑįÐ¶
ĠÑĥ ÑĭÑĨÑĭ
ĠÙĨ ÙĩØ§
ob raz
Ø§ÙĦ ÙĪ
ĠÙ¾ ÛĲ
ĠÙ¾ Ø§Ø´
áĬ ¤
ĠØ¬ ÚıÙĩÙĨ
Ġel i
Ùĥ Ø³
Ãº va
åħ °
Ġto im
ÐµÐ¼ Ðµ
à¤· à¤¦
ĠÐ¿ÑĢ Ð²
ĠØ¢ Ø®Ø±
ĠØ¹ ÙĤ
à´¯ à´Ļ
ãĢģ ãĢĮ
ĠÑį ÑģÑĮ
Ø§Ø¯ Ø§Ø±
Ġgr ond
Ìģ -
Î¯ Î¶
Ġpa i
ĠÐĵ ÐĨ
Ġ16 00
gi Ã¹
Ġmas ih
Ġmas yin
ĠÓ© Ò«ÑĤ
Ġfi at
Ġur i
à¸ª à¸³
á»¥ war
à°¸ à°°
à¹ģ à¸¡
Ġdist r
Ġdist rict
åī §
ÙĨÚ ģ
Ġcr isti
ĠáĥĿ áĥĽ
Ġmb Ã«j
Ġbel li
à½ĸà½Ł à½ł
ÑįÑģ Ð¿
ÛĮÙĦÛĮ Ø³ÛĮ
áİ¶ áİ¯
Ġìķ Ī
Ø§Øµ Ø±
ÏģÎ± ÏĨ
Î¿Ïį ÏĤ
Ġmut ane
Ġanc ora
ãĥª ãĥ¼
àºĻàºĹ àº²àºĩ
ĠCha idh
Ã§Ã§ Äķ
ĠáİłáıĤ áı¯
ĠÚ©Úĵ ÙĬ
Ġill o
ĠÙħØ¯ ÙĬÙĨØ©
áĭĺ áĪĺ
ĠÐĿÐ¸Ðº Ð¾Ð»Ð°
ĠÃ§ÑĥÐ» ÑħÐ¸
Ġáĥĵáĥĺáĥĵ áĥĺ
ĠÕ¡Õ·ÕŃ Õ¡Õ¿
ĠÑĢÐµÐ² Ð¾Ð»Ñİ
á»¥war á»ĭ
B o
E D
P L
T e
c á¹³
h ia
r ata
u Ã¢
Ġ Ó§
ar Ã¢
Ġt lah
el it
et in
Ġc c
Ġh ard
Ġv iene
Ġv áºŃt
Ñį ÑĤÐ°
ol iz
Ġr Ã©s
Ġw ys
ĠØ§ ÙĤ
Ġin aktibo
ed in
Ġy ma
Ð°ÑĢ Ð°ÑĢ
ĠP it
ĠP oh
ĠÐº Ð¾Ð¶
ĠT erra
ia ur
ĠK ath
Ð°Ð» Ð³Ð°
and on
ĠN ation
Ġla a
ĠH omer
st el
ĠÚ© Ø¦ÛĮ
qu er
Ú© ØªÙĩ
Ð¾ÑĢ Ð³
Ġal daw
ĠÐ¾ Ð»Ð°ÑĢ
Å¡ anas
Ġle ad
Ġar pet
ĠÙĨ Ûİ
ãĤ ½
Ø² Ûĩ
à§° à¦¦
Ġel em
ĠÐ· Ð¾ÑĢ
ĠÐ· Ð½Ð°
ĠÐ· ÑįÑĢÑįÐ³
ou x
Ãº p
Ã½ un
Ġ×Ĳ ×ķ×ł
ĠÙĤ Øµ
Ġà¤¬ à¤ļ
ĠÐ» Ð°Ð¼
Ġq on
áŀĦ áŀļ
Ð¾Ñģ ÑĭÐ½
ate ur
ä» ĺ
Ġtr Ãł
Ê¼ e
Ñĺ ÑľÐ¸
ĠÙĬ ÛĩÙĤÙī
ĠÙĥ Ø¨ÙĬØ±
Ġ17 00
ins ia
åį Ķ
ĠØŃ ÛĮ
yd ir
be e
ÛĪ Øª
Ð½Ðµ ÑģÑĤÑĮ
yl Ã¤
à°¤ à°¨
ĠØ§ÙĨ ÙĤÙĦ
Ġah te
Ð½Ñĸ Ñĩ
Ø¶ Ø§Ùģ
Ġmin ister
Ġing l
Ø§Ú ĳ
ĠÃ½ ok
Ð°Ð»ÑĮ Ð½Ð¾Ð¹
àª¸ àª¨
ä¼ Ĳ
Ġpod ug
à¸²à¸£ à¸ĸ
Ġmod o
Ġkw aye
å¥ ĩ
ĠÐºÐ¾Ð½ ÐºÑĥÑĢ
aha an
ĠáĥĻ áĥĿáĥĽ
Ġyi wen
ĠKar jalan
onom ia
Ġjed an
áĪ¨ áĭį
ĠÎ¿ Î¼
ĠpÅĻ ÃŃ
áĥĿáĥł áĥĺ
Ġ186 8
åħ¥ éĿ¢
ĠÙħÙĤ Ø§Ø¨ÙĦ
197 1
Ġperi ode
ĠFo x
Ġ×ķ×ķ×¢ ×Ł
ëĵ¤ ìĿĦ
à½ĸà½ı à½Ĥà½¦
Ġtamb e
áıŁ áıĮ
ĠØ§Ø¹ ÙĦØ§Ùħ
ØªÙĨ Ø¹
gb Ãł
Ġtá» ķ
ĠSto ck
Ġkaw asan
ë©´ ìĦľ
ì° ¨
Ġgebru ik
Ġtiemp o
ìĤ °
ĠWars za
ĠAstero id
Ġteret Ã³re
N e
c em
f Ã©
m ana
w il
x ico
Þ ļ
â ĪĴ
æ ¤
à½ ¾
an ci
Ġs Ä±
Ġs zt
Ð» ÐµÐ¹
Ġt z
Ġt uh
Ġt ÉĻrÉĻf
Ġn wa
Ø± ÛķÙĥ
Ġb ata
Ġb oj
un ion
Ð´ ÑĥÐ³Ð°Ð°ÑĢ
Ðº Ð°ÑĪ
Ġg we
Ġe de
Ġe ach
Ġe igen
à· ŀ
Ð³ Ð°ÑĢÑĭ
Ġr Ã³w
Ġr oto
Ġi ÅĪ
im Ã¤
ĠÐº Ð¾Ñģ
Ġdi ven
ĠL ind
ra ft
ĠK uta
ĠG and
ĠR Ã©p
ĠÐ´ ÑĥÑĮ
la i
Ġch á»ī
est s
ĠØ³ Ø±Ø¯
ĠØª Ø§ÙĨ
Ġsa q
[...]
