{
  "version": "1.0",
  "truncation": null,
  "padding": null,
  "added_tokens": [
    {
      "id": 0,
      "special": true,
      "content": "<s>",
      "single_word": false,
      "lstrip": false,
      "rstrip": false,
      "normalized": false
    },
    {
      "id": 1,
      "special": true,
      "content": "<pad>",
      "single_word": false,
      "lstrip": false,
      "rstrip": false,
      "normalized": false
    },
    {
      "id": 2,
      "special": true,
      "content": "</s>",
      "single_word": false,
      "lstrip": false,
      "rstrip": false,
      "normalized": false
    },
    {
      "id": 3,
      "special": true,
      "content": "<unk>",
      "single_word": false,
      "lstrip": false,
      "rstrip": false,
      "normalized": false
    },
    {
      "id": 4,
      "special": true,
      "content": "<mask>",
      "single_word": false,
      "lstrip": false,
      "rstrip": false,
      "normalized": false
    },
    {
      "id": 5,
      "special": true,
      "content": "<sep>",
      "single_word": false,
      "lstrip": false,
      "rstrip": false,
      "normalized": false
    },
    {
      "id": 6,
      "special": true,
      "content": "<cls>",
      "single_word": false,
      "lstrip": false,
      "rstrip": false,
      "normalized": false
    },
    {
      "id": 7,
      "special": true,
      "content": "<nl>",
      "single_word": false,
      "lstrip": false,
      "rstrip": false,
      "normalized": false
    },
    {
      "id": 8,
      "special": true,
      "content": "<tab>",
      "single_word": false,
      "lstrip": false,
      "rstrip": false,
      "normalized": false
    },
    {
      "id": 9,
      "special": true,
      "content": "<zwnj>",
      "single_word": false,
      "lstrip": false,
      "rstrip": false,
      "normalized": false
    },
    {
      "id": 10,
      "special": true,
      "content": "[U1]",
      "single_word": false,
      "lstrip": false,
      "rstrip": false,
      "normalized": false
    },
    {
      "id": 11,
      "special": true,
      "content": "[U2]",
      "single_word": false,
      "lstrip": false,
      "rstrip": false,
      "normalized": false
    },
    {
      "id": 12,
      "special": true,
      "content": "[U3]",
      "single_word": false,
      "lstrip": false,
      "rstrip": false,
      "normalized": false
    },
    {
      "id": 13,
      "special": true,
      "content": "[U4]",
      "single_word": false,
      "lstrip": false,
      "rstrip": false,
      "normalized": false
    },
    {
      "id": 14,
      "special": true,
      "content": "[U5]",
      "single_word": false,
      "lstrip": false,
      "rstrip": false,
      "normalized": false
    },
    {
      "id": 15,
      "special": true,
      "content": "[U6]",
      "single_word": false,
      "lstrip": false,
      "rstrip": false,
      "normalized": false
    },
    {
      "id": 16,
      "special": true,
      "content": "[U7]",
      "single_word": false,
      "lstrip": false,
      "rstrip": false,
      "normalized": false
    },
    {
      "id": 17,
      "special": true,
      "content": "[U8]",
      "single_word": false,
      "lstrip": false,
      "rstrip": false,
      "normalized": false
    },
    {
      "id": 18,
      "special": true,
      "content": "[U9]",
      "single_word": false,
      "lstrip": false,
      "rstrip": false,
      "normalized": false
    },
    {
      "id": 19,
      "special": true,
      "content": "[U10]",
      "single_word": false,
      "lstrip": false,
      "rstrip": false,
      "normalized": false
    },
    {
      "id": 20,
      "special": true,
      "content": "[U11]",
      "single_word": false,
      "lstrip": false,
      "rstrip": false,
      "normalized": false
    },
    {
      "id": 21,
      "special": true,
      "content": "[U12]",
      "single_word": false,
      "lstrip": false,
      "rstrip": false,
      "normalized": false
    },
    {
      "id": 22,
      "special": true,
      "content": "[U13]",
      "single_word": false,
      "lstrip": false,
      "rstrip": false,
      "normalized": false
    },
    {
      "id": 23,
      "special": true,
      "content": "[U14]",
      "single_word": false,
      "lstrip": false,
      "rstrip": false,
      "normalized": false
    },
    {
      "id": 24,
      "special": true,
      "content": "[U15]",
      "single_word": false,
      "lstrip": false,
      "rstrip": false,
      "normalized": false
    },
    {
      "id": 25,
      "special": true,
      "content": "[U16]",
      "single_word": false,
      "lstrip": false,
      "rstrip": false,
      "normalized": false
    },
    {
      "id": 26,
      "special": true,
      "content": "[U17]",
      "single_word": false,
      "lstrip": false,
      "rstrip": false,
      "normalized": false
    },
    {
      "id": 27,
      "special": true,
      "content": "[U18]",
      "single_word": false,
      "lstrip": false,
      "rstrip": false,
      "normalized": false
    },
    {
      "id": 28,
      "special": true,
      "content": "[U19]",
      "single_word": false,
      "lstrip": false,
      "rstrip": false,
      "normalized": false
    },
    {
      "id": 29,
      "special": true,
      "content": "[U20]",
      "single_word": false,
      "lstrip": false,
      "rstrip": false,
      "normalized": false
    },
    {
      "id": 30,
      "special": true,
      "content": "[U21]",
      "single_word": false,
      "lstrip": false,
      "rstrip": false,
      "normalized": false
    },
    {
      "id": 31,
      "special": true,
      "content": "[U22]",
      "single_word": false,
      "lstrip": false,
      "rstrip": false,
      "normalized": false
    },
    {
      "id": 32,
      "special": true,
      "content": "[U23]",
      "single_word": false,
      "lstrip": false,
      "rstrip": false,
      "normalized": false
    },
    {
      "id": 33,
      "special": true,
      "content": "[U24]",
      "single_word": false,
      "lstrip": false,
      "rstrip": false,
      "normalized": false
    },
    {
      "id": 34,
      "special": true,
      "content": "[U25]",
      "single_word": false,
      "lstrip": false,
      "rstrip": false,
      "normalized": false
    },
    {
      "id": 35,
      "special": true,
      "content": "[U26]",
      "single_word": false,
      "lstrip": false,
      "rstrip": false,
      "normalized": false
    },
    {
      "id": 36,
      "special": true,
      "content": "[U27]",
      "single_word": false,
      "lstrip": false,
      "rstrip": false,
      "normalized": false
    },
    {
      "id": 37,
      "special": true,
      "content": "[U28]",
      "single_word": false,
      "lstrip": false,
      "rstrip": false,
      "normalized": false
    },
    {
      "id": 38,
      "special": true,
      "content": "[U29]",
      "single_word": false,
      "lstrip": false,
      "rstrip": false,
      "normalized": false
    },
    {
      "id": 39,
      "special": true,
      "content": "[U30]",
      "single_word": false,
      "lstrip": false,
      "rstrip": false,
      "normalized": false
    }
  ],
  "normalizer": null,
  "pre_tokenizer": {
    "type": "ByteLevel",
    "add_prefix_space": true,
    "trim_offsets": true
  },
  "post_processor": {
    "type": "ByteLevel",
    "add_prefix_space": true,
    "trim_offsets": false
  },
  "decoder": {
    "type": "ByteLevel",
    "add_prefix_space": true,
    "trim_offsets": true
  },
  "model": {
    "dropout": null,
    "unk_token": null,
    "continuing_subword_prefix": null,
    "end_of_word_suffix": null,
    "fuse_unk": false,
    "vocab": {
      "<s>": 0,
      "<pad>": 1,
      "</s>": 2,
      "<unk>": 3,
      "<mask>": 4,
      "<sep>": 5,
      "<cls>": 6,
      "<nl>": 7,
      "<tab>": 8,
      "<zwnj>": 9,
      "[U1]": 10,
      "[U2]": 11,
      "[U3]": 12,
      "[U4]": 13,
      "[U5]": 14,
      "[U6]": 15,
      "[U7]": 16,
      "[U8]": 17,
      "[U9]": 18,
      "[U10]": 19,
      "[U11]": 20,
      "[U12]": 21,
      "[U13]": 22,
      "[U14]": 23,
      "[U15]": 24,
      "[U16]": 25,
      "[U17]": 26,
      "[U18]": 27,
      "[U19]": 28,
      "[U20]": 29,
      "[U21]": 30,
      "[U22]": 31,
      "[U23]": 32,
      "[U24]": 33,
      "[U25]": 34,
      "[U26]": 35,
      "[U27]": 36,
      "[U28]": 37,
      "[U29]": 38,
      "[U30]": 39,
      "!": 40,
      "\"": 41,
      "#": 42,
      "$": 43,
      "%": 44,
      "&": 45,
      "'": 46,
      "(": 47,
      ")": 48,
      "*": 49,
      "+": 50,
      ",": 51,
      "-": 52,
      ".": 53,
      "/": 54,
      "0": 55,
      "1": 56,
      "2": 57,
      "3": 58,
      "4": 59,
      "5": 60,
      "6": 61,
      "7": 62,
      "8": 63,
      "9": 64,
      ":": 65,
      ";": 66,
      "<": 67,
      "=": 68,
      ">": 69,
      "?": 70,
      "@": 71,
      "A": 72,
      "B": 73,
      "C": 74,
      "D": 75,
      "E": 76,
      "F": 77,
      "G": 78,
      "H": 79,
      "I": 80,
      "J": 81,
      "K": 82,
      "L": 83,
      "M": 84,
      "N": 85,
      "O": 86,
      "P": 87,
      "Q": 88,
      "R": 89,
      "S": 90,
      "T": 91,
      "U": 92,
      "V": 93,
      "W": 94,
      "X": 95,
      "Y": 96,
      "Z": 97,
      "[": 98,
      "\\": 99,
      "]": 100,
      "^": 101,
      "_": 102,
      "`": 103,
      "a": 104,
      "b": 105,
      "c": 106,
      "d": 107,
      "e": 108,
      "f": 109,
      "g": 110,
      "h": 111,
      "i": 112,
      "j": 113,
      "k": 114,
      "l": 115,
      "m": 116,
      "n": 117,
      "o": 118,
      "p": 119,
      "q": 120,
      "r": 121,
      "s": 122,
      "t": 123,
      "u": 124,
      "v": 125,
      "w": 126,
      "x": 127,
      "y": 128,
      "z": 129,
      "{": 130,
      "|": 131,
      "}": 132,
      "~": 133,
      "¡": 134,
      "¢": 135,
      "£": 136,
      "¤": 137,
      "¥": 138,
      "¦": 139,
      "§": 140,
      "¨": 141,
      "©": 142,
      "ª": 143,
      "«": 144,
      "¬": 145,
      "®": 146,
      "¯": 147,
      "°": 148,
      "±": 149,
      "²": 150,
      "³": 151,
      "´": 152,
      "µ": 153,
      "¶": 154,
      "·": 155,
      "¸": 156,
      "¹": 157,
      "º": 158,
      "»": 159,
      "¼": 160,
      "½": 161,
      "¾": 162,
      "¿": 163,
      "À": 164,
      "Á": 165,
      "Â": 166,
      "Ã": 167,
      "Ä": 168,
      "Å": 169,
      "Æ": 170,
      "Ç": 171,
      "È": 172,
      "É": 173,
      "Ê": 174,
      "Ë": 175,
      "Ì": 176,
      "Í": 177,
      "Î": 178,
      "Ï": 179,
      "Ð": 180,
      "Ñ": 181,
      "Ò": 182,
      "Ó": 183,
      "Ô": 184,
      "Õ": 185,
      "Ö": 186,
      "×": 187,
      "Ø": 188,
      "Ù": 189,
      "Ú": 190,
      "Û": 191,
      "Ü": 192,
      "Ý": 193,
      "Þ": 194,
      "ß": 195,
      "à": 196,
      "á": 197,
      "â": 198,
      "ã": 199,
      "ä": 200,
      "å": 201,
      "æ": 202,
      "ç": 203,
      "è": 204,
      "é": 205,
      "ê": 206,
      "ë": 207,
      "ì": 208,
      "í": 209,
      "î": 210,
      "ï": 211,
      "ð": 212,
      "ñ": 213,
      "ò": 214,
      "ó": 215,
      "ô": 216,
      "õ": 217,
      "ö": 218,
      "÷": 219,
      "ø": 220,
      "ù": 221,
      "ú": 222,
      "û": 223,
      "ü": 224,
      "ý": 225,
      "þ": 226,
      "ÿ": 227,
      "Ā": 228,
      "ā": 229,
      "Ă": 230,
      "ă": 231,
      "Ą": 232,
      "ą": 233,
      "Ć": 234,
      "ć": 235,
      "Ĉ": 236,
      "ĉ": 237,
      "Ċ": 238,
      "ċ": 239,
      "Č": 240,
      "č": 241,
      "Ď": 242,
      "ď": 243,
      "Đ": 244,
      "đ": 245,
      "Ē": 246,
      "ē": 247,
      "Ĕ": 248,
      "ĕ": 249,
      "Ė": 250,
      "ė": 251,
      "Ę": 252,
      "ę": 253,
      "Ě": 254,
      "ě": 255,
      "Ĝ": 256,
      "ĝ": 257,
      "Ğ": 258,
      "ğ": 259,
      "Ġ": 260,
      "ġ": 261,
      "Ģ": 262,
      "ģ": 263,
      "Ĥ": 264,
      "ĥ": 265,
      "Ħ": 266,
      "ħ": 267,
      "Ĩ": 268,
      "ĩ": 269,
      "Ī": 270,
      "ī": 271,
      "Ĭ": 272,
      "ĭ": 273,
      "Į": 274,
      "į": 275,
      "İ": 276,
      "ı": 277,
      "Ĳ": 278,
      "ĳ": 279,
      "Ĵ": 280,
      "ĵ": 281,
      "Ķ": 282,
      "ķ": 283,
      "ĸ": 284,
      "Ĺ": 285,
      "ĺ": 286,
      "Ļ": 287,
      "ļ": 288,
      "Ľ": 289,
      "ľ": 290,
      "Ŀ": 291,
      "ŀ": 292,
      "Ł": 293,
      "ł": 294,
      "Ń": 295,
      "à¤": 296,
      "à½": 297,
      "Ð°": 298,
      "ĠÐ": 299,
      "an": 300,
      "Ġà": 301,
      "à¥": 302,
      "Ġd": 303,
      "áĥ": 304,
      "à¼": 305,
      "en": 306,
      "Ð½": 307,
      "ĠØ": 308,
      "in": 309,
      "Ġà¤": 310,
      "er": 311,
      "à¼ĭ": 312,
      "ÑĢ": 313,
      "à¦": 314,
      "Ġs": 315,
      "à²": 316,
      "áĢ": 317,
      "Ð¾": 318,
      "ar": 319,
      "Ð¸": 320,
      "Ðµ": 321,
      "ÑĤ": 322,
      "Ø§": 323,
      "Ġa": 324,
      "Ð»": 325,
      "áŀ": 326,
      "Ġt": 327,
      "on": 328,
      "Ñģ": 329,
      "Ġp": 330,
      "Ġm": 331,
      "Ġn": 332,
      "Ġk": 333,
      "al": 334,
      "ĠÙ": 335,
      "à¸": 336,
      "Ġl": 337,
      "es": 338,
      "is": 339,
      "Ñĭ": 340,
      "Ñĥ": 341,
      "à¤¾": 342,
      "at": 343,
      "ÙĨ": 344,
      "Ø±": 345,
      "àº": 346,
      "Ġb": 347,
      "ÛĮ": 348,
      "as": 349,
      "Ð°Ð": 350,
      "à´": 351,
      "ch": 352,
      "or": 353,
      "el": 354,
      "ÙĪ": 355,
      "à¥į": 356,
      "un": 357,
      "it": 358,
      "ÙĦ": 359,
      "àª": 360,
      "à³": 361,
      "Ð´": 362,
      "et": 363,
      "à¬": 364,
      "Ðº": 365,
      "Ġ1": 366,
      "à§": 367,
      "Ġc": 368,
      "il": 369,
      "à¨": 370,
      "à®": 371,
      "à°": 372,
      "âĢ": 373,
      "Ġo": 374,
      "Ġ(": 375,
      "am": 376,
      "Ġh": 377,
      "Ġv": 378,
      "à¾": 379,
      "Ġde": 380,
      "Ġg": 381,
      "Ġe": 382,
      "Ġf": 383,
      "Ð¼": 384,
      "à¤°": 385,
      "à½¦": 386,
      "ur": 387,
      "ad": 388,
      "Ñį": 389,
      "ĠÃ": 390,
      "à·": 391,
      "ÙĬ": 392,
      "ĠS": 393,
      "Ùĩ": 394,
      "ir": 395,
      "ol": 396,
      "Ð³": 397,
      "Øª": 398,
      "Ġá": 399,
      "Ġr": 400,
      "om": 401,
      "Ġà¦": 402,
      "os": 403,
      "Ġw": 404,
      "ĠÑ": 405,
      "à¶": 406,
      "ĠA": 407,
      "Ð²": 408,
      "us": 409,
      "ak": 410,
      "Ø¯": 411,
      "Ġ×": 412,
      "Ùħ": 413,
      "à¤¿": 414,
      "áı": 415,
      "Ġi": 416,
      "ÑĮ": 417,
      "àµ": 418,
      "ĠØ§": 419,
      "Ã©": 420,
      "à¥ĩ": 421,
      "Ð°Ð½": 422,
      "ĠM": 423,
      "Ùī": 424,
      "em": 425,
      "ik": 426,
      "Ġà²": 427,
      "Ġin": 428,
      "ĠÚ": 429,
      "áŁ": 430,
      "ed": 431,
      "ag": 432,
      "Ġy": 433,
      "à¤¨": 434,
      "ti": 435,
      "à½Ĥ": 436,
      "Ð°ÑĢ": 437,
      "à½²": 438,
      "Ġj": 439,
      "à¤¤": 440,
      "ul": 441,
      "à½ĳ": 442,
      "id": 443,
      "Ûķ": 444,
      "um": 445,
      "Ø³": 446,
      "à¯": 447,
      "ĠB": 448,
      "te": 449,
      "ĠP": 450,
      "Ġ2": 451,
      "im": 452,
      "à³į": 453,
      "ĠÐº": 454,
      "ta": 455,
      "Ã¡": 456,
      "Ñı": 457,
      "Ġdi": 458,
      "à¤¯": 459,
      "à½ĸ": 460,
      "à½¼": 461,
      "ang": 462,
      "ĠD": 463,
      "Ñħ": 464,
      "à¤ķ": 465,
      "à¦¾": 466,
      "ĠT": 467,
      "Ã¤": 468,
      "Ä±": 469,
      "ĠC": 470,
      "ia": 471,
      "ro": 472,
      "ic": 473,
      "Ġà¨": 474,
      "áİ": 475,
      "ĠL": 476,
      "ra": 477,
      "Ð·": 478,
      "ĠK": 479,
      "ÑĪ": 480,
      "à«": 481,
      "Ð°Ð»": 482,
      "Ġ19": 483,
      "áĥĲ": 484,
      "ĠÑģ": 485,
      "re": 486,
      "Ð¹": 487,
      "à¤²": 488,
      "and": 489,
      "à½¢": 490,
      "ĠÐ±": 491,
      "à¥Ģ": 492,
      "ay": 493,
      "ĠØ¨": 494,
      "à©": 495,
      "à½Ħ": 496,
      "ĠI": 497,
      "àŃ": 498,
      "Ġáĥ": 499,
      "ek": 500,
      "×Ļ": 501,
      "Ġàª": 502,
      "Ã³": 503,
      "Ñĸ": 504,
      "à½´": 505,
      "ab": 506,
      "00": 507,
      "ĠN": 508,
      "ah": 509,
      "ig": 510,
      "à±": 511,
      "ÃŃ": 512,
      "ĠØ¯": 513,
      "Ġz": 514,
      "à½ĵ": 515,
      "ĠÙħ": 516,
      "ut": 517,
      "ng": 518,
      "áĥĺ": 519,
      "Ġla": 520,
      "ĠÐ¿": 521,
      "ent": 522,
      "eg": 523,
      "Ø§ÙĨ": 524,
      "ĠE": 525,
      "ĠÑĤ": 526,
      "ing": 527,
      "ãģ": 528,
      "Ġna": 529,
      "ĠÙĪ": 530,
      "à½ĺ": 531,
      "áĥĲáĥ": 532,
      "à¤Ĥ": 533,
      "ĠG": 534,
      "ï¼": 535,
      "Ð±": 536,
      "ÐµÐ½": 537,
      "he": 538,
      "Ø¨": 539,
      "od": 540,
      "à¹": 541,
      "à¤®": 542,
      "ĠR": 543,
      "Ñĩ": 544,
      "ĠâĢ": 545,
      "ĠH": 546,
      "áĪ": 547,
      "à¤¸": 548,
      "Ð¿": 549,
      "à½º": 550,
      "Ġen": 551,
      "àµį": 552,
      "ot": 553,
      "áĢº": 554,
      "ÑģÑĤ": 555,
      "à¥ĭ": 556,
      "à¾±": 557,
      "Ġun": 558,
      "ãĢ": 559,
      "Ġan": 560,
      "à½ł": 561,
      "ri": 562,
      "à¤µ": 563,
      "Ð°ÑĤ": 564,
      "à½²à¼ĭ": 565,
      "st": 566,
      "Ġu": 567,
      "Ġà¬": 568,
      "ÐµÑĢ": 569,
      "ap": 570,
      "à¯į": 571,
      "Ã¨": 572,
      "à½£": 573,
      "×ķ": 574,
      "ÑĬ": 575,
      "Ġáİ": 576,
      "à¥ģ": 577,
      "ĠÐ´": 578,
      "le": 579,
      "ĠÚ©": 580,
      "Ã«": 581,
      "qu": 582,
      "ie": 583,
      "Ġà¤ķ": 584,
      "Ã¶": 585,
      "ĠF": 586,
      "à²¿": 587,
      "ĠÐ½": 588,
      "Ò¯": 589,
      "Ð¾Ð½": 590,
      "Õ¡": 591,
      "à§į": 592,
      "ion": 593,
      "Ð¸Ð½": 594,
      "ok": 595,
      "à»": 596,
      "×Ļ×": 597,
      "Ã¼": 598,
      "Ú©": 599,
      "Ø´": 600,
      "Ãª": 601,
      "Ø§Ø±": 602,
      "ĠÐ²": 603,
      "ÑĭÐ½": 604,
      "la": 605,
      "ud": 606,
      "ï¼Į": 607,
      "ÑĨ": 608,
      "Ġà¶": 609,
      "ĠÐ¼": 610,
      "à½Ķ": 611,
      "ĠÞ": 612,
      "Ġà¤¸": 613,
      "Ð¾ÑĢ": 614,
      "ĠÎ": 615,
      "à¦¿": 616,
      "ist": 617,
      "Þ¦": 618,
      "à²°": 619,
      "áĥĶ": 620,
      "ov": 621,
      "Ð°Ð¹": 622,
      "Ġà°": 623,
      "li": 624,
      "de": 625,
      "à¦°": 626,
      "à³ģ": 627,
      "Ġà´": 628,
      "Ġse": 629,
      "Ġch": 630,
      "ĠÐ¸": 631,
      "Ġda": 632,
      "est": 633,
      "àª¾": 634,
      "og": 635,
      "Ð¾Ð»": 636,
      "ĠØ³": 637,
      "ÙĤ": 638,
      "Ð¶": 639,
      "áŁĴ": 640,
      "op": 641,
      "ci": 642,
      "Äģ": 643,
      "Ġal": 644,
      "ä¸": 645,
      "uk": 646,
      "ĠV": 647,
      "áĥĺáĥ": 648,
      "ĠÐ¾": 649,
      "Õ¡Õ": 650,
      "áŀ¶": 651,
      "ĠJ": 652,
      "ĠØª": 653,
      "na": 654,
      "à§ĩ": 655,
      "à¼į": 656,
      "wa": 657,
      "Ãł": 658,
      "×ķ×": 659,
      "Ø§Ø": 660,
      "ĠW": 661,
      "à²¾": 662,
      "Ġà®": 663,
      "iv": 664,
      "Ã¦": 665,
      "ant": 666,
      "Ã¢": 667,
      "ĠO": 668,
      "Ġng": 669,
      "Ġsa": 670,
      "ha": 671,
      "áĥĶáĥ": 672,
      "Ġà¤ª": 673,
      "á»": 674,
      "da": 675,
      "ĠáĢ": 676,
      "ĠØ§ÙĦ": 677,
      "ĠÕ": 678,
      "Ð¾Ð²": 679,
      "Å¡": 680,
      "ØĮ": 681,
      "iy": 682,
      "Ġ'": 683,
      "Ġle": 684,
      "Ó©": 685,
      "à¤ª": 686,
      "je": 687,
      "Ð°Ñģ": 688,
      "à¦¨": 689,
      "ers": 690,
      "ne": 691,
      "Ð°Ð´": 692,
      "Ġis": 693,
      "à¤¦": 694,
      "à¥¤": 695,
      "Ġpr": 696,
      "Ġar": 697,
      "ĠÐ³": 698,
      "à¤¹": 699,
      "up": 700,
      "à¤Ĺ": 701,
      "ib": 702,
      "Ġst": 703,
      "áī": 704,
      "ĠÑĥ": 705,
      "ub": 706,
      ").": 707,
      "sk": 708,
      "ĠÙĨ": 709,
      "ĠÑħ": 710,
      "ug": 711,
      "ob": 712,
      "),": 713,
      "Ð°Ð¼": 714,
      "iz": 715,
      "à³Ĩ": 716,
      "ÏĦ": 717,
      "ip": 718,
      "Ġ\"": 719,
      "ÅŁ": 720,
      "ãĤ": 721,
      "à²¦": 722,
      "ana": 723,
      "âĢĻ": 724,
      "Ġà¤®": 725,
      "Ø§ÙĦ": 726,
      "à·Ĭ": 727,
      "ĠU": 728,
      "Ġ-": 729,
      "Þ°": 730,
      "Î±": 731,
      "ĠÙ¾": 732,
      "se": 733,
      "ÉĻ": 734,
      "Þ¬": 735,
      "à²¨": 736,
      "Î¿": 737,
      "áĬ": 738,
      "ĠØ¬": 739,
      "×¨": 740,
      "ĠÛ": 741,
      "áĭ": 742,
      "Ġqu": 743,
      "à¬¾": 744,
      "ari": 745,
      "Ø²": 746,
      "à¨¾": 747,
      "à´¿": 748,
      "ara": 749,
      "ter": 750,
      "âĢĭ": 751,
      "Ø¹": 752,
      "à§°": 753,
      "à²¤": 754,
      "áŀĵ": 755,
      "ja": 756,
      "×¢": 757,
      "Ġà¥": 758,
      "Ã²": 759,
      "az": 760,
      "ãĢĤ": 761,
      "Ð°Ð²": 762,
      "à²²": 763,
      "Ġ3": 764,
      "ĠÄ": 765,
      "áĥĿ": 766,
      "eng": 767,
      "áŀļ": 768,
      "av": 769,
      "ĠØ¦": 770,
      "ÑĥÑĢ": 771,
      "eb": 772,
      "Ġel": 773,
      "ãĥ": 774,
      "Ġì": 775,
      "ac": 776,
      "ÐµÐ»": 777,
      "ÓĻ": 778,
      "à±į": 779,
      "à¦¤": 780,
      "áĢ¸": 781,
      "Ġes": 782,
      "àŃį": 783,
      "Ú¯": 784,
      "Ã´": 785,
      "ong": 786,
      "ÛĴ": 787,
      "áĢ¬": 788,
      "ÅĤ": 789,
      "Ġà¤ħ": 790,
      "Ġ200": 791,
      "ĠÐ·": 792,
      "à¾²": 793,
      "ka": 794,
      "à¸²": 795,
      "à¬°": 796,
      "ÑģÐº": 797,
      "ÑĭÐ»": 798,
      "ran": 799,
      "Þª": 800,
      "Ùģ": 801,
      "à·Ĵ": 802,
      "Þ¨": 803,
      "Ð¸Ð»": 804,
      "Ûĩ": 805,
      "Ã®": 806,
      "ĠÑĢ": 807,
      "ow": 808,
      "ĠÙĦ": 809,
      "Î¹": 810,
      "ÙĪÙĨ": 811,
      "Ø¦": 812,
      "Ð¾Ð´": 813,
      "Ð°Ð³": 814,
      "ÙĪØ±": 815,
      "Ð°Ðº": 816,
      "Ġta": 817,
      "ni": 818,
      "Ġma": 819,
      "sa": 820,
      "ev": 821,
      "Ø¬": 822,
      "Ã§": 823,
      "ÖĢ": 824,
      "ec": 825,
      "Ð¸Ðº": 826,
      "ÛĲ": 827,
      "Å¾": 828,
      "Ð¾Ð¼": 829,
      "×Ĳ": 830,
      "ÐµÑĤ": 831,
      "Ġsu": 832,
      "yn": 833,
      "à½Ĥà½¦": 834,
      "hi": 835,
      "ez": 836,
      "Ùĥ": 837,
      "Ġ18": 838,
      "01": 839,
      "à¬¿": 840,
      "end": 841,
      "àº²": 842,
      "Ð¸ÑĤ": 843,
      "ma": 844,
      "to": 845,
      "àºĻ": 846,
      "à«ĩ": 847,
      "ĠÐļ": 848,
      "ep": 849,
      "Ġthe": 850,
      "Ġà¤µ": 851,
      "Ġas": 852,
      "à¸²à¸": 853,
      "à²Ĥ": 854,
      "à¦¯": 855,
      "ou": 856,
      "ya": 857,
      "ina": 858,
      "Ã°": 859,
      "âĢĮ": 860,
      "Ġpro": 861,
      "Ġte": 862,
      "Õ¸": 863,
      "ĠâĢĶ": 864,
      "ĠÂ": 865,
      "Ð¸Ñı": 866,
      "ung": 867,
      "Î½": 868,
      "Ġà¤¹": 869,
      "áĥĿáĥ": 870,
      "Ġcon": 871,
      "Ġka": 872,
      "Ù¾": 873,
      "nd": 874,
      "à¯ģ": 875,
      "Ġet": 876,
      "áĢ¯": 877,
      "Ã¬": 878,
      "io": 879,
      "à¦²": 880,
      "Ġà¤ľ": 881,
      "à°¿": 882,
      "ada": 883,
      "ÛĮÙĨ": 884,
      "à¤ļ": 885,
      "Ġya": 886,
      "à®¿": 887,
      "Ê»": 888,
      "ij": 889,
      "à´¨": 890,
      "ÑįÑĢ": 891,
      "ÑĥÐ»": 892,
      "à¤£": 893,
      "à½´à¼ĭ": 894,
      "Äį": 895,
      "Ġje": 896,
      "à¤Ł": 897,
      "à¥Ĥ": 898,
      "Ġer": 899,
      "Ð´Ð°": 900,
      "àµģ": 901,
      "à°¾": 902,
      "Ä«": 903,
      "Ð°Ð·": 904,
      "à¸Ļ": 905,
      "Ãº": 906,
      "à½¼à¼ĭ": 907,
      "Ġpar": 908,
      "ĠØ´": 909,
      "ĠÐĲ": 910,
      "Ø³Øª": 911,
      "ĠÐ¡": 912,
      "Ġof": 913,
      "åħ": 914,
      "à¤ľ": 915,
      "Ñİ": 916,
      "ala": 917,
      "ÑĦ": 918,
      "à¦ķ": 919,
      "ÞĤ": 920,
      "ĠÙĩ": 921,
      "Ġto": 922,
      "ine": 923,
      "Ã½": 924,
      "ich": 925,
      "ÐµÐ¼": 926,
      "áŀĢ": 927,
      "Ġha": 928,
      "Ġke": 929,
      "Îµ": 930,
      "à²ķ": 931,
      "Ð¸Ð¹": 932,
      "à®ķ": 933,
      "äº": 934,
      "ke": 935,
      "à¤·": 936,
      "Ġno": 937,
      "lar": 938,
      "ĠØ±": 939,
      "Ġ4": 940,
      "à¶±": 941,
      "Þĩ": 942,
      "àª°": 943,
      "Ø®": 944,
      "à½ºà¼ĭ": 945,
      "si": 946,
      "Ġà¤°": 947,
      "Ġà¤¨": 948,
      "Ġam": 949,
      "áĢĦ": 950,
      "Ġwa": 951,
      "à´¾": 952,
      "di": 953,
      "ĠÑĪ": 954,
      "à²Ĺ": 955,
      "ÑĥÐ½": 956,
      "æľ": 957,
      "áĢ±": 958,
      "ann": 959,
      "Ð¸ÑĢ": 960,
      "Ġdel": 961,
      "à´¤": 962,
      "Õ«": 963,
      "tr": 964,
      "Ð¾ÑĤ": 965,
      "ĠÑĩ": 966,
      "ba": 967,
      "Ø§Øª": 968,
      "à«į": 969,
      "Ð¾Ð³": 970,
      "19": 971,
      "áŀĶ": 972,
      "Äĥ": 973,
      "áĢŃ": 974,
      "ÄĹ": 975,
      "Ġ×Ĳ": 976,
      "à´ķ": 977,
      "à¸£": 978,
      "tu": 979,
      "oc": 980,
      "Ġper": 981,
      "Ġon": 982,
      "ata": 983,
      "Õ¶": 984,
      "ĠÐľ": 985,
      "ali": 986,
      "ÐµÐ´": 987,
      "à¤¶": 988,
      "ĠÐ¿ÑĢ": 989,
      "Ð½Ñĭ": 990,
      "Ġko": 991,
      "à²¯": 992,
      "Ġà¤Ĩ": 993,
      "ere": 994,
      "Ġà·": 995,
      "ÙĦÙī": 996,
      "ĠÙĤ": 997,
      "Ïģ": 998,
      "Ø§Ùħ": 999,
      "×ľ": 1000,
      "Ġà¤¬": 1001,
      "à²µ": 1002,
      "áıį": 1003,
      "à¶º": 1004,
      "à½¡": 1005,
      "Ġba": 1006,
      "Ġne": 1007,
      "ga": 1008,
      "ìĿ": 1009,
      "Ġ201": 1010,
      "ĠÙģ": 1011,
      "ini": 1012,
      "à¨°": 1013,
      "ĠÂ«": 1014,
      "we": 1015,
      "ens": 1016,
      "à©Ģ": 1017,
      "Â»": 1018,
      "Ġcom": 1019,
      "ce": 1020,
      "ÐµÐº": 1021,
      "à°°": 1022,
      "£áĥ": 1023,
      "ĠÐ½Ð°": 1024,
      "va": 1025,
      "áŀŁ": 1026,
      "ru": 1027,
      "Ġ5": 1028,
      "à·ı": 1029,
      "Õ¥": 1030,
      "Ġat": 1031,
      "Ä±n": 1032,
      "Ø©": 1033,
      "ika": 1034,
      "ĠÐ»": 1035,
      "Ġdo": 1036,
      "Ġku": 1037,
      "Ġà¤¤": 1038,
      "áĢĢ": 1039,
      "ho": 1040,
      "Ó§": 1041,
      "à®¤": 1042,
      "Ġà¥¤": 1043,
      "Ġáı": 1044,
      "áŀĺ": 1045,
      "ort": 1046,
      "me": 1047,
      "à½Ģ": 1048,
      "Ġli": 1049,
      "à²¡": 1050,
      "ØŃ": 1051,
      "áº": 1052,
      "Ġà¤Ń": 1053,
      "Ġme": 1054,
      "Ã±": 1055,
      "à¤¡": 1056,
      "à°Ĥ": 1057,
      "ill": 1058,
      "àª¨": 1059,
      "Ġq": 1060,
      "Øº": 1061,
      "Ġà¤¦": 1062,
      "à¤¥": 1063,
      "ÙĪÙĦ": 1064,
      "ast": 1065,
      "und": 1066,
      "áıĹ": 1067,
      "Ġë": 1068,
      "Ð°Ñħ": 1069,
      "ua": 1070,
      "à¨¿": 1071,
      "ien": 1072,
      "ĠIn": 1073,
      "ÑĭÑĢ": 1074,
      "Ġ×Ķ": 1075,
      "ĠØ¢": 1076,
      "Ò»": 1077,
      "áŀĦ": 1078,
      "à±ģ": 1079,
      "à¦¼": 1080,
      "ĠY": 1081,
      "ind": 1082,
      "à¾Ĵ": 1083,
      "à¤§": 1084,
      "all": 1085,
      "ĠÚ¯": 1086,
      "Ġ6": 1087,
      "ÛĮØ§": 1088,
      "à½ŀ": 1089,
      "ÑįÐ½": 1090,
      "×ĺ": 1091,
      "Ïĥ": 1092,
      "ell": 1093,
      "ĠØ¹": 1094,
      "ih": 1095,
      "Ûģ": 1096,
      "ama": 1097,
      "à¶»": 1098,
      "à¥Ī": 1099,
      "Ġà¤Ĺ": 1100,
      "à´¯": 1101,
      "ĠØ®": 1102,
      "art": 1103,
      "ny": 1104,
      "Äĵ": 1105,
      "Ġil": 1106,
      "à§ģ": 1107,
      "Ú¾": 1108,
      "à©ĩ": 1109,
      "Ð°ÑĪ": 1110,
      "ord": 1111,
      "che": 1112,
      "ale": 1113,
      "å¤": 1114,
      "Ġsp": 1115,
      "Ð°Ð±": 1116,
      "à¤¬": 1117,
      "Ġsi": 1118,
      "Ġad": 1119,
      "à¹Ī": 1120,
      "ãĢģ": 1121,
      "Ð¾Ñģ": 1122,
      "Úº": 1123,
      "Ġit": 1124,
      "àº²àº": 1125,
      "ani": 1126,
      "ate": 1127,
      "àŃĩ": 1128,
      "à«Ģ": 1129,
      "ki": 1130,
      "oh": 1131,
      "Ġvan": 1132,
      "res": 1133,
      "Ġre": 1134,
      "Ġhe": 1135,
      "ÖĤ": 1136,
      "oj": 1137,
      "à½ģ": 1138,
      "à¸Ń": 1139,
      "ĠZ": 1140,
      "áŀı": 1141,
      "ÚĨ": 1142,
      "ard": 1143,
      "ĠÐŁ": 1144,
      "ĠâĢĵ": 1145,
      "Ġog": 1146,
      "à½Ĩ": 1147,
      "ĠÐ¶": 1148,
      "Ò£": 1149,
      "Ġso": 1150,
      "ĠCh": 1151,
      "ĠáĬ": 1152,
      "ier": 1153,
      "Ġx": 1154,
      "Ġand": 1155,
      "ĠÑį": 1156,
      "ÏĤ": 1157,
      "Ġth": 1158,
      "ach": 1159,
      "Ã¹": 1160,
      "Ġfor": 1161,
      "Ġáĭ": 1162,
      "ĠAl": 1163,
      "Ãµ": 1164,
      "ĠÐĳ": 1165,
      "ÓĢ": 1166,
      "à½ĸà½¦": 1167,
      "åı": 1168,
      "ÐµÑģ": 1169,
      "ÙĨØ¯": 1170,
      "emb": 1171,
      "Ð¸Ñģ": 1172,
      "à»Ī": 1173,
      "int": 1174,
      "Ã¥": 1175,
      "Ø§Ø¯": 1176,
      "Ġáİł": 1177,
      "era": 1178,
      "Ġ199": 1179,
      "ans": 1180,
      "áĢŃáĢ¯": 1181,
      "Ġdie": 1182,
      "Ð¸Ð¼": 1183,
      "Î·": 1184,
      "Ø§ÛĮ": 1185,
      "å¹": 1186,
      "à¦®": 1187,
      "ca": 1188,
      "áĮ": 1189,
      "ä»": 1190,
      "ĠAn": 1191,
      "ys": 1192,
      "rit": 1193,
      "áĥ£áĥ": 1194,
      "Ġti": 1195,
      "ä¹": 1196,
      "Å«": 1197,
      "ation": 1198,
      "×Ķ": 1199,
      "eri": 1200,
      "ÏĢ": 1201,
      "áģ": 1202,
      "áĢĲ": 1203,
      "Ġque": 1204,
      "Õ¸ÖĤ": 1205,
      "à´°": 1206,
      "Ġtr": 1207,
      "Ġà¤²": 1208,
      "à°²": 1209,
      "ĠÚĨ": 1210,
      "Ģà¸": 1211,
      "Ê¼": 1212,
      "åľ": 1213,
      "Ġmu": 1214,
      "×ł": 1215,
      "Ġà¦¬": 1216,
      "oo": 1217,
      "Ġni": 1218,
      "lu": 1219,
      "à¤¾à¤Ĥ": 1220,
      "Ñĺ": 1221,
      "ane": 1222,
      "Ġdes": 1223,
      "à®Ł": 1224,
      "áĢĻ": 1225,
      "are": 1226,
      "Ã»": 1227,
      "Ïħ": 1228,
      "áĢ¼": 1229,
      "ĠÑı": 1230,
      "ica": 1231,
      "ÑĭÐ¼": 1232,
      "ĠÐ¢": 1233,
      "Ġest": 1234,
      "à®°": 1235,
      "àªĤ": 1236,
      "ĠÃ©": 1237,
      "ĠÙĬ": 1238,
      "Ġop": 1239,
      "ve": 1240,
      "à°¨": 1241,
      "zi": 1242,
      "à¦¬": 1243,
      "à·Ķ": 1244,
      "Ã³n": 1245,
      "Ġor": 1246,
      "áĢŀ": 1247,
      "ond": 1248,
      "à¸ĩ": 1249,
      "à²¸": 1250,
      "ĠÐ°": 1251,
      "Ġim": 1252,
      "Ð½Ð°": 1253,
      "ĠáĪ": 1254,
      "ff": 1255,
      "ÐµÐ¹": 1256,
      "no": 1257,
      "à¸±": 1258,
      "Ġab": 1259,
      "Ġak": 1260,
      "à¾Ł": 1261,
      "à·Ģ": 1262,
      "Ð¾Ð¹": 1263,
      "lo": 1264,
      "àº°": 1265,
      "áĢĶ": 1266,
      "ost": 1267,
      "lan": 1268,
      "àº±": 1269,
      "Þĥ": 1270,
      "Þ§": 1271,
      "áŀĽ": 1272,
      "za": 1273,
      "łáĥ": 1274,
      "Ġag": 1275,
      "à¤ĥ": 1276,
      "aka": 1277,
      "à¶Ń": 1278,
      "Ġ7": 1279,
      "ÄĽ": 1280,
      "à¸ģ": 1281,
      "ĠÏĦ": 1282,
      "à½ĳà½Ħ": 1283,
      "àª®": 1284,
      "áį": 1285,
      "ente": 1286,
      "ĠÐĴ": 1287,
      "à¾Ĵà¾±": 1288,
      "àºĩ": 1289,
      "à³Ĭ": 1290,
      "à®¾": 1291,
      "yr": 1292,
      "à¤Ń": 1293,
      "åĲ": 1294,
      "sch": 1295,
      "ĠÅ": 1296,
      "Ð¾Ðº": 1297,
      "Ġà¤¯": 1298,
      "Ñĳ": 1299,
      "ont": 1300,
      "àºĶ": 1301,
      "Ġnga": 1302,
      "à¾±à½²à¼ĭ": 1303,
      "áĢ·": 1304,
      "Øµ": 1305,
      "ĠÑĦ": 1306,
      "áĬķ": 1307,
      "æĸ": 1308,
      "á¹": 1309,
      "Ġed": 1310,
      "Ġbe": 1311,
      "ÞĪ": 1312,
      "Ġ8": 1313,
      "àª¤": 1314,
      "any": 1315,
      "ÙĨÙī": 1316,
      "Ġáī": 1317,
      "à²ª": 1318,
      "áŀĳ": 1319,
      "Ġgr": 1320,
      "à½ļ": 1321,
      "pe": 1322,
      "ÑĥÐ´": 1323,
      "ert": 1324,
      "à¶¸": 1325,
      "Ó¹": 1326,
      "å®": 1327,
      "Äķ": 1328,
      "aj": 1329,
      "à¦¸": 1330,
      "Ã£": 1331,
      "ĠSt": 1332,
      "Ø£": 1333,
      "à»ī": 1334,
      "×ŀ": 1335,
      "Ġà¦ª": 1336,
      "ĠÒ": 1337,
      "à¥ĩà¤Ĥ": 1338,
      "ĠÐł": 1339,
      "Ġàº": 1340,
      "à¹Ģà¸": 1341,
      "Ġà¼": 1342,
      "à¸µ": 1343,
      "Õ¡Õ¶": 1344,
      "uh": 1345,
      "Ġav": 1346,
      "Ġap": 1347,
      "áŀĻ": 1348,
      "Ġki": 1349,
      "ÛĮØ±": 1350,
      "à¹ī": 1351,
      "asa": 1352,
      "aga": 1353,
      "ÛĨ": 1354,
      "Ġà¤¥": 1355,
      "à´Ł": 1356,
      "à½Ĳ": 1357,
      "ĠLa": 1358,
      "àªµ": 1359,
      "à½ħ": 1360,
      "sh": 1361,
      "×Ł": 1362,
      "Ġ.": 1363,
      "à¶ļ": 1364,
      "Ġà¤ī": 1365,
      "áĥĺáĥ¡": 1366,
      "áĢķ": 1367,
      "isi": 1368,
      "Ð¸Ð·": 1369,
      "ÐµÐ²": 1370,
      "ĠÙĥ": 1371,
      "ĠDe": 1372,
      "ati": 1373,
      "ku": 1374,
      "Ġja": 1375,
      "Ġ17": 1376,
      "ĠÃ¤": 1377,
      "Ġà¸": 1378,
      "amb": 1379,
      "Åį": 1380,
      "ĠÐµ": 1381,
      "Ġdu": 1382,
      "Ġpo": 1383,
      "àºŃ": 1384,
      "àºģ": 1385,
      "Ġà¦ķ": 1386,
      "ess": 1387,
      "ida": 1388,
      "à½ķ": 1389,
      "ÑĭÐº": 1390,
      "Î»": 1391,
      "ÑģÑĮ": 1392,
      "yo": 1393,
      "ÐµÐ·": 1394,
      "ÙĪÙħ": 1395,
      "ji": 1396,
      "Ġom": 1397,
      "ile": 1398,
      "à®ª": 1399,
      "Ġder": 1400,
      "Ð½Ð¸": 1401,
      "Ġden": 1402,
      "ili": 1403,
      "ÛķØ±": 1404,
      "ins": 1405,
      "Þİ": 1406,
      "à®®": 1407,
      "à¤ĸ": 1408,
      "à®²": 1409,
      "Îº": 1410,
      "Ġmo": 1411,
      "×ĳ": 1412,
      "Ġlo": 1413,
      "man": 1414,
      "ye": 1415,
      "Ã¸": 1416,
      "à²Ł": 1417,
      "ÙĬÙĨ": 1418,
      "à¦Ł": 1419,
      "à§ĭ": 1420,
      "áŀĸ": 1421,
      "Ġà²ª": 1422,
      "amp": 1423,
      "áŁĭ": 1424,
      "ura": 1425,
      "ore": 1426,
      "Ø·": 1427,
      "åį": 1428,
      "ko": 1429,
      "Ġmar": 1430,
      "Ġwe": 1431,
      "Ìģ": 1432,
      "Ġ15": 1433,
      "ze": 1434,
      "à¬ķ": 1435,
      "Ġà¦¸": 1436,
      "Ġ×ĳ": 1437,
      "ĠØŃ": 1438,
      "å¹´": 1439,
      "Ġ9": 1440,
      "åĪ": 1441,
      "Ġgo": 1442,
      "à¦¹": 1443,
      "Ø§Ø³": 1444,
      "Ð»Ð°": 1445,
      "Ġkm": 1446,
      "áŀ·": 1447,
      "ÛĮÙĦ": 1448,
      "Òĵ": 1449,
      "ish": 1450,
      "Ñŀ": 1451,
      "ĠAr": 1452,
      "ern": 1453,
      "ele": 1454,
      "Ġter": 1455,
      "ts": 1456,
      "à¸¡": 1457,
      "à½Ķà½ł": 1458,
      "ĠÞĩ": 1459,
      "emp": 1460,
      "th": 1461,
      "Ġà¤ı": 1462,
      "Ð°Ð¿": 1463,
      "áĢºáĢ¸": 1464,
      "inn": 1465,
      "à®©": 1466,
      "land": 1467,
      "Ø§Ø¨": 1468,
      "Äħ": 1469,
      "Ġà²®": 1470,
      "ene": 1471,
      "Î¯": 1472,
      "áĢĬ": 1473,
      "à¨¤": 1474,
      "ĠØ§ÙĪ": 1475,
      "ass": 1476,
      "å¾": 1477,
      "ge": 1478,
      "adi": 1479,
      "à¬¨": 1480,
      "Ġmet": 1481,
      "Ġcu": 1482,
      "ita": 1483,
      "Ġman": 1484,
      "chi": 1485,
      "áĥĲáĥľ": 1486,
      "ons": 1487,
      "à«ĭ": 1488,
      "ÑĭÑĪ": 1489,
      "ela": 1490,
      "áĢ±áĢ¬": 1491,
      "Ġum": 1492,
      "áĢħ": 1493,
      "ÑĤÐ°": 1494,
      "ĠÃł": 1495,
      "Ġà¼į": 1496,
      "Ġny": 1497,
      "ĠÃ¡": 1498,
      "Ð½Ð¾": 1499,
      "ä½": 1500,
      "ÑĥÐ³": 1501,
      "à¨Ĥ": 1502,
      "Ģàº": 1503,
      "àª¯": 1504,
      "Ġà²ķ": 1505,
      "Ġà§": 1506,
      "enn": 1507,
      "Ġpa": 1508,
      "mi": 1509,
      "áĢĽ": 1510,
      "áĢ¾": 1511,
      "×©": 1512,
      "Ġkom": 1513,
      "Ġbi": 1514,
      "àµĨ": 1515,
      "ĠÐĶ": 1516,
      "ĠØ²": 1517,
      "Ġáİ¤": 1518,
      "ju": 1519,
      "å°": 1520,
      "Ġfr": 1521,
      "Ð²Ð°": 1522,
      "asi": 1523,
      "à¬¤": 1524,
      "ĠÊ»": 1525,
      "ira": 1526,
      "iya": 1527,
      "ĠÐĵ": 1528,
      "à¾Ĳ": 1529,
      "×ª": 1530,
      "ÑįÐ¼": 1531,
      "yd": 1532,
      "ÞĨ": 1533,
      "à²³": 1534,
      "ĠáĥĽ": 1535,
      "erd": 1536,
      "ÐºÐ°": 1537,
      "ĠÃ§": 1538,
      "à¨¨": 1539,
      "åŃ": 1540,
      "Ûİ": 1541,
      "iti": 1542,
      "000": 1543,
      "ĠÐĿ": 1544,
      "ust": 1545,
      "uc": 1546,
      "be": 1547,
      "à½ı": 1548,
      "áŀĬ": 1549,
      "àºĻàº": 1550,
      "Ġ10": 1551,
      "Ġ198": 1552,
      "Õ¸ÖĤÕ": 1553,
      "à´Ĥ": 1554,
      "Ġà¦®": 1555,
      "ĠÐĺ": 1556,
      "ĠØ¯Ø±": 1557,
      "Ġà¤¶": 1558,
      "ly": 1559,
      "Ġ16": 1560,
      "à¸´": 1561,
      "Äĩ": 1562,
      "ĠÐŀ": 1563,
      "à²®": 1564,
      "àªķ": 1565,
      "àŃģ": 1566,
      "à¨¸": 1567,
      "áŀħ": 1568,
      "ver": 1569,
      "íķ": 1570,
      "Ġkan": 1571,
      "Ñī": 1572,
      "mer": 1573,
      "Ùİ": 1574,
      "Ġci": 1575,
      "âĢĿ": 1576,
      "ÑĥÑģ": 1577,
      "ÑĥÑĤ": 1578,
      "ona": 1579,
      "ano": 1580,
      "iri": 1581,
      "ÑĢÐ°": 1582,
      "ew": 1583,
      "Ġva": 1584,
      "Ø§Ø¦": 1585,
      "çĶ": 1586,
      "Ã©n": 1587,
      "Ġsh": 1588,
      "ĠMar": 1589,
      "Ġdal": 1590,
      "Ø¯Ø§": 1591,
      "Ġve": 1592,
      "Ġà¨¦": 1593,
      "çļ": 1594,
      "ori": 1595,
      "ena": 1596,
      "ĠX": 1597,
      "à§Ģ": 1598,
      "Ġê": 1599,
      "áŀ»": 1600,
      "pi": 1601,
      "ĠÛģ": 1602,
      "Ġà²¬": 1603,
      "ui": 1604,
      "Ġà²¸": 1605,
      "Ġdan": 1606,
      "ĠUn": 1607,
      "Þī": 1608,
      "Ġ12": 1609,
      "ĠÐ£": 1610,
      "olo": 1611,
      "à½ĵà½¦": 1612,
      "Ġpor": 1613,
      "×ĵ": 1614,
      "ler": 1615,
      "ĠÛĮ": 1616,
      "Ì¤": 1617,
      "Ġ197": 1618,
      "ea": 1619,
      "áĢ½": 1620,
      "Ã©s": 1621,
      "áĢ»": 1622,
      "Ġob": 1623,
      "à½Ħà½¦": 1624,
      "à¸¢": 1625,
      "ado": 1626,
      "ula": 1627,
      "uv": 1628,
      "à°ķ": 1629,
      "Ð°Ð½Ð´": 1630,
      "ÏĮ": 1631,
      "à¨²": 1632,
      "ĠÐ¹": 1633,
      "Ġay": 1634,
      "à®±": 1635,
      "à¦¦": 1636,
      "Ġ×ŀ": 1637,
      "ÅĪ": 1638,
      "áŀĩ": 1639,
      "áŁĨ": 1640,
      "Ã¡n": 1641,
      "Ġyn": 1642,
      "ĠÃ¨": 1643,
      "ire": 1644,
      "una": 1645,
      "à½ĺà½¦": 1646,
      "ÑĭÑĤ": 1647,
      "á¹³": 1648,
      "áİ¾": 1649,
      "Ã¶r": 1650,
      "isch": 1651,
      "hu": 1652,
      "Î¼": 1653,
      "Ġ196": 1654,
      "à©±": 1655,
      "18": 1656,
      "à®³": 1657,
      "ite": 1658,
      "Õ¥Õ": 1659,
      "Ð¸Ñĩ": 1660,
      "àª¿": 1661,
      "à¸¥": 1662,
      "af": 1663,
      "Óĵ": 1664,
      "ÖĢÕ": 1665,
      "ÛĪ": 1666,
      "Þ©": 1667,
      "Ã¤r": 1668,
      "à«ģ": 1669,
      "Ð³Ð°": 1670,
      "à´²": 1671,
      "ld": 1672,
      "àºµ": 1673,
      "Ø±ÙĬ": 1674,
      "rat": 1675,
      "à¤Ľ": 1676,
      "ÑĥÐº": 1677,
      "Ø±ÛĮ": 1678,
      "à¾³": 1679,
      "ten": 1680,
      "à¦Ĺ": 1681,
      "Ġ194": 1682,
      "à³ĩ": 1683,
      "ĠÒ¯": 1684,
      "×¡": 1685,
      "æĺ": 1686,
      "à¸§": 1687,
      "âĢį": 1688,
      "à¸°": 1689,
      "Ġac": 1690,
      "ola": 1691,
      "Î¿Ïħ": 1692,
      "Ð¸Ð´": 1693,
      "áŁģ": 1694,
      "las": 1695,
      "à¦ª": 1696,
      "ĠLe": 1697,
      "oz": 1698,
      "ĠQ": 1699,
      "Ã¤n": 1700,
      "áĥĶáĥĳ": 1701,
      "ÚŃ": 1702,
      "Ġà·Ģ": 1703,
      "Ġek": 1704,
      "ãģ®": 1705,
      "if": 1706,
      "Ġund": 1707,
      "à»Ģàº": 1708,
      "àª²": 1709,
      "Ġem": 1710,
      "lik": 1711,
      "Ġà¤ļ": 1712,
      "Ġver": 1713,
      "à¸Ķ": 1714,
      "à¯Ī": 1715,
      "gan": 1716,
      "à®¯": 1717,
      "áİ©": 1718,
      "ĠÐ±Ð¾Ð»": 1719,
      "ÙĪØ¯": 1720,
      "Ð¸ÑģÑĤ": 1721,
      "ï»": 1722,
      "pa": 1723,
      "à½¤": 1724,
      "itu": 1725,
      "áīµ": 1726,
      "mo": 1727,
      "ÑĥÐ¼": 1728,
      "Å¯": 1729,
      "á»į": 1730,
      "Ġtu": 1731,
      "one": 1732,
      "ima": 1733,
      "à´®": 1734,
      "ÐµÐ³": 1735,
      "ÑįÐ»": 1736,
      "Ġà¦ı": 1737,
      "atu": 1738,
      "Ġod": 1739,
      "Ø±Ø¯": 1740,
      "co": 1741,
      "agh": 1742,
      "æĪ": 1743,
      "ora": 1744,
      "à½Ł": 1745,
      "à½łà½ĳ": 1746,
      "gi": 1747,
      "Ġmen": 1748,
      "Ġ14": 1749,
      "ue": 1750,
      "Ø§Ø²": 1751,
      "à¨ķ": 1752,
      "Ġus": 1753,
      "à°¯": 1754,
      "bo": 1755,
      "Ġuna": 1756,
      "Î¬": 1757,
      "pr": 1758,
      "Ġaf": 1759,
      "ato": 1760,
      "à´ª": 1761,
      "à¦ĩ": 1762,
      "ÑĤÑĭ": 1763,
      "Ġmed": 1764,
      "åĽ": 1765,
      "Ð¸Ð²": 1766,
      "Ġà¨¸": 1767,
      "ĠÐ°ÑĢ": 1768,
      "à½ĸà½¢": 1769,
      "aw": 1770,
      "Ġang": 1771,
      "çļĦ": 1772,
      "áĢľ": 1773,
      "ä¸Ģ": 1774,
      "Ġbo": 1775,
      "ult": 1776,
      "âĢľ": 1777,
      "ĠEl": 1778,
      "ĠÑĨ": 1779,
      "ÄŁ": 1780,
      "Ġà¦¹": 1781,
      "áĢ¬áĢ¸": 1782,
      "¯áİ": 1783,
      "à·ļ": 1784,
      "Ġser": 1785,
      "Ġpol": 1786,
      "Ð½Ð´": 1787,
      "Ġvo": 1788,
      "Ġpe": 1789,
      "áıĵ": 1790,
      "Ġà²ħ": 1791,
      "à¸Ĺ": 1792,
      "ÙĨÙĩ": 1793,
      "Ġca": 1794,
      "à¤ĩ": 1795,
      "à½ī": 1796,
      "à¤°à¤¤": 1797,
      "ÑĥÐ±": 1798,
      "ĠÑĸ": 1799,
      "×¢×¨": 1800,
      "éģ": 1801,
      "Ð¾Ð±": 1802,
      "à¶½": 1803,
      "Ġmas": 1804,
      "Ġ13": 1805,
      "Ġkon": 1806,
      "Ð°ÑĤÐ°": 1807,
      "ade": 1808,
      "ÞĮ": 1809,
      "Ġiz": 1810,
      "iss": 1811,
      "Ġáĥĵ": 1812,
      "unt": 1813,
      "à½ĳà½Ĥ": 1814,
      "à©°": 1815,
      "vi": 1816,
      "ÑĭÐ³": 1817,
      "×¤": 1818,
      "Ġsk": 1819,
      "à´±": 1820,
      "fr": 1821,
      "Ġok": 1822,
      "Ġge": 1823,
      "àº»": 1824,
      "ÑįÐ³": 1825,
      "×Ĵ": 1826,
      "ìĹ": 1827,
      "ym": 1828,
      "Ġ×ĵ": 1829,
      "áŀ¾": 1830,
      "ĠÃ¶": 1831,
      "Ġol": 1832,
      "à±ĭ": 1833,
      "ĠÐºÑĬ": 1834,
      "áŀľ": 1835,
      "Ìį": 1836,
      "Ð¾Ð¿": 1837,
      "ĠEn": 1838,
      "Ð½Ðµ": 1839,
      "à´µ": 1840,
      "ĠThe": 1841,
      "à·Ļ": 1842,
      "Ð¾Ð·": 1843,
      "ure": 1844,
      "yl": 1845,
      "ii": 1846,
      "Ð°ÑģÑĤ": 1847,
      "à·ĥ": 1848,
      "ber": 1849,
      "ÒĽ": 1850,
      "Ġ×©": 1851,
      "×Ļ×Ļ×": 1852,
      "à¤ģ": 1853,
      "Ġben": 1854,
      "áİµ": 1855,
      "aa": 1856,
      "Ġmat": 1857,
      "Ø§ÙĬ": 1858,
      "Ġbu": 1859,
      "Ġtil": 1860,
      "áĥł": 1861,
      "Ø±Ùī": 1862,
      "Ġà¦Ĩ": 1863,
      "Ġà¤Ľ": 1864,
      "ÑĨÐ¸": 1865,
      "Ä§": 1866,
      "ĠFran": 1867,
      "Ø´Øª": 1868,
      "×§": 1869,
      "ĠÐ°Ð»": 1870,
      "à°¤": 1871,
      "ä¹ĭ": 1872,
      "æĹ": 1873,
      "àº§": 1874,
      "ett": 1875,
      "èĢ": 1876,
      "à¾±à½²": 1877,
      "Ġà¤ĩ": 1878,
      "ÛķÙĨ": 1879,
      "Ġà·ĥ": 1880,
      "Ġbir": 1881,
      "Ġche": 1882,
      "so": 1883,
      "áĢģ": 1884,
      "Ġ195": 1885,
      "ĠÑģÑĤ": 1886,
      "uz": 1887,
      "tor": 1888,
      "pl": 1889,
      "cht": 1890,
      "à°¦": 1891,
      "à®µ": 1892,
      "áŀĤ": 1893,
      "orm": 1894,
      "ry": 1895,
      "áĥķ": 1896,
      "ian": 1897,
      "ĠÙ¾Ùĩ": 1898,
      "Ð¸Ð³": 1899,
      "à¬¬": 1900,
      "jo": 1901,
      "anga": 1902,
      "ĠÃ¾": 1903,
      "Ġ11": 1904,
      "ĠÓ©": 1905,
      "à¥¦": 1906,
      "ĠÑİ": 1907,
      "ero": 1908,
      "àº¡": 1909,
      "Ġpl": 1910,
      "Å¼": 1911,
      "ïº": 1912,
      "ÑįÑħ": 1913,
      "Ä±r": 1914,
      "ÛĶ": 1915,
      "ĠÐ¥": 1916,
      "ÅĦ": 1917,
      "enti": 1918,
      "à©ĭ": 1919,
      "Ġ×ķ": 1920,
      "ĠÃŃ": 1921,
      "ĠØ§ÛĮ": 1922,
      "Ġà¨¹": 1923,
      "à¶¯": 1924,
      "Ġfil": 1925,
      "Ġfam": 1926,
      "uf": 1927,
      "áŀ¸": 1928,
      "cia": 1929,
      "ä¸ª": 1930,
      "å¸": 1931,
      "ĠÙħÛĮ": 1932,
      "à¦·": 1933,
      "ino": 1934,
      "oni": 1935,
      "Ġfi": 1936,
      "ÑĥÐ·": 1937,
      "Ġà¨µ": 1938,
      "Ð°ÑĢÑĭ": 1939,
      "ĠÐĽ": 1940,
      "Ġ×ľ": 1941,
      "ash": 1942,
      "ĠØ¨Ùĩ": 1943,
      "Ð°Ð¶": 1944,
      "à¸ķ": 1945,
      "isk": 1946,
      "àº¥": 1947,
      "ĠÙħÙĨ": 1948,
      "ĠMa": 1949,
      "Ġáİ¯áİ": 1950,
      "ĠÐ´Ð°": 1951,
      "ĠAng": 1952,
      "tt": 1953,
      "Ġkar": 1954,
      "à°®": 1955,
      "Ã¼r": 1956,
      "olog": 1957,
      "Ġ×¤": 1958,
      "ith": 1959,
      "Ġvi": 1960,
      "..": 1961,
      "Ġnu": 1962,
      "Ġfu": 1963,
      "áĪŃ": 1964,
      "per": 1965,
      "Ġvar": 1966,
      "áĥ¡": 1967,
      "Ġdr": 1968,
      "à¨¦": 1969,
      "Ġza": 1970,
      "kan": 1971,
      "ete": 1972,
      "Ġex": 1973,
      "ske": 1974,
      "äºº": 1975,
      "aki": 1976,
      "isa": 1977,
      "à¬®": 1978,
      "Ġ20": 1979,
      "å·": 1980,
      "ĠÚª": 1981,
      "Ġur": 1982,
      "áĭį": 1983,
      "Ġà¦ħ": 1984,
      "Ġàªª": 1985,
      "eh": 1986,
      "à¸ª": 1987,
      "à¸ļ": 1988,
      "ista": 1989,
      "Ġind": 1990,
      "ĠØ§ÙĨ": 1991,
      "Ð°Ð½Ð°": 1992,
      "áİ¢": 1993,
      "eni": 1994,
      "Ġga": 1995,
      "áıĽ": 1996,
      "aya": 1997,
      "Ø±ÙĪ": 1998,
      "Ġáİ¾": 1999,
      "áŁĩ": 2000,
      "Â²": 2001,
      "Ġlu": 2002,
      "å¤§": 2003,
      "à¶§": 2004,
      "Ġby": 2005,
      "ila": 2006,
      "ise": 2007,
      "ÂŃ": 2008,
      "ëĭ": 2009,
      "Ò¯Ò¯": 2010,
      "ĠâĢľ": 2011,
      "ÙīÙĦ": 2012,
      "Ġmi": 2013,
      "II": 2014,
      "à¤Ī": 2015,
      "ÛķØª": 2016,
      "Ġdat": 2017,
      "oll": 2018,
      "à¾¡": 2019,
      "Ġah": 2020,
      "æŃ": 2021,
      "Ġ193": 2022,
      "bi": 2023,
      "à¥ĥ": 2024,
      "ÙĦÛĮ": 2025,
      "Ø§ÙĪ": 2026,
      "Ġ|": 2027,
      "po": 2028,
      "esi": 2029,
      "Ø¤": 2030,
      "Ġáİ¯áİł": 2031,
      "Ò³": 2032,
      "Ø§ÙĤ": 2033,
      "ĠÚ¾": 2034,
      "àª¾àªĤ": 2035,
      "Ġreg": 2036,
      "Ð¸Ñħ": 2037,
      "Ġà»": 2038,
      "Ð°Ð½Ñĭ": 2039,
      "Ġsc": 2040,
      "áŁĤ": 2041,
      "ÐµÑģÑĤ": 2042,
      "âĢĵ": 2043,
      "nu": 2044,
      "tic": 2045,
      "à¤ı": 2046,
      "Ġà¶´": 2047,
      "of": 2048,
      "à¦ľ": 2049,
      "ĠSch": 2050,
      "à´£": 2051,
      "Ġpi": 2052,
      "ĠØ¬ÙĬ": 2053,
      "Ġà¨ķ": 2054,
      "wan": 2055,
      "Ġáīł": 2056,
      "qa": 2057,
      "Ð½Ñĸ": 2058,
      "Ġ,": 2059,
      "ide": 2060,
      "Ġra": 2061,
      "ĠâĢŀ": 2062,
      "ĠØ£": 2063,
      "±Û": 2064,
      "éĢ": 2065,
      "oma": 2066,
      "anda": 2067,
      "ÐµÐ½ÑĤ": 2068,
      "Ġà¶ļ": 2069,
      "Ġles": 2070,
      "ĠÄĳ": 2071,
      "Ġà¹": 2072,
      "ä¸Ń": 2073,
      "que": 2074,
      "ven": 2075,
      "ĠáĥĲáĥ": 2076,
      "Ġáĭ¨": 2077,
      "ald": 2078,
      "à´³": 2079,
      "ÙĲ": 2080,
      "Ġfa": 2081,
      "Ġpre": 2082,
      "ĠØ§Ø³": 2083,
      "eta": 2084,
      "Ø§Ùĩ": 2085,
      "Ã¨n": 2086,
      "Ġir": 2087,
      "Ø§ÙĨÛĮ": 2088,
      "Ġmil": 2089,
      "ÑĭÐ²": 2090,
      "áİ´": 2091,
      "uri": 2092,
      "bu": 2093,
      "Úª": 2094,
      "Ø¯Ùī": 2095,
      "à¨¹": 2096,
      "Ø§Ø±ÛĮ": 2097,
      "sp": 2098,
      "Ġlos": 2099,
      "à·Ħ": 2100,
      "gr": 2101,
      "àŃŁ": 2102,
      "yon": 2103,
      "Ã¢n": 2104,
      "min": 2105,
      "ÑģÐ°": 2106,
      "Ð¡": 2107,
      "ĠÅ¡": 2108,
      "Ãªn": 2109,
      "áŁĦ": 2110,
      "Þį": 2111,
      "Ð¾ÑģÑĤ": 2112,
      "áıĤ": 2113,
      "æķ": 2114,
      "ĠPar": 2115,
      "Ġjo": 2116,
      "Ġgu": 2117,
      "igh": 2118,
      "ÐµÐ½ÑĮ": 2119,
      "Ġber": 2120,
      "aro": 2121,
      "ici": 2122,
      "ÙĦÙĩ": 2123,
      "aba": 2124,
      "ante": 2125,
      "wo": 2126,
      "Ġáĥ¡": 2127,
      "Õ¡Õ¯": 2128,
      "Ġdis": 2129,
      "Ġsom": 2130,
      "ks": 2131,
      "ĠØ§ÙĦÙħ": 2132,
      "à°¡": 2133,
      "áıħ": 2134,
      "Ø¶": 2135,
      "Ġco": 2136,
      "áĪĿ": 2137,
      "Ó©ÑĢ": 2138,
      "áĢŀáĢĬ": 2139,
      "ĠÐ¨": 2140,
      "áĢ®": 2141,
      "Ġ192": 2142,
      "ãģ«": 2143,
      "èĩ": 2144,
      "les": 2145,
      "à¦¶": 2146,
      "áŀ¼": 2147,
      "Ġpos": 2148,
      "ÐµÑĪ": 2149,
      "ĠÚ©Ùĩ": 2150,
      "eld": 2151,
      "vo": 2152,
      "à³Ĥ": 2153,
      "à¨¼": 2154,
      "àº´": 2155,
      "itt": 2156,
      "ĠPr": 2157,
      "×ķ×ª": 2158,
      "ake": 2159,
      "Ã©r": 2160,
      "Ġbar": 2161,
      "Ġà¤ıà¤ķ": 2162,
      "ole": 2163,
      "àºª": 2164,
      "è¡": 2165,
      "go": 2166,
      "tion": 2167,
      "à·ĬâĢį": 2168,
      "×ķ×Ł": 2169,
      "uw": 2170,
      "§à¥": 2171,
      "ļáĥĺ": 2172,
      "Ð´Ñĭ": 2173,
      "ĠáĢ¡": 2174,
      "ĠSa": 2175,
      "ema": 2176,
      "à¬²": 2177,
      "Ġà¬ķ": 2178,
      "els": 2179,
      "Ø¯Ùĩ": 2180,
      "ÙĦÙĬ": 2181,
      "ÎŃ": 2182,
      "ament": 2183,
      "×Ĺ": 2184,
      "à¾£": 2185,
      "áŀ¢": 2186,
      "Ġà¤ĸ": 2187,
      "Õ¸Õ": 2188,
      "ÞĲ": 2189,
      "à¦Ĥ": 2190,
      "att": 2191,
      "Ð½Ñı": 2192,
      "200": 2193,
      "Þĭ": 2194,
      "Ð¾Ð³Ð¾": 2195,
      "áıįáıĹ": 2196,
      "ede": 2197,
      "eder": 2198,
      "Ġà¬¸": 2199,
      "fa": 2200,
      "ement": 2201,
      "ÑĥÑĪ": 2202,
      "ĠtÃ«": 2203,
      "gu": 2204,
      "han": 2205,
      "à²£": 2206,
      "'s": 2207,
      "Ø±Ùĩ": 2208,
      "ĠÏĥ": 2209,
      "ĠÎ±": 2210,
      "ame": 2211,
      "Ġmin": 2212,
      "ĠAm": 2213,
      "ÅĽ": 2214,
      "Ð°ÑĢÐ°": 2215,
      "Ġà¤ªà¤°": 2216,
      "àºļ": 2217,
      "Ġ0": 2218,
      "ende": 2219,
      "à´¸": 2220,
      "áĢºáģ": 2221,
      "ØªÙī": 2222,
      "æĿ": 2223,
      "Ð¸ÑĪ": 2224,
      "Ïī": 2225,
      "à¬¹": 2226,
      "Ġmga": 2227,
      "åĬ": 2228,
      "ese": 2229,
      "Ġgen": 2230,
      "áİ¦": 2231,
      "ako": 2232,
      "Ġà¬ª": 2233,
      "áİ¯": 2234,
      "ĠÞī": 2235,
      "Ġàªķ": 2236,
      "åĺ": 2237,
      "Ġtal": 2238,
      "ìĿĺ": 2239,
      "Ã¼n": 2240,
      "ÐµÐ¿": 2241,
      "à¾±à½º": 2242,
      "Ã«r": 2243,
      "ÐµÑħ": 2244,
      "Ġ25": 2245,
      "ĠÎº": 2246,
      "Ġgi": 2247,
      "à·Ĳ": 2248,
      "wi": 2249,
      "ĠÃ¼": 2250,
      "Ġ:": 2251,
      "áıĻ": 2252,
      "ste": 2253,
      "Ġà°ª": 2254,
      "à·ĵ": 2255,
      "ÑĥÑĮ": 2256,
      "Ø§Ø´": 2257,
      "ÑĭÑģ": 2258,
      "Ġà¤¸à¤®": 2259,
      "ity": 2260,
      "æľī": 2261,
      "à¨Ĩ": 2262,
      "Ġ×Ĳ×Ļ×": 2263,
      "Ġing": 2264,
      "Ġbil": 2265,
      "Ġí": 2266,
      "ĠÙĦÛķ": 2267,
      "ss": 2268,
      "eli": 2269,
      "ĠÏĢ": 2270,
      "Ġut": 2271,
      "à°Ł": 2272,
      "áİ¬": 2273,
      "Î³": 2274,
      "Ġye": 2275,
      "à´ļ": 2276,
      "ice": 2277,
      "Ġvun": 2278,
      "edi": 2279,
      "à¸«": 2280,
      "ä»¥": 2281,
      "anu": 2282,
      "alo": 2283,
      "iga": 2284,
      "Û°": 2285,
      "Ġson": 2286,
      "amm": 2287,
      "áĥĽ": 2288,
      "uss": 2289,
      "ĠàªĨ": 2290,
      "akan": 2291,
      "ras": 2292,
      "cu": 2293,
      "ä¿": 2294,
      "ï¼ī": 2295,
      "éĩ": 2296,
      "\",": 2297,
      "Ġfo": 2298,
      "Ġà²¨": 2299,
      "Ġann": 2300,
      "ÞĢ": 2301,
      "à¦Ľ": 2302,
      "à²ľ": 2303,
      "ron": 2304,
      "Ġcun": 2305,
      "áĪį": 2306,
      "à¦¼à¦¾": 2307,
      "Ø§Ú": 2308,
      "Ġlas": 2309,
      "atan": 2310,
      "ÐµÐ»ÑĮ": 2311,
      "ÙĪÛĮ": 2312,
      "Ø³Ùī": 2313,
      "éĥ": 2314,
      "Ġsin": 2315,
      "Ø³ÛĮ": 2316,
      "ren": 2317,
      "orn": 2318,
      "ï¼Ī": 2319,
      "æĶ": 2320,
      "áĢ¡": 2321,
      "iko": 2322,
      "uo": 2323,
      "à¾±à½¼": 2324,
      "ÅĻ": 2325,
      "ĠÃ½": 2326,
      "uma": 2327,
      "Ġhet": 2328,
      "à¨®": 2329,
      "Ø«": 2330,
      "urg": 2331,
      "áĪµ": 2332,
      "áĥļ": 2333,
      "Î±Î¹": 2334,
      "ciÃ³n": 2335,
      "10": 2336,
      "17": 2337,
      "Ð°Ð»ÑĮ": 2338,
      "ĠNa": 2339,
      "Þģ": 2340,
      "Öģ": 2341,
      "Ġpop": 2342,
      "ĠSe": 2343,
      "à©ģ": 2344,
      "Ð¸Ð¸": 2345,
      "à¤¤à¤°": 2346,
      "Ð°ÑĨ": 2347,
      "Ã¡s": 2348,
      "isti": 2349,
      "å±": 2350,
      "jen": 2351,
      "Ġà¨¨": 2352,
      "ÑıÐ½": 2353,
      "Ġà²µ": 2354,
      "ĠÐ±Ð°Ð¹": 2355,
      "×Ļ×Ŀ": 2356,
      "ĠÐ¾ÑĢ": 2357,
      "åĮ": 2358,
      "Ġkas": 2359,
      "Ġà®ª": 2360,
      "ÑĭÐ´": 2361,
      "Ð³Ð°Ð½": 2362,
      "une": 2363,
      "Ġwo": 2364,
      "Ã¡l": 2365,
      "à¥Į": 2366,
      "à±ĩ": 2367,
      "ome": 2368,
      "du": 2369,
      "à½Ļ": 2370,
      "ÐµÐ±": 2371,
      "ÙĨÙīÚŃ": 2372,
      "mu": 2373,
      "ĠÅŁ": 2374,
      "ÑįÐ´": 2375,
      "ÑĹ": 2376,
      "ĠInd": 2377,
      "á»¥": 2378,
      "Ġpu": 2379,
      "à©Ī": 2380,
      "à¾²à½´": 2381,
      "Ġbol": 2382,
      "ĠKo": 2383,
      "ÛķÚ©": 2384,
      "ton": 2385,
      "ĠÐ¤": 2386,
      "à°µ": 2387,
      "ÄĻ": 2388,
      "ĠáĥĴ": 2389,
      "ĠIs": 2390,
      "à¤¹à¤°": 2391,
      "rop": 2392,
      "à¨¾à¨Ĥ": 2393,
      "æ°": 2394,
      "ÙĬÙĪ": 2395,
      "è¿": 2396,
      "Õ¥ÖĢ": 2397,
      "Ġ×Ĵ": 2398,
      "áĥ¢": 2399,
      "ÑĥÐ¿": 2400,
      "ëĭ¤": 2401,
      "age": 2402,
      "Ġà´ª": 2403,
      "Î®": 2404,
      "ĠØĮ": 2405,
      "ĠØ¯ÛĮ": 2406,
      "Ð»ÑĮ": 2407,
      "ÑĤÑĮ": 2408,
      "ÉĻr": 2409,
      "Ġà½ĳ": 2410,
      "Ġinter": 2411,
      "ĠÐ²Ð¾": 2412,
      "\".": 2413,
      "ëĬ": 2414,
      "æī": 2415,
      "Ġhan": 2416,
      "ìĹĲ": 2417,
      "Ò¯ÑĢ": 2418,
      "ami": 2419,
      "iki": 2420,
      "Ġmer": 2421,
      "à°¸": 2422,
      "ĠÄį": 2423,
      "lÄ±": 2424,
      "Ð»Ñı": 2425,
      "ÙĪÚº": 2426,
      "Ġhar": 2427,
      "ĠTe": 2428,
      "ØªØ§": 2429,
      "Ġàª¸": 2430,
      "Ġze": 2431,
      "Ġent": 2432,
      "ats": 2433,
      "ck": 2434,
      "ĠDi": 2435,
      "àºĹ": 2436,
      "use": 2437,
      "à¾±à½´": 2438,
      "ros": 2439,
      "ĠÃ±": 2440,
      "fer": 2441,
      "à¤°à¤ķ": 2442,
      "ØªØ±": 2443,
      "ux": 2444,
      "ĠÐ°Ð´": 2445,
      "àª¸": 2446,
      "ime": 2447,
      "Ġtra": 2448,
      "Úĵ": 2449,
      "Ã¤Ã¤": 2450,
      "Ġà¨ª": 2451,
      "ito": 2452,
      "Ð°ÑĢÑĭÐ½": 2453,
      "áĥĲáĥ¨": 2454,
      "ĠÚ©ÛĮ": 2455,
      "ĠØ¨ÛĮ": 2456,
      "Ġwas": 2457,
      "áıĴ": 2458,
      "ê³": 2459,
      "áĥĵ": 2460,
      "ÑįÐ¹": 2461,
      "à¬¸": 2462,
      "ØªÙĩ": 2463,
      "Ð¾Ð½ÑĮ": 2464,
      "Ġnang": 2465,
      "à´Ļ": 2466,
      "ìĿ´": 2467,
      "cha": 2468,
      "åº": 2469,
      "å¼": 2470,
      "à²¬": 2471,
      "Ġres": 2472,
      "çī": 2473,
      "à½Ķà½¢": 2474,
      "Ġ×¢": 2475,
      "ãģŁ": 2476,
      "ÑĤÐ¾": 2477,
      "ige": 2478,
      "×Ľ": 2479,
      "Ð¸Ð¹Ð½": 2480,
      "Ø§Ú©": 2481,
      "bl": 2482,
      "ëĬĶ": 2483,
      "aman": 2484,
      "oku": 2485,
      "alm": 2486,
      "Þ¬.": 2487,
      "ä¼": 2488,
      "ĠÐ³Ð¾Ð´": 2489,
      "16": 2490,
      "ico": 2491,
      "ĠÐ¾Ð´": 2492,
      "à²ļ": 2493,
      "à¸Ľ": 2494,
      "çĤ": 2495,
      "Ġwan": 2496,
      "Ġ2010": 2497,
      "der": 2498,
      "Ġà®ķ": 2499,
      "eme": 2500,
      "ÙĨÛĮ": 2501,
      "à¦£": 2502,
      "à³ĭ": 2503,
      "àµ¼": 2504,
      "àµĩ": 2505,
      "ÈĽ": 2506,
      "Ùĳ": 2507,
      "ĠSan": 2508,
      "ĠØ¦Ûķ": 2509,
      "uu": 2510,
      "Ð»Ð¸": 2511,
      "pan": 2512,
      "Ïĩ": 2513,
      "Ð°Ñĩ": 2514,
      "Õ«Õ¶": 2515,
      "áĢ¶": 2516,
      "à³Ģ": 2517,
      "Ûĭ": 2518,
      "urt": 2519,
      "Ġà²Ĩ": 2520,
      "cz": 2521,
      "ret": 2522,
      "Ġos": 2523,
      "éĻ": 2524,
      "ĠáĬł": 2525,
      "Ġà¦¦": 2526,
      "tiv": 2527,
      "rt": 2528,
      "ÑĥÑĥ": 2529,
      "Ġà¦¤": 2530,
      "à¦ļ": 2531,
      "æĽ": 2532,
      "ÙĦØ§Ø±": 2533,
      "Ġho": 2534,
      "àŃĭ": 2535,
      "ÛķÛĮ": 2536,
      "12": 2537,
      "ĠRe": 2538,
      "Ġà¦¨": 2539,
      "Ġkun": 2540,
      "ĠÐ¾Ð±": 2541,
      "ĠÒ»": 2542,
      "áĢ·áĢº": 2543,
      "Ġà°ķ": 2544,
      "à¤°à¤®": 2545,
      "ĠØ¬ÙĪ": 2546,
      "ive": 2547,
      "ĠTh": 2548,
      "Õ«Õ": 2549,
      "Ð³ÑĬ": 2550,
      "à½ĸà½ŀ": 2551,
      "Ġfin": 2552,
      "ĠÐ±Ñĥ": 2553,
      "Ġaz": 2554,
      "Ġein": 2555,
      "ĠPro": 2556,
      "åĺħ": 2557,
      "à¾¤": 2558,
      "ÙĬØ±": 2559,
      "dan": 2560,
      "à¸Ħ": 2561,
      "áĢ²": 2562,
      "Ġpag": 2563,
      "ĠÐĹ": 2564,
      "æĺ¯": 2565,
      "áŁħ": 2566,
      "áĥĺáĥľ": 2567,
      "ãĤĭ": 2568,
      "aran": 2569,
      "fi": 2570,
      "ll": 2571,
      "å¯": 2572,
      "15": 2573,
      "Ð¾Ñĩ": 2574,
      "Ġàª®": 2575,
      "Ð¾Ð¶": 2576,
      "ĠÛ¾": 2577,
      "vin": 2578,
      "Ġà²¤": 2579,
      "Ò¯Ð½": 2580,
      "ÙĥÙī": 2581,
      "Ġmag": 2582,
      "Ġyang": 2583,
      "Ð¾Ñħ": 2584,
      "Ġ[": 2585,
      "ÑĢÐ°Ð½": 2586,
      "Ġmit": 2587,
      "à¶ľ": 2588,
      "ÙĬØ©": 2589,
      "uli": 2590,
      "ĠTa": 2591,
      "ÑĭÑħ": 2592,
      "à¨ļ": 2593,
      "Ġà¬¬": 2594,
      "ego": 2595,
      "ÐµÑĩ": 2596,
      "ÑĭÐ¿": 2597,
      "ÙħØ§ÙĨ": 2598,
      "à§¦": 2599,
      "ÑĭÐ·": 2600,
      "Ġdem": 2601,
      "Ãłn": 2602,
      "à¼Į": 2603,
      "eti": 2604,
      "à²Ĺà²³": 2605,
      "ĠÙģÙĬ": 2606,
      "Ġkr": 2607,
      "áıįáİ©": 2608,
      "Õ¸ÖĤÕ´": 2609,
      "Æ°": 2610,
      "ken": 2611,
      "ĠMe": 2612,
      "ĠGr": 2613,
      "áĥĲáĥļ": 2614,
      "Ġpod": 2615,
      "alis": 2616,
      "ĠÐ±Ð°ÑĢ": 2617,
      "à©Ĥ": 2618,
      "Ġhab": 2619,
      "Ġà¨ħ": 2620,
      "à¹Į": 2621,
      "ando": 2622,
      "Ġph": 2623,
      "ÈĻ": 2624,
      "Ġà®®": 2625,
      "Ġpara": 2626,
      "çĽ": 2627,
      "à¤³": 2628,
      "Ø¯ÛĮ": 2629,
      "Ã¤t": 2630,
      "Ð°Ñı": 2631,
      "Ã´ng": 2632,
      "Ù¹": 2633,
      "its": 2634,
      "ĠÐķ": 2635,
      "à¹ģ": 2636,
      "onn": 2637,
      "áĥĲáĥĽ": 2638,
      "Ð°Ð½Ð³": 2639,
      "ÃŁ": 2640,
      "Ġà²ĩ": 2641,
      "Ð»Ñĸ": 2642,
      "Ġàª¤": 2643,
      "Ġul": 2644,
      "àº·": 2645,
      "Ð°ÑģÑģ": 2646,
      "à¤µà¤°": 2647,
      "ĠÃ¦": 2648,
      "ivers": 2649,
      "ØºØ§ÙĨ": 2650,
      "Ġngw": 2651,
      "Ġkat": 2652,
      "elo": 2653,
      "alar": 2654,
      "à¼Įà¼į": 2655,
      "men": 2656,
      "áİ¸": 2657,
      "Ġseg": 2658,
      "Ġ30": 2659,
      "par": 2660,
      "Ġà¨ľ": 2661,
      "Ġnan": 2662,
      "àŃĢ": 2663,
      "Ġkap": 2664,
      "ione": 2665,
      "ase": 2666,
      "ÙīÙĦÙī": 2667,
      "à±Ģ": 2668,
      "ĠÔ": 2669,
      "ÅĤa": 2670,
      "ĠÐŃ": 2671,
      "Ã¨r": 2672,
      "Ġnag": 2673,
      "Ġà°¸": 2674,
      "áı«": 2675,
      "ph": 2676,
      "Ġà¦Ĺ": 2677,
      "yk": 2678,
      "à¤¼": 2679,
      "ĠÛ±Û": 2680,
      "à½łà½ĸ": 2681,
      "×¦": 2682,
      "ÑįÑĤ": 2683,
      "Þ®": 2684,
      "Õµ": 2685,
      "áĥĲáĥ¡": 2686,
      "Ã©g": 2687,
      "iet": 2688,
      "ft": 2689,
      "ĠØµ": 2690,
      "Ġnj": 2691,
      "à°Ĺ": 2692,
      "áĥĺáĥ¨": 2693,
      "Ð°Ð»Ð°": 2694,
      "ĠÐ§": 2695,
      "Ġsub": 2696,
      "imi": 2697,
      "ĠSh": 2698,
      "ÐµÐ½Ð¸": 2699,
      "urop": 2700,
      "Ð¸ÑĤÐµ": 2701,
      "à¸²à¸£": 2702,
      "Ġáİ¢": 2703,
      "Ġket": 2704,
      "Ġpas": 2705,
      "Ġ24": 2706,
      "ĠØ¨Ø±": 2707,
      "20": 2708,
      "à¬¥": 2709,
      "Ø°": 2710,
      "ĠÐ¸Ð½": 2711,
      "Ġpri": 2712,
      "àµĭ": 2713,
      "Ġju": 2714,
      "Ġcum": 2715,
      "Ġàªľ": 2716,
      "ova": 2717,
      "ĠÐ·Ð°": 2718,
      "lin": 2719,
      "áĥĲáĥłáĥ": 2720,
      "atur": 2721,
      "Ïį": 2722,
      "ÐµÐºÑĤ": 2723,
      "ĠÎµ": 2724,
      "Ġà¤ħà¤¨": 2725,
      "ct": 2726,
      "Î¹Îº": 2727,
      "Ð¼Ð°": 2728,
      "br": 2729,
      "à¾²à½¼": 2730,
      "×Ŀ": 2731,
      "à¸Ī": 2732,
      "50": 2733,
      "kt": 2734,
      "Ð¸Ð½Ð°": 2735,
      "æľĪ": 2736,
      "Ġdia": 2737,
      "Ġtan": 2738,
      "æĻ": 2739,
      "ãģ¨": 2740,
      "Ġrep": 2741,
      "Ġsen": 2742,
      "Ġsv": 2743,
      "bin": 2744,
      "cc": 2745,
      "Ø¨Ø±": 2746,
      "åľ¨": 2747,
      "Ð»Ñĥ": 2748,
      "Ġ/": 2749,
      "ban": 2750,
      "éĽ": 2751,
      "Ġdir": 2752,
      "àµ½": 2753,
      "ĠCom": 2754,
      "Åı": 2755,
      "ĠØ§Ø²": 2756,
      "Ġnom": 2757,
      "Ġà´ķ": 2758,
      "à®ķà®³": 2759,
      "Ġmod": 2760,
      "ãģ¯": 2761,
      "è¨": 2762,
      "ĠIl": 2763,
      "Ð¾ÑĪ": 2764,
      "áĥĶáĥľ": 2765,
      "Ø¸": 2766,
      "yen": 2767,
      "ãĥ¼": 2768,
      "ÑĭÐ¹": 2769,
      "åĭ": 2770,
      "áĢºáģĭ": 2771,
      "ike": 2772,
      "Ġáİłáİ´": 2773,
      "ĠØ¦Ùī": 2774,
      "ĠÐ¸Ð·": 2775,
      "ĠÑŀ": 2776,
      "Ġà¦ľ": 2777,
      "ĠHe": 2778,
      "çķ": 2779,
      "áĪĺ": 2780,
      "à½łà½Ĥ": 2781,
      "ath": 2782,
      "Ġast": 2783,
      "ĠIt": 2784,
      "ĠÐ¾ÑĤ": 2785,
      "áŀİ": 2786,
      "à°ª": 2787,
      "201": 2788,
      "ÑĢÐ¸": 2789,
      "Ġá»": 2790,
      "Ġkw": 2791,
      "Ġà¥§à¥": 2792,
      "å¥": 2793,
      "åľĭ": 2794,
      "ĠÃª": 2795,
      "ç«": 2796,
      "Ð°ÑģÑĮ": 2797,
      "Ġnas": 2798,
      "oli": 2799,
      "ĠÅ¾": 2800,
      "ìĦ": 2801,
      "à½ĸà½ł": 2802,
      "lam": 2803,
      "çĤº": 2804,
      "ÙĨÚ¯": 2805,
      "à³ģ.": 2806,
      "Õ¿": 2807,
      "áı¢": 2808,
      "ĠSp": 2809,
      "unn": 2810,
      "Õ¡Õµ": 2811,
      "Ġdh": 2812,
      "ÑįÑį": 2813,
      "ĠØ¨ÙĪ": 2814,
      "éĸ": 2815,
      "ĠOr": 2816,
      "áį¢": 2817,
      "Â°": 2818,
      "åĩ": 2819,
      "Ġpal": 2820,
      "ÑĸÐ½": 2821,
      "ĠÑĥÐ»": 2822,
      "à¨ľ": 2823,
      "àºŃàºĩ": 2824,
      "Ġà¤«": 2825,
      "Ð´Ð¸": 2826,
      "àªª": 2827,
      "ĠnÃ«": 2828,
      "à¸£à¸°": 2829,
      "ĠÐ°Ð²": 2830,
      "Ġà²¦": 2831,
      "Ġmak": 2832,
      "à¸¸": 2833,
      "à¸ŀ": 2834,
      "à¾²à½²": 2835,
      "ubl": 2836,
      "à¤«": 2837,
      "ĠdÃ©": 2838,
      "Ġwat": 2839,
      "áĢ«": 2840,
      "Äĳ": 2841,
      "Ġà¶ħ": 2842,
      "Ġsing": 2843,
      "Ġeen": 2844,
      "ĠÐºÐ¾Ð½": 2845,
      "ãĢĮ": 2846,
      "ãĢį": 2847,
      "ÓĻÑĢ": 2848,
      "ĠÏĦÎ·": 2849,
      "à¬£": 2850,
      "Ġchi": 2851,
      "Ġts": 2852,
      "ÛĩØ±": 2853,
      "yu": 2854,
      "Ġsam": 2855,
      "Ã¶l": 2856,
      "à»ģ": 2857,
      "íķĺ": 2858,
      "ĠÑĺ": 2859,
      "ĠÐ²Ð°": 2860,
      "ĠàªĽ": 2861,
      "Ġà¤§": 2862,
      "osa": 2863,
      "à¸Ńà¸ĩ": 2864,
      "Ġdist": 2865,
      "ĠSo": 2866,
      "Ä±nda": 2867,
      "ë¡": 2868,
      "ÃŃn": 2869,
      "ÑĭÐ½Ð´Ð°": 2870,
      "§à§": 2871,
      "ÞŃ": 2872,
      "à½Ľ": 2873,
      "à¸·": 2874,
      "Ġfan": 2875,
      "Ð¾Ð»ÑĮ": 2876,
      "Î´": 2877,
      "ÐĲ": 2878,
      "Ġev": 2879,
      "ary": 2880,
      "Ð°Ð³Ð°": 2881,
      "ĠìĿ": 2882,
      "ĠÞĨ": 2883,
      "elt": 2884,
      "ÑħÐ°": 2885,
      "æĹ¥": 2886,
      "áŀ½": 2887,
      "ÙħÛĮ": 2888,
      "Ġdhe": 2889,
      "à¸µà¹Ī": 2890,
      "áŀģ": 2891,
      "alt": 2892,
      "ick": 2893,
      "áĥľ": 2894,
      "Ġà²¹": 2895,
      "ĠÕ°": 2896,
      "old": 2897,
      "ega": 2898,
      "Ġà¶¸": 2899,
      "àµģà´Ĥ": 2900,
      "Ġáİ¤áı": 2901,
      "Ġwar": 2902,
      "àº«": 2903,
      "Ã¼l": 2904,
      "ĠHa": 2905,
      "14": 2906,
      "àª¦": 2907,
      "ors": 2908,
      "Ò¥": 2909,
      "fe": 2910,
      "Ú©ÛĮ": 2911,
      "à¦Ń": 2912,
      "Ġà¨ĩ": 2913,
      "Ġdet": 2914,
      "Ġsup": 2915,
      "à²·": 2916,
      "Ġà®ĩ": 2917,
      "à¤ł": 2918,
      "Ġhu": 2919,
      "×ķ×Ļ×": 2920,
      "èĪ": 2921,
      "Ġ×ĸ": 2922,
      "Ġten": 2923,
      "gen": 2924,
      "Ã³r": 2925,
      "eks": 2926,
      "ÞĬ": 2927,
      "ÑĥÐ²": 2928,
      "ĠAs": 2929,
      "ĠÑģÐµ": 2930,
      "asyon": 2931,
      "ĠØ·": 2932,
      "Ã¡r": 2933,
      "ØªÛĮ": 2934,
      "áĢļ": 2935,
      "Ġpers": 2936,
      "ĠØ§ÛĮÙĨ": 2937,
      "É£": 2938,
      "ÑĤÐµ": 2939,
      "adh": 2940,
      "áĥĲáĥł": 2941,
      "Ġà¤ķà¤°": 2942,
      "à¹ĥ": 2943,
      "à°¿.": 2944,
      "Ġáĥ¬": 2945,
      "à¹ĩ": 2946,
      "áĪĪ": 2947,
      "Ġmun": 2948,
      "ulu": 2949,
      "ĠÎ¼": 2950,
      "ÃŃa": 2951,
      "à®ļ": 2952,
      "Ð¸ÐºÐ°": 2953,
      "åĴ": 2954,
      "eth": 2955,
      "Ø±Ø¨": 2956,
      "ekt": 2957,
      "à¬¦": 2958,
      "ĠÙħÙĪ": 2959,
      "Ġlan": 2960,
      "ĠGu": 2961,
      "Ø§Ø¹": 2962,
      "Ã®n": 2963,
      "áŀł": 2964,
      "Ġrel": 2965,
      "Ġagus": 2966,
      "Ð¸Ð¿": 2967,
      "×ķ×¨": 2968,
      "ille": 2969,
      "àªĹ": 2970,
      "à¾©": 2971,
      "uka": 2972,
      "yst": 2973,
      "aha": 2974,
      "ÐºÑĬ": 2975,
      "Ðļ": 2976,
      "ix": 2977,
      "ìĿĦ": 2978,
      "ãģĹ": 2979,
      "Ã¬n": 2980,
      "Ġà´¸": 2981,
      "Ġpat": 2982,
      "à¼ĭà¼į": 2983,
      "à½£à½¦": 2984,
      "yt": 2985,
      "Ġáİłáı": 2986,
      "30": 2987,
      "Ġtot": 2988,
      "Åº": 2989,
      "ark": 2990,
      "ĠáĬ¥": 2991,
      "áĢ°": 2992,
      "Ġsch": 2993,
      "à¨µ": 2994,
      "Ð°Ð½ÑĮ": 2995,
      "Ġáİ¦": 2996,
      "Ġtemp": 2997,
      "esti": 2998,
      "Å³": 2999,
      "à¦ĸ": 3000,
      "à¦§": 3001,
      "Ã¤d": 3002,
      "å»": 3003,
      "Ä¼": 3004,
      "ãĤĴ": 3005,
      "ĠEr": 3006,
      "à¤ī": 3007,
      "ÙĤÙī": 3008,
      "ĠBa": 3009,
      "Ġà¬®": 3010,
      "ĠBr": 3011,
      "æĪĲ": 3012,
      "ional": 3013,
      "Ġáĥł": 3014,
      "zo": 3015,
      "Ġàªħ": 3016,
      "Ġbr": 3017,
      "iba": 3018,
      "Ġà¤Ĺà¤°": 3019,
      "anti": 3020,
      "usi": 3021,
      "áŀĴ": 3022,
      "ski": 3023,
      "fic": 3024,
      "ĠÃº": 3025,
      "mas": 3026,
      "à¤¾à¤ĥ": 3027,
      "ĠØ¯Ø§": 3028,
      "ger": 3029,
      "ÖĦ": 3030,
      "åĢ": 3031,
      "ãģ¦": 3032,
      "oy": 3033,
      "æ²": 3034,
      "áŀī": 3035,
      "ember": 3036,
      "à´¦": 3037,
      "Ġini": 3038,
      "Ġez": 3039,
      "åĨ": 3040,
      "ĠÃ©ÃŃ": 3041,
      "Ġdit": 3042,
      "ÙĪØ¨": 3043,
      "Ġaw": 3044,
      "ĠØ¨Ûķ": 3045,
      "sta": 3046,
      "åŁ": 3047,
      "Ġà½¦": 3048,
      "Ġid": 3049,
      "è¦": 3050,
      "×Ĳ×¨": 3051,
      "æµ": 3052,
      "Ġbas": 3053,
      "ĠØ§Ø³Øª": 3054,
      "à¦¡": 3055,
      "ische": 3056,
      "ĠáĥĻ": 3057,
      "Ġkal": 3058,
      "Ġ×Ļ": 3059,
      "Ġsta": 3060,
      "Ð´Ð¸Ð½": 3061,
      "pu": 3062,
      "à¾Ķ": 3063,
      "adu": 3064,
      "Ġà¶¯": 3065,
      "Ġzu": 3066,
      "Ġprim": 3067,
      "à½¡à½Ħ": 3068,
      "à½ĩ": 3069,
      "Ġsab": 3070,
      "Î¸": 3071,
      "ĠÃ»": 3072,
      "ÑģÑĤÐ²": 3073,
      "ĠÙĩÙħ": 3074,
      "ĠJoh": 3075,
      "á»ĭ": 3076,
      "Ġpan": 3077,
      "Ġcont": 3078,
      "åĳ": 3079,
      "ĠPa": 3080,
      "ÙĦØ§": 3081,
      "áĢĸ": 3082,
      "Ð¾Ñĺ": 3083,
      "ãģ§": 3084,
      "à¾Ĺ": 3085,
      "Ġken": 3086,
      "à¬ª": 3087,
      "Ùı": 3088,
      "ulo": 3089,
      "Ġtur": 3090,
      "Ð°Ð´Ð°": 3091,
      "Ġpres": 3092,
      "ÐµÐ¶": 3093,
      "lat": 3094,
      "ĠÑįÑĢ": 3095,
      "ĠBe": 3096,
      "ĠÞĦ": 3097,
      "Ġà¨¤": 3098,
      "ande": 3099,
      "amu": 3100,
      "à®¨": 3101,
      "ĠAmer": 3102,
      "lad": 3103,
      "à²¹": 3104,
      "áº¹": 3105,
      "ose": 3106,
      "ĠÃ®": 3107,
      "àªľ": 3108,
      "Ä±ÅŁ": 3109,
      "udi": 3110,
      "çİ": 3111,
      "à¬Ł": 3112,
      "Ġint": 3113,
      "Ð°Ð³ÑĬ": 3114,
      "Ġáĥĺ": 3115,
      "à®£": 3116,
      "à¦¥": 3117,
      "edd": 3118,
      "Ð¸Ñĺ": 3119,
      "à¤Ļ": 3120,
      "Ġ190": 3121,
      ".,": 3122,
      "æĭ": 3123,
      "ĠáĮ": 3124,
      "ĠCar": 3125,
      "Ġà®¤": 3126,
      "ÌĢ": 3127,
      "Ġlang": 3128,
      "uru": 3129,
      "Õ¡ÖĢ": 3130,
      "zy": 3131,
      "à¾·": 3132,
      "àºķ": 3133,
      "áī°": 3134,
      "Ġist": 3135,
      "Ġmal": 3136,
      "à²¶": 3137,
      "port": 3138,
      "ĠÕ§": 3139,
      "Ġà¤µà¤°": 3140,
      "ĠÙ¾Ø±": 3141,
      "Ġval": 3142,
      "ÉĽ": 3143,
      "ĠSu": 3144,
      "ä¸į": 3145,
      "oro": 3146,
      "Ġik": 3147,
      "Ġà¨®": 3148,
      "ĠÒĽ": 3149,
      "Ó©Ð½": 3150,
      "Î±Î½": 3151,
      "ÑĥÑħ": 3152,
      "à¹Ħ": 3153,
      "ento": 3154,
      "ÙĦÙħ": 3155,
      "Ġfran": 3156,
      "à¶«": 3157,
      "den": 3158,
      "ÅŃ": 3159,
      "Ġgod": 3160,
      "Ġyi": 3161,
      "ars": 3162,
      "este": 3163,
      "ahan": 3164,
      "Ġiti": 3165,
      "àª£": 3166,
      "ÑĨÐ°": 3167,
      "Ãªr": 3168,
      "ĠÛ½": 3169,
      "áĥĲáĥĵ": 3170,
      "ÒĻ": 3171,
      "àºį": 3172,
      "ÙĪÙĬ": 3173,
      "à¨¿à©±": 3174,
      "13": 3175,
      "áĬĵ": 3176,
      "æ³": 3177,
      "eka": 3178,
      "×ķ×ł": 3179,
      "nt": 3180,
      "à¶´": 3181,
      "van": 3182,
      "ãģĮ": 3183,
      "esch": 3184,
      "§Ģ": 3185,
      "Ġcar": 3186,
      "ÐºÑĸ": 3187,
      "uni": 3188,
      "eter": 3189,
      "imb": 3190,
      "åĲĮ": 3191,
      "å½": 3192,
      "Ã³l": 3193,
      "Ġpart": 3194,
      "ÙĪØ³": 3195,
      "Ġro": 3196,
      "ella": 3197,
      "ĠFr": 3198,
      "Ġaut": 3199,
      "ĠAb": 3200,
      "omin": 3201,
      "ÑĤÐ°ÑĢ": 3202,
      "org": 3203,
      "yp": 3204,
      "Ġdin": 3205,
      "elle": 3206,
      "ÙĩØ§": 3207,
      "åħ¶": 3208,
      "Ġmay": 3209,
      "ĠÐ±Ð°": 3210,
      "ÐºÑģ": 3211,
      "reg": 3212,
      "áĥĶáĥļ": 3213,
      "Ø¡": 3214,
      "Ġcap": 3215,
      "à½ĸà½ħ": 3216,
      "Ø³ØªØ§ÙĨ": 3217,
      "Ġmot": 3218,
      "ãģĦ": 3219,
      "Ġina": 3220,
      "Õ¨": 3221,
      "Ø§Ø¬": 3222,
      "ê°": 3223,
      "à¸Ĭ": 3224,
      "Ġ×ł": 3225,
      "inde": 3226,
      "Ð´Ðµ": 3227,
      "åľ°": 3228,
      "Ġsal": 3229,
      "ono": 3230,
      "ej": 3231,
      "Ġà¦ĩ": 3232,
      "Ġ22": 3233,
      "çĻ": 3234,
      "ĠÄ«": 3235,
      "Ã¤l": 3236,
      "Ġuk": 3237,
      "Ã©t": 3238,
      "ÏĨ": 3239,
      "Ġ2011": 3240,
      "nÃŃ": 3241,
      "ÓĻÐ½": 3242,
      "hr": 3243,
      "inu": 3244,
      "ÑģÑı": 3245,
      "ink": 3246,
      "ustr": 3247,
      "Ġ2007": 3248,
      "Ġdari": 3249,
      "à§±": 3250,
      "Ġnd": 3251,
      "à¬³": 3252,
      "à¥ĭà¤Ĥ": 3253,
      "azi": 3254,
      "Ġ×§": 3255,
      "entr": 3256,
      "olu": 3257,
      "Ó£": 3258,
      "erk": 3259,
      "à³įâĢĮ": 3260,
      "Ġup": 3261,
      "ava": 3262,
      "Ð»Ð°Ð½": 3263,
      "ĠÚ©ÛĴ": 3264,
      "Ġà°µ": 3265,
      "11": 3266,
      "ĠDa": 3267,
      "ë¡ľ": 3268,
      "à¬ĩ": 3269,
      "ÙĬØ¯": 3270,
      "è»": 3271,
      "ĠpÃ¥": 3272,
      "ÐµÑĨ": 3273,
      "Ġeg": 3274,
      "ĠKa": 3275,
      "à¨£": 3276,
      "ogra": 3277,
      "Ġà´µ": 3278,
      "ĠKar": 3279,
      "ĠÑģÐ¾": 3280,
      "Ġinf": 3281,
      "val": 3282,
      "Ä±l": 3283,
      "Ġfl": 3284,
      "Ġji": 3285,
      "à½Ķà½¦": 3286,
      "Ġlat": 3287,
      "Ġvon": 3288,
      "Ġsem": 3289,
      "yi": 3290,
      "Ã¾": 3291,
      "Ġsig": 3292,
      "ÙĩØ±": 3293,
      "ĠEs": 3294,
      "ĠØ³Ø§ÙĦ": 3295,
      "åĽ½": 3296,
      "×ĸ": 3297,
      "Ġ23": 3298,
      "Ġhem": 3299,
      "ĠØ¢Ùĩ": 3300,
      "ç¾": 3301,
      "Ø¦ÙĨ": 3302,
      "uch": 3303,
      "Ġmus": 3304,
      "Ġ26": 3305,
      "éĿ": 3306,
      "ĠÐºÐ¾Ð¼": 3307,
      "à¤¾à¤ģ": 3308,
      "à¸¹": 3309,
      "ĠÞĢ": 3310,
      "Ġà¤ħà¤¸": 3311,
      "ÑĤÐ¸": 3312,
      "oko": 3313,
      "Òķ": 3314,
      "à½ĳà½ĸ": 3315,
      "Ġ2000": 3316,
      "Ġà½¢": 3317,
      "onom": 3318,
      "ĠAd": 3319,
      "åī": 3320,
      "ĠÏĦÎ¿Ïħ": 3321,
      "Ð»Ñĭ": 3322,
      "áĭ«": 3323,
      "urs": 3324,
      "à¨Ł": 3325,
      "ÎµÎ¹": 3326,
      "ĠÐºÐ¼": 3327,
      "ÑĥÑį": 3328,
      "à»ĥ": 3329,
      "ë¥": 3330,
      "ä¾": 3331,
      "à¨Ĺ": 3332,
      "èĢĮ": 3333,
      "lah": 3334,
      "iro": 3335,
      "erb": 3336,
      "Ġà®µ": 3337,
      "Ġai": 3338,
      "Ġ2006": 3339,
      "ott": 3340,
      "ment": 3341,
      "Ġà¤ľà¤¨": 3342,
      "áİ³": 3343,
      "àªŁ": 3344,
      "Ġsek": 3345,
      "áĥ®": 3346,
      "agi": 3347,
      "ĠTr": 3348,
      "âĢĶ": 3349,
      "ht": 3350,
      "ode": 3351,
      "Ø§ØŃ": 3352,
      "lig": 3353,
      "ÙĨÚ": 3354,
      "ä¸Ĭ": 3355,
      "Ġbat": 3356,
      "à¤µà¤¨": 3357,
      "arn": 3358,
      "Ø§Úº": 3359,
      "Ð³Ðµ": 3360,
      "ĠNy": 3361,
      "ĠÑĤÑĥÑĢ": 3362,
      "ĠÛģÛĴ": 3363,
      "Ġ2008": 3364,
      "àºĽ": 3365,
      "Ġ28": 3366,
      "Ġmon": 3367,
      "Ġà®ħ": 3368,
      "Ġsur": 3369,
      "ç§": 3370,
      "enta": 3371,
      "oi": 3372,
      "ĠDie": 3373,
      "iva": 3374,
      "Ġà¬ı": 3375,
      "ĠÕ´": 3376,
      "Ġ27": 3377,
      "Ġà²ī": 3378,
      "uba": 3379,
      "ĠÐ¿ÐµÑĢ": 3380,
      "à¤µà¤¤": 3381,
      "Ġce": 3382,
      "ĠÃ¤r": 3383,
      "ces": 3384,
      "Ġkh": 3385,
      "ÛĬ": 3386,
      "Ġsel": 3387,
      "ĠNg": 3388,
      "ĠÐ³ÑĢ": 3389,
      "áĥ£áĥł": 3390,
      "erv": 3391,
      "áī½": 3392,
      "Ġdur": 3393,
      "ĠØ¯ÙĪ": 3394,
      "Õ¡ÖĢÕ": 3395,
      "Ġà´®": 3396,
      "ĠáĢĻ": 3397,
      "èª": 3398,
      "hen": 3399,
      "ĠgÃ¬": 3400,
      "ĠNo": 3401,
      "ados": 3402,
      "áĬĲ": 3403,
      "ĠLi": 3404,
      "rav": 3405,
      "iren": 3406,
      "ÛķÙĪ": 3407,
      "ĠGe": 3408,
      "áĢ®áĢ¸": 3409,
      "Ġvers": 3410,
      "áĭŃ": 3411,
      "angan": 3412,
      "ĠÃ³": 3413,
      "Ò¯Ð»": 3414,
      "api": 3415,
      "Ġà¥¨": 3416,
      "ido": 3417,
      "Åĳ": 3418,
      "Ġàªµ": 3419,
      "Ġkl": 3420,
      "Ġcomo": 3421,
      "áĢŃáĢ¯áĢ·": 3422,
      "illa": 3423,
      "Ġinc": 3424,
      "×ķ×Ĳ": 3425,
      "Ðł": 3426,
      "Ã¨t": 3427,
      "60": 3428,
      "ĠTo": 3429,
      "idd": 3430,
      "esta": 3431,
      "Ã«n": 3432,
      "ÙĬÙĦ": 3433,
      "Ġ)": 3434,
      "ÑĤÐµÑĢ": 3435,
      "alia": 3436,
      "Ġ×ĵ×Ļ": 3437,
      "erm": 3438,
      "Ġà´¨": 3439,
      "Ġà®ļ": 3440,
      "ee": 3441,
      "áĪĭ": 3442,
      "Æ°á»": 3443,
      "åİ": 3444,
      "ĠQu": 3445,
      "Ø§Ùģ": 3446,
      "Ġeb": 3447,
      "ÐºÐ¸": 3448,
      "oka": 3449,
      "Õ¾": 3450,
      "ç´": 3451,
      "ÙīØ±": 3452,
      "Ġà¶±": 3453,
      "ÛķÙħ": 3454,
      "Ġkab": 3455,
      "Ġvol": 3456,
      "Ġrec": 3457,
      "ork": 3458,
      "à¤ķà¤°": 3459,
      "ones": 3460,
      "ĠÐ¾Ðº": 3461,
      "ales": 3462,
      "ĠBar": 3463,
      "ĠáıĹ": 3464,
      "ÑĥÑĩ": 3465,
      "ÑĥÐ¶": 3466,
      "Ð´Ð°Ð½": 3467,
      "Ġà¦ļ": 3468,
      "Ã¸r": 3469,
      "ĠÚ©ÙĬ": 3470,
      "à¬·": 3471,
      "ilip": 3472,
      "ĠØº": 3473,
      "Ġà¬ħ": 3474,
      "Ð²Ð°ÑĢ": 3475,
      "umb": 3476,
      "Ġtar": 3477,
      "ÐĨ": 3478,
      "ÙĴ": 3479,
      "iku": 3480,
      "åĩº": 3481,
      "do": 3482,
      "à¤°à¤¸": 3483,
      "Ïİ": 3484,
      "Ð¸Ð±": 3485,
      "iter": 3486,
      "Ġbul": 3487,
      "Ġtro": 3488,
      "ĠÐ³ÑĮ": 3489,
      "à»Ħ": 3490,
      "áĥĴ": 3491,
      "ĠØ§Ùħ": 3492,
      "apa": 3493,
      "Ġyari": 3494,
      "ÞĦ": 3495,
      "ĠPh": 3496,
      "oda": 3497,
      "mp": 3498,
      "ĠII": 3499,
      "ska": 3500,
      "áĢĨ": 3501,
      "Ġ×Ľ": 3502,
      "ãĥ³": 3503,
      "ÙĻ": 3504,
      "Ġkir": 3505,
      "ĠSi": 3506,
      "ĠÙħØ¹": 3507,
      "Ġpopul": 3508,
      "áŀĲ": 3509,
      "Ã¦ÑĢ": 3510,
      "jer": 3511,
      "Ġri": 3512,
      "Ġà´ħ": 3513,
      "als": 3514,
      "ĠÐĲÐ»": 3515,
      "à¾Ĵà¾±à½´": 3516,
      "Ø±Øª": 3517,
      "Ġass": 3518,
      "ĠÑģÐ²": 3519,
      "áŀ¶áŁĨ": 3520,
      "Ġparti": 3521,
      "à¨ª": 3522,
      "Ò¡": 3523,
      "ÑĭÒ£": 3524,
      "Ä±m": 3525,
      "ÙīÙĬ": 3526,
      "Ã¨s": 3527,
      "esk": 3528,
      "Ø§Ø®": 3529,
      "ĠáĢĢ": 3530,
      "à²§": 3531,
      "æ¸": 3532,
      "Ġcons": 3533,
      "len": 3534,
      "Ëĩ": 3535,
      "à¬Ĺ": 3536,
      "Ġdiv": 3537,
      "ÅĨ": 3538,
      "áĥĶáĥł": 3539,
      "ĠMo": 3540,
      "Ġhi": 3541,
      "rans": 3542,
      "Ġsec": 3543,
      "ank": 3544,
      "ĠÙħØŃ": 3545,
      "ago": 3546,
      "ĠÐ¿Ð¾": 3547,
      "ĠCo": 3548,
      "áĢ±áĢ¸": 3549,
      "199": 3550,
      "Þĳ": 3551,
      "ning": 3552,
      "à¾Ļ": 3553,
      "ĠØ¨ÙĨ": 3554,
      "×ķ×¢": 3555,
      "åĵ": 3556,
      "ĠÐ´Ð¶": 3557,
      "Ġà·Ħ": 3558,
      "à·ľ": 3559,
      "Õ¸ÖĤÕ©": 3560,
      "Ð²Ð»": 3561,
      "Ã¢t": 3562,
      "ef": 3563,
      "áĢ²áĢ·": 3564,
      "Ġbak": 3565,
      "Ġgro": 3566,
      "cies": 3567,
      "let": 3568,
      "ĠÑī": 3569,
      "Â»,": 3570,
      "Ð³Ð°ÑĢ": 3571,
      ".)": 3572,
      "à±Ĩ": 3573,
      "ikan": 3574,
      "inas": 3575,
      "Ġ189": 3576,
      "erg": 3577,
      "uj": 3578,
      "æĸ¼": 3579,
      "ĠÄ°": 3580,
      "ÄĹs": 3581,
      "àº¹": 3582,
      "eke": 3583,
      "ÐµÐ½Ð´": 3584,
      "mun": 3585,
      "ĠAfr": 3586,
      "ĠÐ°Ð·": 3587,
      "Ñļ": 3588,
      "idi": 3589,
      "ĠÑĥÑĢ": 3590,
      "ĠÙĪØ§ÙĦ": 3591,
      "imp": 3592,
      "Ã©ng": 3593,
      "àº²àºĻ": 3594,
      "à½Ĥà½ŀ": 3595,
      "Ð³Ð¾": 3596,
      "iden": 3597,
      "è¡Į": 3598,
      "Ġstr": 3599,
      "Ġà²Ĺ": 3600,
      "çĪ": 3601,
      "à¸Ĥ": 3602,
      "ĠáĢĲ": 3603,
      "Ġ×Ķ×Ĳ": 3604,
      "zt": 3605,
      "iste": 3606,
      "ĠCon": 3607,
      "Ġjed": 3608,
      "Ġà¤®à¤¹": 3609,
      "Ð°Ð²Ð°": 3610,
      "Ġcr": 3611,
      "ÒĵÐ°": 3612,
      "Ã³w": 3613,
      "usa": 3614,
      "ude": 3615,
      "à«ĩ.": 3616,
      "à¤¾.": 3617,
      "ĠBo": 3618,
      "Ġà°®": 3619,
      "Ã¦Ð¹": 3620,
      "Ġata": 3621,
      "uta": 3622,
      "Ù½": 3623,
      "Ġbal": 3624,
      "×Ļ×ł": 3625,
      "Ġ×¨": 3626,
      "Ġ21": 3627,
      "ĠÐ½Ðµ": 3628,
      "ĠØ§ÙĪØ±": 3629,
      "Ð°ÑģÑģÐµÐ¹": 3630,
      "ĠÃ²": 3631,
      "Î¿Î½": 3632,
      "Ġsar": 3633,
      "Ġant": 3634,
      "ÑĥÐ±Ð»": 3635,
      "Ġtel": 3636,
      "Ġnov": 3637,
      "'m": 3638,
      "Ð½Ñĥ": 3639,
      "Ð½Ð¸Ðº": 3640,
      "Ã³k": 3641,
      "ĠÃ¥": 3642,
      "ĠÑĤÐ°": 3643,
      "Õ¡Õ¯Õ¡Õ¶": 3644,
      "pos": 3645,
      "ule": 3646,
      "áıģ": 3647,
      "ns": 3648,
      "dir": 3649,
      "çĲ": 3650,
      "ets": 3651,
      "áĥĶáĥ¤": 3652,
      "Ġvu": 3653,
      "ĠAt": 3654,
      "àºŀ": 3655,
      "Ġà²°": 3656,
      "áĥ£": 3657,
      "ĠØ³ÛĮ": 3658,
      "áĢ»áĢ¬áĢ¸": 3659,
      "áİª": 3660,
      "ĠáĢķ": 3661,
      "Ġkil": 3662,
      "à¯Ĩ": 3663,
      "àª¥": 3664,
      "ãĤĮ": 3665,
      "Ġspe": 3666,
      "uan": 3667,
      "Ġbh": 3668,
      "ÐµÑģÐ¿": 3669,
      "ben": 3670,
      "ĠÑģÑĥ": 3671,
      "Ð¾ÑĢÑĤ": 3672,
      "war": 3673,
      "ÙĬØ§": 3674,
      "Ġamin": 3675,
      "ĠáĢŀ": 3676,
      "iye": 3677,
      "Ġà¨¬": 3678,
      "Ġ2004": 3679,
      "æ±": 3680,
      "ÑĭÐ½Ð°": 3681,
      "Ġà¤īà¤ª": 3682,
      "Ġdy": 3683,
      "Ġhad": 3684,
      "¦¬": 3685,
      "ĠÐ±Ð°ÑģÑģÐµÐ¹": 3686,
      "à¸³": 3687,
      "ĠKr": 3688,
      "ìľ": 3689,
      "Ġkur": 3690,
      "asti": 3691,
      "à¤¯à¤ķ": 3692,
      "ner": 3693,
      "Ð»Ð°ÑĢ": 3694,
      "Ġà¦¶": 3695,
      "Ġdik": 3696,
      "Ġfe": 3697,
      "Ġ2009": 3698,
      "íķľ": 3699,
      "Ð°Ð½ÑĤ": 3700,
      "à½Ĥà½ī": 3701,
      "oba": 3702,
      "Ġher": 3703,
      "ĠÙģÙī": 3704,
      "ê³ł": 3705,
      "Öī": 3706,
      "à¤¯à¤¤": 3707,
      "áĢĳ": 3708,
      "áŀĹ": 3709,
      "oman": 3710,
      "Ġáĥ¨": 3711,
      "ĠÎºÎ±Î¹": 3712,
      "áĥ¨": 3713,
      "40": 3714,
      "àª¹": 3715,
      "Ġsl": 3716,
      "Ġkor": 3717,
      "cip": 3718,
      "åĸ": 3719,
      "Ø¦ÛĮ": 3720,
      "Ã£o": 3721,
      "alan": 3722,
      "à½ºà¼į": 3723,
      "áıĹáı¢": 3724,
      "ÉĻn": 3725,
      "Ġkol": 3726,
      "Ġcol": 3727,
      "'t": 3728,
      "gg": 3729,
      "ĠÞĭ": 3730,
      "¯à¥": 3731,
      "å¿": 3732,
      "ĠÛĮØ§": 3733,
      "à¤ŀ": 3734,
      "Ġwi": 3735,
      "Ġdag": 3736,
      "à¯ĩ": 3737,
      "ĠÑģÐ¿": 3738,
      "Ġ2005": 3739,
      "ÑģÐºÐ¸": 3740,
      "à±Ĥ": 3741,
      "ÑĩÐ°": 3742,
      "cy": 3743,
      "àº¸": 3744,
      "à¨¬": 3745,
      "áĪ¨": 3746,
      "Ã§a": 3747,
      "Ø§Ù¾": 3748,
      "ĠPer": 3749,
      "Ġ29": 3750,
      "Ġhal": 3751,
      "tern": 3752,
      "Ø§Ø¡": 3753,
      "wer": 3754,
      "çµ": 3755,
      "ìł": 3756,
      "Ã²ng": 3757,
      "ĠÛ²": 3758,
      "àª¡": 3759,
      "akt": 3760,
      "Ġà²ľ": 3761,
      "Ġall": 3762,
      "àºĦ": 3763,
      "à¤¾à¥¤": 3764,
      "Ð¾Ð²Ð°": 3765,
      "áĭ°": 3766,
      "áīł": 3767,
      "yÅĪ": 3768,
      "way": 3769,
      "à½ĺà½ļ": 3770,
      "ĠØ±ÙĪ": 3771,
      "for": 3772,
      "àª¶": 3773,
      "ĠRep": 3774,
      "Ø¹Ø¯": 3775,
      "eno": 3776,
      "ÃŃs": 3777,
      "eva": 3778,
      "aliz": 3779,
      "Ú¯Ûķ": 3780,
      "Ġins": 3781,
      "à¹Ĥ": 3782,
      "Ðľ": 3783,
      "Ġgh": 3784,
      "ĠÃ´": 3785,
      "ayan": 3786,
      "Ġart": 3787,
      "Ġkad": 3788,
      "ĠØ§Øª": 3789,
      "Ó©Ð»": 3790,
      "Ġcl": 3791,
      "àµĢ": 3792,
      "Ġpolit": 3793,
      "Ġ100": 3794,
      "ÑıÑģ": 3795,
      "×¢×ł": 3796,
      "Ġfamil": 3797,
      "Ġdec": 3798,
      "ĠØ¦Ûĩ": 3799,
      "ĠâĢĺ": 3800,
      "ĠØ¯ÛĴ": 3801,
      "Ð¸Ð¶": 3802,
      "ĠÚ©ÙĪ": 3803,
      "ĠÛĭ": 3804,
      "ĠáĥĹ": 3805,
      "åŃĲ": 3806,
      "ĠÏĥÏĦ": 3807,
      "Ġbet": 3808,
      "Ġbin": 3809,
      "ume": 3810,
      "à¤²à¤¯": 3811,
      "áĥĺáĥĹ": 3812,
      "à§Ī": 3813,
      "Ð¼Ð°Ð½": 3814,
      "80": 3815,
      "ìŀ": 3816,
      "Ġbl": 3817,
      "ÑĸÐ²": 3818,
      "Ġ%": 3819,
      "Ġà¦¯": 3820,
      "å¾Į": 3821,
      "Úµ": 3822,
      "Ġìŀ": 3823,
      "arr": 3824,
      "Ġhav": 3825,
      "ç»": 3826,
      "Ð»Ðµ": 3827,
      "tim": 3828,
      "Ġwax": 3829,
      "ĠÐ±Ð¸Ð»": 3830,
      "è®": 3831,
      "Õ¥Õ¬": 3832,
      "ĠÐ°Ðº": 3833,
      "uda": 3834,
      "æĸĩ": 3835,
      "Î±ÏĦ": 3836,
      "emi": 3837,
      "ĠáĥĿ": 3838,
      "uku": 3839,
      "æ´": 3840,
      "Ġmul": 3841,
      "Ġfon": 3842,
      "ï¯": 3843,
      "ÑĪÑĤ": 3844,
      "àº²àºĩ": 3845,
      "jan": 3846,
      "ĠÙħÛĮÚº": 3847,
      "à¦¼à§ĩ": 3848,
      "ĠÑĺÐµ": 3849,
      "çĦ": 3850,
      "ÑĢÐ¾": 3851,
      "Ġnam": 3852,
      "idae": 3853,
      "25": 3854,
      "Ø³ÙĦ": 3855,
      "à¾Łà½¼": 3856,
      "Ġà¤īà¤¤": 3857,
      "Õ¸ÖĤÕ©Õµ": 3858,
      "uman": 3859,
      "ator": 3860,
      "áĥ·": 3861,
      "ÙħØ§": 3862,
      "Ġà¤Ĩà¤¸": 3863,
      "ĠáĪĺ": 3864,
      "ĠÐºÐ°ÑĢ": 3865,
      "Ø§Ø±Ùĩ": 3866,
      "ÎµÏģ": 3867,
      "ä¹Ł": 3868,
      "Ġlib": 3869,
      "Ġplan": 3870,
      "Ó¥": 3871,
      "Ġpun": 3872,
      "à¤¾,": 3873,
      "à«ģàªĤ": 3874,
      "ÑıÑĢ": 3875,
      "ĠÞĪ": 3876,
      "amente": 3877,
      "Ġera": 3878,
      "å®¶": 3879,
      "Ġwal": 3880,
      "àºĬ": 3881,
      "Ð¼Ã¦": 3882,
      "Ã©m": 3883,
      "á»Ļ": 3884,
      "lh": 3885,
      "Ç£": 3886,
      "Ġáŀĵ": 3887,
      "Ġnah": 3888,
      "ÑįÑįÑĢ": 3889,
      "omb": 3890,
      "Ġlab": 3891,
      "jet": 3892,
      "ÑĢÐ¸ÑĤ": 3893,
      "ĠÕ¯": 3894,
      "izi": 3895,
      "ÄŃ": 3896,
      "ĠÐ°Ñģ": 3897,
      "Ø¯Ûķ": 3898,
      "Ġàª¹": 3899,
      "str": 3900,
      "tig": 3901,
      "nan": 3902,
      "yan": 3903,
      "à¥įâĢĮ": 3904,
      "áĢ¹": 3905,
      "ĠkÃ¶": 3906,
      "Ġkwa": 3907,
      "Ġcan": 3908,
      "ìĭ": 3909,
      "Ġmor": 3910,
      "ÙĨØ¬": 3911,
      "ĠNew": 3912,
      "Ġâ": 3913,
      "ism": 3914,
      "illi": 3915,
      "à¤¿à¤Ĥ": 3916,
      "ï¼ļ": 3917,
      "Ġáİ¾áıįáİ©": 3918,
      "Ġnak": 3919,
      "ĠÐ°Ð¹": 3920,
      "Ð»ÐµÐ½": 3921,
      "Ġgeb": 3922,
      "è¥": 3923,
      "ÙħÙī": 3924,
      "zen": 3925,
      "ÐŁ": 3926,
      "Î¯Î±": 3927,
      "Ġà½ĸ": 3928,
      "ĠÐºÐ»": 3929,
      "vu": 3930,
      "ĠPol": 3931,
      "uga": 3932,
      "ÑĭÐ»Ð°": 3933,
      "70": 3934,
      "ĠÞĬ": 3935,
      "ĠÑħÑĥÑĮ": 3936,
      "Õ¸ÖĤÕ¶": 3937,
      "Ġsol": 3938,
      "à¾¨": 3939,
      "Ø³ØªÙĩ": 3940,
      "áĮĪ": 3941,
      "nik": 3942,
      "ÑĤÐ¾ÑĢ": 3943,
      "×Ļ×¨": 3944,
      "nos": 3945,
      "Ġtek": 3946,
      "Ġib": 3947,
      "Ġiha": 3948,
      "ĠØ¨ÙĪÙĦ": 3949,
      "Ġà¤Ķ": 3950,
      "áĥĿáĥĳ": 3951,
      "Ġland": 3952,
      "ÉĶ": 3953,
      "Ġà¤Ī": 3954,
      "à¤¨à¤ķ": 3955,
      "Ġáĥľ": 3956,
      "à½ĺà½Ĳ": 3957,
      "åĪ°": 3958,
      "Ðŀ": 3959,
      "ÙĬÙħ": 3960,
      "ĠUS": 3961,
      "Ú»": 3962,
      "Õ¡Õ´": 3963,
      "jon": 3964,
      "ĠÙĪÙĩ": 3965,
      "Ð°Ð»Ñĭ": 3966,
      "ĠÙĨÛĮ": 3967,
      "Ġmb": 3968,
      "Ġmp": 3969,
      "à¬Ļ": 3970,
      "ioni": 3971,
      "Ġeta": 3972,
      "ĠÐ¾Ð»": 3973,
      "ĠMan": 3974,
      "Ã¤h": 3975,
      "esa": 3976,
      "ÑıÑĤ": 3977,
      "Ġà°Ĺ": 3978,
      "alah": 3979,
      "ĠÃ®n": 3980,
      "èģ": 3981,
      "eda": 3982,
      "ÙĦÙĪ": 3983,
      "ãĢĭ": 3984,
      "ãĢĬ": 3985,
      "Ġfilm": 3986,
      "ãģª": 3987,
      "à³Ĩ.": 3988,
      "Ð°Ð¼Ð°": 3989,
      "Ġoch": 3990,
      "ĠÚĨÛĲ": 3991,
      "odi": 3992,
      "Ġform": 3993,
      "ĠÃ¤bin": 3994,
      "éļ": 3995,
      "Ã¼m": 3996,
      "ÓĢÑį": 3997,
      "ÑĥÑĥÐ»": 3998,
      "àµĤ": 3999,
      "pp": 4000,
      "Ġ×Ĵ×¢": 4001,
      "Ġsy": 4002,
      "rs": 4003,
      "àº³": 4004,
      "æİ": 4005,
      "Ġsan": 4006,
      "ÑĨÑĸ": 4007,
      "à²¦à²°": 4008,
      "Ġdep": 4009,
      "fin": 4010,
      "aks": 4011,
      "ÏĥÏĦ": 4012,
      "Ġà¨ī": 4013,
      "áĪ«": 4014,
      "Ġeng": 4015,
      "ots": 4016,
      "Ġtre": 4017,
      "Ġà¦Ń": 4018,
      "ĠMal": 4019,
      "Ġà§§à§": 4020,
      "ĠÈĻ": 4021,
      "Ġkel": 4022,
      "etro": 4023,
      "à°ļ": 4024,
      "Ġsz": 4025,
      "Ġà¨²": 4026,
      "èĢħ": 4027,
      "urn": 4028,
      "åħ¬": 4029,
      "Ġà¤ħà¤Ľ": 4030,
      "Ġau": 4031,
      "ĠÐ°Ð±": 4032,
      "ĠEurop": 4033,
      "Ãłng": 4034,
      "àºĤ": 4035,
      "æĻĤ": 4036,
      "Ãºn": 4037,
      "Ã¤ld": 4038,
      "ĠÂ°": 4039,
      "raz": 4040,
      "Ã¶d": 4041,
      "Ã¡d": 4042,
      "ĠØªØ±": 4043,
      "ÅĤo": 4044,
      "Ġorgan": 4045,
      "áŁĶ": 4046,
      "Öĩ": 4047,
      "adan": 4048,
      "Ġana": 4049,
      "Ġnke": 4050,
      "Ġlig": 4051,
      "rod": 4052,
      "unda": 4053,
      "à©į": 4054,
      "éĥ¨": 4055,
      "à¥Ģà¤Ĥ": 4056,
      "Ġà°¨": 4057,
      "ĠàªĹ": 4058,
      "ational": 4059,
      "Ġnum": 4060,
      "Ġprod": 4061,
      "ĠRo": 4062,
      "Â·": 4063,
      "æł": 4064,
      "ĠAnd": 4065,
      "Ã©k": 4066,
      "iji": 4067,
      "Ð´Ð·": 4068,
      "çĶŁ": 4069,
      "ĠØªÙĪ": 4070,
      "Ã¡t": 4071,
      "ÑĨÑĮ": 4072,
      "àº²àºĻàº": 4073,
      "èĩª": 4074,
      "Ġloc": 4075,
      "Ġbel": 4076,
      "pt": 4077,
      "eko": 4078,
      "ĠÑĢÐ°Ð¹": 4079,
      "à§Ĥ": 4080,
      "áı³": 4081,
      "åŃ¸": 4082,
      "ĠBu": 4083,
      "Ġcor": 4084,
      "ĠPo": 4085,
      "ĠÚ©ÛĲ": 4086,
      "Ð¸Ð½Ð¸": 4087,
      "à¤ªà¤¨": 4088,
      "áıįáı": 4089,
      "åįģ": 4090,
      "ilo": 4091,
      "Ġà²Ĵ": 4092,
      "Ġà°ī": 4093,
      "ey": 4094,
      "ĠÎ¿": 4095,
      "à¦ĵ": 4096,
      "umi": 4097,
      "ĠÑıÐº": 4098,
      "eu": 4099,
      "ëĵ": 4100,
      "Ã³t": 4101,
      "ĠáĬ¨": 4102,
      "itar": 4103,
      "Ġà¦ī": 4104,
      "ĠÚ©Ø±": 4105,
      "ric": 4106,
      "Ġà¬¨": 4107,
      "imo": 4108,
      "ĠÐ½Ð¾": 4109,
      "Ð°Ð´Ñĭ": 4110,
      "Ð°ÑĢÑĤ": 4111,
      "Ġkay": 4112,
      "ongo": 4113,
      "inc": 4114,
      "Ġdar": 4115,
      "oto": 4116,
      "à³į.": 4117,
      "ĠLo": 4118,
      "à¾Ĵà¾±à¼ĭ": 4119,
      "Ġfer": 4120,
      "osi": 4121,
      "Ã¤m": 4122,
      "Ġngwaga": 4123,
      "oss": 4124,
      "ign": 4125,
      "Õ¡Õ¿": 4126,
      "iske": 4127,
      "ÐµÑģÐ¿ÑĥÐ±Ð»": 4128,
      "çŃ": 4129,
      "Ġei": 4130,
      "ä¸ī": 4131,
      "Ġ×¦": 4132,
      "áī¥": 4133,
      "àºµà»Ī": 4134,
      "à¤¢": 4135,
      "à²¥": 4136,
      "Ð¾Ð½Ð´": 4137,
      "ette": 4138,
      "Ð°Ð»ÑĬ": 4139,
      "Ġ50": 4140,
      "Ġàª¨": 4141,
      "ĠáİŃ": 4142,
      "ĠÐ°ÑĤ": 4143,
      "uth": 4144,
      "ÙĬÙĩ": 4145,
      "ä¸»": 4146,
      "ĠÐ±Ð°ÑĪ": 4147,
      "Ĥ¬": 4148,
      "ç¨": 4149,
      "áĥĶáĥ¡": 4150,
      "Ã«s": 4151,
      "Ġà¤°à¤¹": 4152,
      "Ð¾Ð¸": 4153,
      "Ġà¦²": 4154,
      "ĠáĢĽ": 4155,
      "omo": 4156,
      "ÑħÐ°Ð½": 4157,
      "ĠÑģÐ°": 4158,
      "ĠØ®ÙĪ": 4159,
      "oga": 4160,
      "Ġ65": 4161,
      "asan": 4162,
      "ayo": 4163,
      "ĠÐ®": 4164,
      "à¸¨": 4165,
      "Ġsm": 4166,
      "Ġfar": 4167,
      "ĠÐ´Ð°ÑĢ": 4168,
      "áĭµ": 4169,
      "ker": 4170,
      "Ġà»ģ": 4171,
      "idh": 4172,
      "ĠDen": 4173,
      "upa": 4174,
      "ĠÐŁÑĢ": 4175,
      "×ķ×ľ": 4176,
      "Ġà¦ķà§°": 4177,
      "ĠUnivers": 4178,
      "ĠÙ¿": 4179,
      "ident": 4180,
      "Ġuz": 4181,
      "ĠØªÙĩ": 4182,
      "kin": 4183,
      "ĠÚ¤": 4184,
      "Ð¾ÑĤÐ¾": 4185,
      "ä¿Ĥ": 4186,
      "à¬§": 4187,
      "à²¿à²Ĥ": 4188,
      "ÓĻÐ¼": 4189,
      "Ġà¬¹": 4190,
      "à¸ģà¸²à¸£": 4191,
      "Ġdos": 4192,
      "ĠÐ¯": 4193,
      "à¥¦à¥": 4194,
      "ìĦľ": 4195,
      "è¥¿": 4196,
      "×Ļ×©": 4197,
      "àº¥àº°": 4198,
      "Ġmis": 4199,
      "æĢ": 4200,
      "Ġfra": 4201,
      "ĠEst": 4202,
      "æ¬": 4203,
      "rib": 4204,
      "ÑĢÑĤ": 4205,
      "à¬¶": 4206,
      "Ã¡m": 4207,
      "ĠJo": 4208,
      "ÑĢÑĥÐ³": 4209,
      "¹Û": 4210,
      "ĠHo": 4211,
      "ect": 4212,
      "atti": 4213,
      "Ġ188": 4214,
      "ç¶": 4215,
      "Ð½Ð¾Ð¹": 4216,
      "Ð½ÑĭÑħ": 4217,
      "ull": 4218,
      "å§": 4219,
      "Ġble": 4220,
      "à¯ĭ": 4221,
      "Ġtab": 4222,
      "à¬ľ": 4223,
      "à³Ī": 4224,
      "idad": 4225,
      "ÐºÑĥ": 4226,
      "ege": 4227,
      "à´·": 4228,
      "ĠÙĨÙĪ": 4229,
      "agu": 4230,
      "jar": 4231,
      "à½łà½ģ": 4232,
      "áıĻáıĹ": 4233,
      "nya": 4234,
      "osh": 4235,
      "ĠáĥĶ": 4236,
      "áĮį": 4237,
      "asÄ±": 4238,
      "Ã¡k": 4239,
      "Ä¡": 4240,
      "à¯Ĭ": 4241,
      "çĶ¨": 4242,
      "fo": 4243,
      "Ġmes": 4244,
      "au": 4245,
      "Ġpap": 4246,
      "àµ»": 4247,
      "à½ĸà½Ł": 4248,
      "lich": 4249,
      "Ġals": 4250,
      "yns": 4251,
      "Ġ40": 4252,
      "istor": 4253,
      "Ġtut": 4254,
      "Ð°Ð»ÑĤ": 4255,
      "ĠÑĤÑĢ": 4256,
      "Ġbah": 4257,
      "asta": 4258,
      "Ġot": 4259,
      "ador": 4260,
      "Ø´Ùī": 4261,
      "ÙģØ±": 4262,
      "Õ¶Õ¥ÖĢ": 4263,
      "wen": 4264,
      "ĠÐ¿ÑĢÐ¾": 4265,
      "æ°ĳ": 4266,
      "à¨Ī": 4267,
      "à½łà½ķ": 4268,
      "ĠÐ½ÑĮ": 4269,
      "lav": 4270,
      "Ġ2012": 4271,
      "ĠTi": 4272,
      "è³": 4273,
      "ĠÑĤÐµÑĢ": 4274,
      "Ø§ÙĨØ¯": 4275,
      "à¸²à¸ĩ": 4276,
      "åĲį": 4277,
      "áĥĲáĥķ": 4278,
      "lia": 4279,
      "à¤²à¤ķ": 4280,
      "ÑĨÑĭ": 4281,
      "Ã±a": 4282,
      "Ġbag": 4283,
      "áĥĿáĥľ": 4284,
      "Î¹Î±": 4285,
      "ĠLat": 4286,
      "ital": 4287,
      "ĠáİŃáı«": 4288,
      "Ġair": 4289,
      "ĠIng": 4290,
      "è¾": 4291,
      "ĠØ¥": 4292,
      "ĠAc": 4293,
      "Ð°ÑĤÑĮ": 4294,
      "ley": 4295,
      "upi": 4296,
      "æľ¬": 4297,
      "eki": 4298,
      "ĠÞİ": 4299,
      "Ġtah": 4300,
      "ĠÐºÐ¾Ð»": 4301,
      "var": 4302,
      "Ġà®¨": 4303,
      "Ø¬Ùĩ": 4304,
      "èµ": 4305,
      "Ġà¤ĺ": 4306,
      "ÑģÑĤÐ°": 4307,
      "àºĪ": 4308,
      "áĥĻ": 4309,
      "Ġling": 4310,
      "amo": 4311,
      "¨áıĴ": 4312,
      "áĥĿáĥĽ": 4313,
      "ÙĪØª": 4314,
      "Ġtaki": 4315,
      "é«": 4316,
      "à½ĳà½ĺ": 4317,
      "à¸²à¸¢": 4318,
      "ĠEm": 4319,
      "inan": 4320,
      "Ð°Ð½Ð¸": 4321,
      "bar": 4322,
      "inin": 4323,
      "Ġtak": 4324,
      "isyen": 4325,
      "ild": 4326,
      "Ġ×©×ľ": 4327,
      "Ġbis": 4328,
      "Ð³ÐµÐ½": 4329,
      "Ã¶n": 4330,
      "Úĺ": 4331,
      "èĭ": 4332,
      "Ð°ÑĢÐ´": 4333,
      "ÐµÑĢÐ¸": 4334,
      "ĠÑĳ": 4335,
      "Å¡t": 4336,
      "Ø®Øª": 4337,
      "Þĵ": 4338,
      "ÑįÑģ": 4339,
      "Ġparte": 4340,
      "ÙħØ¯": 4341,
      "Ġmang": 4342,
      "Ġmill": 4343,
      "Ã¨ng": 4344,
      "×¢×Ł": 4345,
      "åĢĭ": 4346,
      "Ġpen": 4347,
      "à½ĵà½Ħ": 4348,
      "Ø´ÛĮ": 4349,
      "ÙĪÙĨÙĩ": 4350,
      "×Ļ×ª": 4351,
      "Ġà°ħ": 4352,
      "áº¿": 4353,
      "·¸": 4354,
      "ÑĸÑĢ": 4355,
      "æŀ": 4356,
      "Ó§Ð½": 4357,
      "ÑĳÑģ": 4358,
      "Ġà¦ķà¦°": 4359,
      "agn": 4360,
      "ÑĨÐ¸Ñı": 4361,
      "åĴĮ": 4362,
      "Ó©Ó©": 4363,
      "Ġcomp": 4364,
      "Ġthat": 4365,
      "ÐµÑħÑĮ": 4366,
      "Ò±": 4367,
      "áī³": 4368,
      "ugu": 4369,
      "ÑįÐ·": 4370,
      "ĠØ§ÙĦØ¹": 4371,
      "Ġáģ": 4372,
      "ĠÎ´": 4373,
      "engan": 4374,
      "áº¡": 4375,
      "ai": 4376,
      "form": 4377,
      "Ġmai": 4378,
      "Ġao": 4379,
      "à¥ĩ.": 4380,
      "ĠÙĪÚĨ": 4381,
      "áİ¾áıĹáı¢": 4382,
      "Ġkum": 4383,
      "antu": 4384,
      "à½¼à¼į": 4385,
      "ove": 4386,
      "Ġkam": 4387,
      "à¤°à¤£": 4388,
      "à´Ĺ": 4389,
      "à»į": 4390,
      "irt": 4391,
      "áŀ¹": 4392,
      "ical": 4393,
      "ĠâĢĻ": 4394,
      "24": 4395,
      "Ð¢": 4396,
      "Ð´Ð¶": 4397,
      "Ġà¶¶": 4398,
      "Ġà¤Ķà¤°": 4399,
      "ĠÑĢÐ°Ð·": 4400,
      "åįĹ": 4401,
      "ions": 4402,
      "æ¯": 4403,
      "rie": 4404,
      "à³ģà²Ĥ": 4405,
      "by": 4406,
      "ĠÙħØ±": 4407,
      "ĠàªĨàªµ": 4408,
      "onu": 4409,
      "ìĸ": 4410,
      "ĠÐ¦": 4411,
      "áŀļáŀĶ": 4412,
      "ÐºÐ¾": 4413,
      "Ä±s": 4414,
      "Ġsist": 4415,
      "áĥĺáĥļ": 4416,
      "Ġesis": 4417,
      "ĠÓ": 4418,
      "ĠpÅĻ": 4419,
      "Ã©e": 4420,
      "ĠáİŃáı«áİ¾áıĹáı¢": 4421,
      "Äĭ": 4422,
      "Ġdas": 4423,
      "ĠÃ©s": 4424,
      "ÏĢÎ¿": 4425,
      "Ġáĥŀ": 4426,
      "Ġàª¦": 4427,
      "ings": 4428,
      "Ġtop": 4429,
      "ider": 4430,
      "ĠØ¨Ø§": 4431,
      "ĠÐ´Ð¸": 4432,
      "jes": 4433,
      "åł": 4434,
      "éķ": 4435,
      "Ð°Ð»Ñĸ": 4436,
      "kar": 4437,
      "minist": 4438,
      "à¸²à¸Ļ": 4439,
      "à¾³à¼ĭ": 4440,
      "ĠMon": 4441,
      "ÑģÑĤÑĢ": 4442,
      "à²µà²°": 4443,
      "çİĭ": 4444,
      "æīĢ": 4445,
      "Ġtam": 4446,
      "ĠØ¯Ûķ": 4447,
      "à¦ģ": 4448,
      "à¤¯à¤¨": 4449,
      "Ø³Ùĩ": 4450,
      "á¸": 4451,
      "ĠJe": 4452,
      "zu": 4453,
      "Ġpada": 4454,
      "ì§Ģ": 4455,
      "igi": 4456,
      "äºĮ": 4457,
      "éł": 4458,
      "Ġà¬ķà¬°": 4459,
      "vel": 4460,
      "ëı": 4461,
      "ĠKon": 4462,
      "ĠØ¢ÙĩÙĬ": 4463,
      "Ġgan": 4464,
      "ÛĮÙĦÛĮ": 4465,
      "Ã¤s": 4466,
      "Ġà¶½": 4467,
      "pro": 4468,
      "à·ħ": 4469,
      "Ã©l": 4470,
      "Ġà¶ľ": 4471,
      "ĠÕ¸": 4472,
      "ÄķÐ½": 4473,
      "Þħ": 4474,
      "ario": 4475,
      "rito": 4476,
      "Ø±Ùģ": 4477,
      "à¾²à¼ĭ": 4478,
      "Õ´": 4479,
      "Ġalt": 4480,
      "ìĿĢ": 4481,
      "22": 4482,
      "ĠtÃŃ": 4483,
      "ĠTim": 4484,
      "Ġ2001": 4485,
      "Ġug": 4486,
      "Ġà´¤": 4487,
      "ĠÅĤ": 4488,
      "çŁ": 4489,
      "áĢĿ": 4490,
      "Ġà²İ": 4491,
      "Ġamb": 4492,
      "ØºØ§": 4493,
      "¯à§": 4494,
      "Ġsus": 4495,
      "Ð»ÑĬ": 4496,
      "ater": 4497,
      "Ã³Ã³": 4498,
      "æ¼": 4499,
      "isc": 4500,
      "por": 4501,
      "Ġsum": 4502,
      "ush": 4503,
      "ĠÚ©Ø§Ø±": 4504,
      "ĠÑĥÑĩ": 4505,
      "Ġiyo": 4506,
      "à¸¶": 4507,
      "ĠBer": 4508,
      "Ã¶s": 4509,
      "à¤¸à¤ķ": 4510,
      "áĥĿáĥł": 4511,
      "Ġ2013": 4512,
      "rab": 4513,
      "Ġll": 4514,
      "egn": 4515,
      "ĠØ§ÛĴ": 4516,
      "Â».": 4517,
      "ĠÐ¿Ð¾Ð»": 4518,
      "odo": 4519,
      "à§ĩà¥¤": 4520,
      "à½¢à½Ħ": 4521,
      "ĠIm": 4522,
      "áĪĽ": 4523,
      "Ġkont": 4524,
      "ngi": 4525,
      "arm": 4526,
      "à¬¡": 4527,
      "ĠNor": 4528,
      "orth": 4529,
      "ĠpÃ«r": 4530,
      "ÏīÎ½": 4531,
      "ĠÐ¹ÑĭÐ»": 4532,
      "ĠÐ´Ð¾": 4533,
      "ĠÑĥÐ³": 4534,
      "Ġrad": 4535,
      "à¤¯à¤®": 4536,
      "ĠBel": 4537,
      "oth": 4538,
      "ĠÙĨÙĩ": 4539,
      "èĥ": 4540,
      "ilm": 4541,
      "Ð°ÑħÑĮ": 4542,
      "ĠbÃ¤ld": 4543,
      "à¤µà¤¸": 4544,
      "ĠmÃ¶": 4545,
      "áıĦ": 4546,
      "éĺ": 4547,
      "ener": 4548,
      "×¨×Ĳ": 4549,
      "Ġà¨ħà¨¤": 4550,
      "è©": 4551,
      "Úĸ": 4552,
      "Ġhat": 4553,
      "ê°Ģ": 4554,
      "å£": 4555,
      "oti": 4556,
      "xt": 4557,
      "ÑĤÐ°Ð½": 4558,
      "Ġà¬¦": 4559,
      "anta": 4560,
      "Ġnh": 4561,
      "ativ": 4562,
      "itÃł": 4563,
      "à½ĳà½Ķ": 4564,
      "aye": 4565,
      "ĠÐµÐ»": 4566,
      "ants": 4567,
      "xe": 4568,
      "Ġà¹Ģà¸": 4569,
      "Ð»Ð°Ð´": 4570,
      "ÒĵÑĭ": 4571,
      "ÛĮÚ©": 4572,
      "ĠAg": 4573,
      "àª§": 4574,
      "áı¯": 4575,
      "åŃ¦": 4576,
      "Ġaan": 4577,
      "ĠáŁ": 4578,
      "¸°": 4579,
      "inh": 4580,
      "à®´": 4581,
      "è«": 4582,
      "Ġ×¡": 4583,
      "Ġig": 4584,
      "ĠGer": 4585,
      "Ġwith": 4586,
      "Ð²Ð°Ð½": 4587,
      "Ã¦Ð½": 4588,
      "Ġmeng": 4589,
      "Î¿ÏĤ": 4590,
      "à·Ŀ": 4591,
      "Ĭ¤": 4592,
      "eden": 4593,
      "Ġtrad": 4594,
      "ĠáĥĵáĥĲ": 4595,
      "ìľ¼": 4596,
      "ÙħÙĨ": 4597,
      "Ø¢": 4598,
      "Ġàª°": 4599,
      "kl": 4600,
      "ĠVal": 4601,
      "Ġnie": 4602,
      "ĠØ¯Ùĩ": 4603,
      "à½ĺà½ģ": 4604,
      "à¤¬à¤°": 4605,
      "Ø¯ÙĨ": 4606,
      "ĠÐºÐ¾ÑĢ": 4607,
      "Ġà¶Ń": 4608,
      "æĸ¯": 4609,
      "è·": 4610,
      "à¥Ģ,": 4611,
      "ÑĸÐ´": 4612,
      "uy": 4613,
      "Ġsim": 4614,
      "à½Ĥà½ħ": 4615,
      "ĠEd": 4616,
      "à´¶": 4617,
      "hai": 4618,
      "à¸¥à¸°": 4619,
      "Ġmm": 4620,
      "ĠÐ°Ð¼": 4621,
      "ÑĭÑģÑĮ": 4622,
      "27": 4623,
      "Ø¨ÙĪ": 4624,
      "Ġoo": 4625,
      "Ä±q": 4626,
      "iyan": 4627,
      "ãĤ¹": 4628,
      "Ð»Ð°ÑĤ": 4629,
      "áŁĲ": 4630,
      "Ð½Ð°Ð¹": 4631,
      "ÑħÑĮ": 4632,
      "Ġinv": 4633,
      "Ã¡u": 4634,
      "Ġ2014": 4635,
      "ÐµÐºÑģ": 4636,
      "Ġwur": 4637,
      "ĠDr": 4638,
      "à¤Ĺà¤°": 4639,
      "Ã½ch": 4640,
      "Ġzo": 4641,
      "à¥Īà¥¤": 4642,
      "ÐºÐ°Ð½": 4643,
      "Ġ186": 4644,
      "Ò¯Ð¹": 4645,
      "ovi": 4646,
      "Ġseb": 4647,
      "Ġfun": 4648,
      "erc": 4649,
      "ÑĶ": 4650,
      "à¹Ģà¸Ľ": 4651,
      "ë¥¼": 4652,
      "sc": 4653,
      "ç¬": 4654,
      "Ġyo": 4655,
      "ĠDo": 4656,
      "Ø§ÛĮÛĮ": 4657,
      "ç«ĭ": 4658,
      "ÐµÑģÐº": 4659,
      "Ð¿ÐµÑĢ": 4660,
      "Ã«t": 4661,
      "Ġprin": 4662,
      "à½ĺà½Ħ": 4663,
      "enge": 4664,
      "ĠìĿ´": 4665,
      "Ġban": 4666,
      "áİ²": 4667,
      "ĠWe": 4668,
      "eza": 4669,
      "Ġá»į": 4670,
      "pres": 4671,
      "ÐĿ": 4672,
      "Ġgrup": 4673,
      "eren": 4674,
      "åĪĨ": 4675,
      "gh": 4676,
      "ÞĶ": 4677,
      "áŀķ": 4678,
      "ĠAz": 4679,
      "à¤ľà¤¨": 4680,
      "ikk": 4681,
      "ĠNe": 4682,
      "ÑĢÐ°ÑĤ": 4683,
      "ĠØ¨Ûĩ": 4684,
      "ĠÐ¼ÐµÐ½": 4685,
      "Ġàªħàª¨": 4686,
      "ĠÈĻi": 4687,
      "ÐºÐ¾Ð²": 4688,
      "oph": 4689,
      "Ġdz": 4690,
      "ĠlÃł": 4691,
      "ĠSal": 4692,
      "Ò¯Ð³": 4693,
      "ĠØ³ÙĪ": 4694,
      "23": 4695,
      "anto": 4696,
      "áŁĭâĢĭ": 4697,
      "essa": 4698,
      "ÛĮØª": 4699,
      "àµ¾": 4700,
      "Ú¯Ø±": 4701,
      "Ð·Ð°": 4702,
      "Ġ×Ĳ×ķ×Ł": 4703,
      "ÑĭÐ¶": 4704,
      "à¤Łà¤°": 4705,
      "Ġfir": 4706,
      "å¸Ĥ": 4707,
      "Û°Û": 4708,
      "sá¹³": 4709,
      "aren": 4710,
      "ĠØ§ÙĦØª": 4711,
      "Ã²r": 4712,
      "endo": 4713,
      "29": 4714,
      "áĥĹ": 4715,
      "à±Ī": 4716,
      "Ø¦Ø±": 4717,
      "Ġrev": 4718,
      "áİ¶": 4719,
      "andi": 4720,
      "Ġlea": 4721,
      "ych": 4722,
      "çľ": 4723,
      "ĠÙģØ±": 4724,
      "à¶¶": 4725,
      "Ã¼Ã¼": 4726,
      "Ġisch": 4727,
      "à®Ļ": 4728,
      "ÙħÙĦ": 4729,
      "Ġìķ": 4730,
      "à°¿à°Ĥ": 4731,
      "å¤ļ": 4732,
      "ĠÑĢÐ°Ð¹Ð¾Ð½": 4733,
      "atra": 4734,
      "åħ¥": 4735,
      "26": 4736,
      "è¯": 4737,
      "Ġà¨°": 4738,
      "ĠÐľÐ°ÑĢ": 4739,
      "ĠÞĤ": 4740,
      "ĠÐºÑĥ": 4741,
      "Ġ×¤×ķ×Ł": 4742,
      "Ġdeg": 4743,
      "à½łà½ĩ": 4744,
      "ris": 4745,
      "Ð½ÑĮ": 4746,
      "48": 4747,
      "fu": 4748,
      "met": 4749,
      "Ġmid": 4750,
      "Ġker": 4751,
      "Ġàª¬": 4752,
      "Ġpla": 4753,
      "Ø³Ùħ": 4754,
      "28": 4755,
      "áŁĦáŁĩ": 4756,
      "esh": 4757,
      "ÐºÑĤ": 4758,
      "×Ĳ×ł": 4759,
      "ĠÐ±Ð¸ÑĢ": 4760,
      "Äģs": 4761,
      "ĠÛĭÛķ": 4762,
      "Ð°Ð»Ð¸": 4763,
      "ekk": 4764,
      "ĠÙħÛķ": 4765,
      "Ġ1999": 4766,
      "almente": 4767,
      "osta": 4768,
      "à«Ĥ": 4769,
      "ĠRa": 4770,
      "Ġà¶º": 4771,
      "Ġpang": 4772,
      "ĠáĢľ": 4773,
      "Ġ×Ĳ×Ļ×Ł": 4774,
      "Õ½": 4775,
      "Ġpot": 4776,
      "edia": 4777,
      "cial": 4778,
      "ĮĢ": 4779,
      "ĠaÃ°": 4780,
      "Ġpam": 4781,
      "Ġpra": 4782,
      "à¸²à¸ģ": 4783,
      "ĠÙĩÙĪ": 4784,
      "zn": 4785,
      "Ġà¨Ĺ": 4786,
      "Ġáĥĳ": 4787,
      "áĥĲáĥ®": 4788,
      "à³Ĭà²Ĥ": 4789,
      "Ġaus": 4790,
      "igo": 4791,
      "ĠØ¹ÙĦÙī": 4792,
      "ĠÃģ": 4793,
      "ular": 4794,
      "Ġset": 4795,
      "Ġàªı": 4796,
      "×Ļ×ĺ": 4797,
      "ÅŁt": 4798,
      "Ø§Ø±ÙĬ": 4799,
      "Ã´r": 4800,
      "à¾Łà½º": 4801,
      "ĠÕ¥": 4802,
      "Ø§Øµ": 4803,
      "Ġyu": 4804,
      "ĠÐ°Ð½": 4805,
      "golo": 4806,
      "Ã»ng": 4807,
      "Ġsud": 4808,
      "ĠEng": 4809,
      "45": 4810,
      "Ä¯": 4811,
      "áŁī": 4812,
      "ĠØ³Ø±": 4813,
      "ĠOl": 4814,
      "ĠXV": 4815,
      "ument": 4816,
      "áĪħ": 4817,
      "Ġret": 4818,
      "ĠÙĦÙĩ": 4819,
      "Ġhabit": 4820,
      "ĠÏĦÎ·ÏĤ": 4821,
      "ç¥": 4822,
      "Ġoli": 4823,
      "Ðĳ": 4824,
      "Ġ187": 4825,
      "á¹£": 4826,
      "ä½ľ": 4827,
      "Ġdalam": 4828,
      "áı©": 4829,
      "Ð½Ð¾ÑģÑĤ": 4830,
      "Ð¸Ð½Ð³": 4831,
      "Î²": 4832,
      "Ã³ng": 4833,
      "elen": 4834,
      "Ġkaj": 4835,
      "iny": 4836,
      "Ġleg": 4837,
      "Ã¡i": 4838,
      "kk": 4839,
      "ä¸º": 4840,
      "ÐºÐµ": 4841,
      "Ġà»Ģàº": 4842,
      "dz": 4843,
      "abi": 4844,
      "embre": 4845,
      "áī£": 4846,
      "áĢ¼áĢ®áĢ¸": 4847,
      "æĸ¹": 4848,
      "å¾Ĺ": 4849,
      "itan": 4850,
      "Õ¡Õ¾": 4851,
      "à¦°à¦¤": 4852,
      "burg": 4853,
      "Ġpou": 4854,
      "Ġia": 4855,
      "Ġìł": 4856,
      "ĠsÃ©": 4857,
      "à·ĸ": 4858,
      "ĠMas": 4859,
      "à¯į.": 4860,
      "ÑĤÑĤ": 4861,
      "Ġwie": 4862,
      "Ð¾ÑĢÐ°": 4863,
      "ĠáĬĲ": 4864,
      "ìķ": 4865,
      "Ġà¤¡": 4866,
      "Ð¾Ð»Ð¾Ð³": 4867,
      "Ð²ÐµÑĢ": 4868,
      "ĠáĢĶ": 4869,
      "äºĨ": 4870,
      "Ġsak": 4871,
      "alak": 4872,
      "Ġ×Ķ×ŀ": 4873,
      "bum": 4874,
      "Ġgra": 4875,
      "×ķ×ĵ": 4876,
      "æĶ¿": 4877,
      "Ð¿ÑĢ": 4878,
      "àº²àºį": 4879,
      "áĥĲáĥĹ": 4880,
      "ÑĬÑĥ": 4881,
      "ublik": 4882,
      "áĢ¯áĢ¶": 4883,
      "å·ŀ": 4884,
      "àª³": 4885,
      "ahi": 4886,
      "Ġà¬°": 4887,
      "ĠÏĦÎ¿": 4888,
      "ĠOn": 4889,
      "Ġ31": 4890,
      "icht": 4891,
      "198": 4892,
      "ĠáıĤ": 4893,
      "ĠÐºÑĢ": 4894,
      "áĥ£áĥļáĥĺ": 4895,
      "áĥĿáĥļ": 4896,
      "áĢŃáĢ¯áĢ¸": 4897,
      "Ġ--": 4898,
      "Ø¯ÙīÙĨ": 4899,
      "ĠpÃ²": 4900,
      "Ġword": 4901,
      "à¾Łà¼ĭ": 4902,
      "à¹ĥà¸Ļ": 4903,
      "à¶©": 4904,
      "à¾±à¼ĭ": 4905,
      "ÑĥÐ»ÑĮ": 4906,
      "Õ¯": 4907,
      "ä¸ĭ": 4908,
      "á»ĳ": 4909,
      "Ġkilom": 4910,
      "Ġend": 4911,
      "áĥĿáĥłáĥ": 4912,
      "Ġà¦¹à¦¯": 4913,
      "áĥĺáĥĵ": 4914,
      "ober": 4915,
      "ãģ£": 4916,
      "fl": 4917,
      "Ġnon": 4918,
      "ÑĥÐ²Ð°": 4919,
      "uns": 4920,
      "Ġraz": 4921,
      "ĠGo": 4922,
      "ĠÐ¸Ð¼": 4923,
      "Ġgar": 4924,
      "êµ": 4925,
      "Ø¦ÙĬ": 4926,
      "Ġrah": 4927,
      "ree": 4928,
      "Ġare": 4929,
      "àº½": 4930,
      "aden": 4931,
      "red": 4932,
      "à´§": 4933,
      "ĠØ±Ø§": 4934,
      "ÏģÎ±": 4935,
      "ÛĮÙĩ": 4936,
      "Ġtor": 4937,
      "áı´": 4938,
      "ÑıÐ¼": 4939,
      "ÃŃÃŃ": 4940,
      "à¹Ģ": 4941,
      "à¥Īà¤Ĥ": 4942,
      "éĤ": 4943,
      "ê²": 4944,
      "Ġà¤ħà¤§": 4945,
      "Ġà¤Ł": 4946,
      "Ð²ÑĢ": 4947,
      "ĠFl": 4948,
      "ĠÅł": 4949,
      "ĠPl": 4950,
      "äºĭ": 4951,
      "larÄ±": 4952,
      "×Ļ×Ķ": 4953,
      "Ġprof": 4954,
      "pen": 4955,
      "à½łà½Ľ": 4956,
      "ĠÑįÐ¼": 4957,
      "áĥ£áĥļ": 4958,
      "×ļ": 4959,
      "ä¸ĸ": 4960,
      "ĠØ¦ÛĨ": 4961,
      "Ġord": 4962,
      "inga": 4963,
      "iza": 4964,
      "Ġou": 4965,
      "æµ·": 4966,
      "uro": 4967,
      "ĠØ±Ùĩ": 4968,
      "ĠbaÅŁ": 4969,
      "áĥłáĥ": 4970,
      "ĠÚħ": 4971,
      "ĠØ§ÙĦØ£": 4972,
      "Ġë°": 4973,
      "kh": 4974,
      "ĠBrit": 4975,
      "áĢ±áĢ¬áĢº": 4976,
      "ÚĻ": 4977,
      "Ġnel": 4978,
      "Ã¡c": 4979,
      "iq": 4980,
      "ÑĢÐ°Ð¼": 4981,
      "Ġsay": 4982,
      "à¦ī": 4983,
      "Î¿Ïį": 4984,
      "à¸²à¸¡": 4985,
      "ĠÐ±ÐµÑĢ": 4986,
      "ĠÐ¾Ñģ": 4987,
      "àº²àº¡": 4988,
      "ĠvÃł": 4989,
      "ÑĭÐ»Ð´": 4990,
      "áĬŃ": 4991,
      "Ġngwag": 4992,
      "sen": 4993,
      "ÙĪÙĩ": 4994,
      "à¨¡": 4995,
      "ĠSc": 4996,
      "ĠMin": 4997,
      "itz": 4998,
      "Ã¡h": 4999,
      "à®ªà®Ł": 5000,
      "Ġstat": 5001,
      "è»į": 5002,
      "vat": 5003,
      "Ġgy": 5004,
      "aku": 5005,
      "Ã³d": 5006,
      "à½ĸà½Ģ": 5007,
      "Ä±nÄ±": 5008,
      "xi": 5009,
      "æĮ": 5010,
      "ĠTur": 5011,
      "su": 5012,
      "à±ģà°Ĥ": 5013,
      "Ġà¤ĩà¤¤": 5014,
      "enz": 5015,
      "ĠáŀĢ": 5016,
      "ĠÛģÙĪ": 5017,
      ");": 5018,
      "istan": 5019,
      "Ġ1990": 5020,
      "ace": 5021,
      "35": 5022,
      "æ¨": 5023,
      "×Ļ×ľ": 5024,
      "Ġmel": 5025,
      "æľĥ": 5026,
      "ÙĦÙīÙĤ": 5027,
      "æĦ": 5028,
      "æĲ": 5029,
      "Å¡k": 5030,
      "Ġê·¸": 5031,
      "egi": 5032,
      "ĠSte": 5033,
      "ĠâĢ¢": 5034,
      "ÙħØ§ÙĦ": 5035,
      "à¤ıà¤ķ": 5036,
      "æ³ķ": 5037,
      "Ġïº": 5038,
      "inen": 5039,
      "Ð°ÑģÐ°": 5040,
      "áº£": 5041,
      "ird": 5042,
      "ÛķÙĦ": 5043,
      "éģĵ": 5044,
      "Ġdip": 5045,
      "Ġwor": 5046,
      "èĻ": 5047,
      "Ġud": 5048,
      "Ġ2015": 5049,
      "cion": 5050,
      "Ġvom": 5051,
      "Ġà¶ĳ": 5052,
      "Ã°ur": 5053,
      "wag": 5054,
      "åĮĹ": 5055,
      "xa": 5056,
      "eto": 5057,
      "Ã°i": 5058,
      "21": 5059,
      "Ø¯Ø±": 5060,
      "Ġà¤ªà¤¹": 5061,
      "Úĳ": 5062,
      "ĠàªŃ": 5063,
      "ĠVer": 5064,
      "inta": 5065,
      "Ġà¦Ĩà§°": 5066,
      "har": 5067,
      "los": 5068,
      "áĥĲáĥ¤": 5069,
      "Ġà¤®à¤¨": 5070,
      "á»ĩ": 5071,
      "ãĥ¼ãĥ": 5072,
      "erra": 5073,
      "ĠÃĩ": 5074,
      "ĠÚ©Ø±Ø¯": 5075,
      "ĠWar": 5076,
      "ĠáĢħ": 5077,
      "Ġ×Ĳ×Ļ×ĸ": 5078,
      "ÑĩÐ¸": 5079,
      "ĠØ´ÙĩØ±": 5080,
      "omi": 5081,
      "ÚĪ": 5082,
      "Ġbes": 5083,
      "à¶°": 5084,
      "wana": 5085,
      "ÙĦÙīØ±Ùī": 5086,
      "à¨ĸ": 5087,
      "ĠSk": 5088,
      "à¶Ĥ": 5089,
      "Ò»Ñĭ": 5090,
      "Ùĭ": 5091,
      "à»Ģ": 5092,
      "eve": 5093,
      "Ġvir": 5094,
      "Ġlif": 5095,
      "à½ĺà½Ľ": 5096,
      "Ġáı¥": 5097,
      "ÙħÙĪ": 5098,
      "tan": 5099,
      "Ġà´İ": 5100,
      "Äģn": 5101,
      "ĠØ§ÙĦØŃ": 5102,
      "Ġà¤ħà¤°": 5103,
      "à©ĭà¨Ĥ": 5104,
      "àªļ": 5105,
      "ÙĬØª": 5106,
      "ĠÙħÙĤ": 5107,
      "à¾³à½¼": 5108,
      "Ġover": 5109,
      "Ø¯Ûĩ": 5110,
      "ĠLu": 5111,
      "Ġ45": 5112,
      "Ġali": 5113,
      "itas": 5114,
      "ĠÐºÐ¸": 5115,
      "Ð½ÑĭÐ¼": 5116,
      "ÙĦØ§Ùħ": 5117,
      "áģĬ": 5118,
      "adr": 5119,
      "Ġnanga": 5120,
      "omp": 5121,
      "ques": 5122,
      "ock": 5123,
      "ĠÑħÑĥÑĮÐ»Ñĥ": 5124,
      "ç½": 5125,
      "Ġgw": 5126,
      "ĠMus": 5127,
      "iche": 5128,
      "ĠÊ»i": 5129,
      "à¸·à¹Ī": 5130,
      "etti": 5131,
      "ĠHar": 5132,
      "æĬ": 5133,
      "áĥĳ": 5134,
      "ĠÐ±ÑĥÐ»": 5135,
      "ÐµÑģÐ¿ÑĥÐ±Ð»Ð¸Ðº": 5136,
      "ĠÐºÐ°Ð»": 5137,
      "mb": 5138,
      "mar": 5139,
      "Ð¸ÑĨ": 5140,
      "Ø³ÙĬ": 5141,
      "à¥ĭà¥¤": 5142,
      "áĥĿáĥ¡": 5143,
      "lov": 5144,
      "ÐµÑĤÐ¾": 5145,
      "áį£": 5146,
      "ĠØ¨Ø§ÙĦ": 5147,
      "ÐĴ": 5148,
      "à¾²à½º": 5149,
      "ëĿ": 5150,
      "ĠÐ±Ð°ÑĢÐ°Ð¼": 5151,
      "ote": 5152,
      "Ó§Ð´": 5153,
      "Ġdon": 5154,
      "Ġgl": 5155,
      "ĠÐºÑĮ": 5156,
      "Ġà¤¸à¤¨": 5157,
      "å±±": 5158,
      "dd": 5159,
      "Ġàª¶": 5160,
      "Ã¢i": 5161,
      "ĠáŀĬ": 5162,
      "ĠHer": 5163,
      "gar": 5164,
      "gal": 5165,
      "áİŃ": 5166,
      "...": 5167,
      "Ġà¹ģ": 5168,
      "ìĸ´": 5169,
      "Ġnt": 5170,
      "Õ¡Õ½": 5171,
      "Ġayisyen": 5172,
      "adas": 5173,
      "ĠWa": 5174,
      "ĠnjÃ«": 5175,
      "jn": 5176,
      "Ġgel": 5177,
      "Ġà®Ĩ": 5178,
      "ÑĭÑĩ": 5179,
      "tica": 5180,
      "Å¡e": 5181,
      "ĠÐ¼Ð°ÑĢ": 5182,
      "áĬł": 5183,
      "fs": 5184,
      "ĠsÃª": 5185,
      "Ð¾Ð»Ð°": 5186,
      "ÑĳÑĢ": 5187,
      "Ø¥": 5188,
      "ë¦¬": 5189,
      "ĠÐ¿Ð¾Ð´": 5190,
      "ĠÙĪØ±": 5191,
      "Ã¦r": 5192,
      "Õ¥ÖĢÕ": 5193,
      "ĠáĭŃ": 5194,
      "Ġnet": 5195,
      "ÐµÑĤÑĢ": 5196,
      "àº²àºĶ": 5197,
      "ĠÅĤa": 5198,
      "Ġroku": 5199,
      "áĥĶáĥłáĥ": 5200,
      "à²¦à²²": 5201,
      "à°¬": 5202,
      "esp": 5203,
      "à·ģ": 5204,
      "áıįáİ¬": 5205,
      "Ð°Ð»Ð°Ð½": 5206,
      "Ġà§¨": 5207,
      "ĠÐ¼Ð°": 5208,
      "ĠÐ¾Ð½": 5209,
      "Ġdengan": 5210,
      "ĠCol": 5211,
      "à©Ĥà©°": 5212,
      "è§": 5213,
      "Ð»Ð°Ð²": 5214,
      "Ġger": 5215,
      "Ġeste": 5216,
      "ÑħÐ°Ð½ÑĪ": 5217,
      "ÙīÙĨ": 5218,
      "36": 5219,
      "Ġmem": 5220,
      "Ġnin": 5221,
      "add": 5222,
      "ultur": 5223,
      "ÙħÙĩ": 5224,
      "oki": 5225,
      "esto": 5226,
      "197": 5227,
      "ëĤ": 5228,
      "Ġnor": 5229,
      "à°¶": 5230,
      "Ġ2002": 5231,
      "idade": 5232,
      "wu": 5233,
      "ĠØªÛĴ": 5234,
      "kat": 5235,
      "Ð»ÐµÐ´": 5236,
      "itÃ©": 5237,
      "ĠNi": 5238,
      "own": 5239,
      "vet": 5240,
      "ĠàŃ": 5241,
      "ÑĥÑģÑĤ": 5242,
      "ĠÞĮ": 5243,
      "ĠØ³ÛĴ": 5244,
      "Ð¸Ð¹Ð»Ð°": 5245,
      "Ä±nÄ±n": 5246,
      "90": 5247,
      "ence": 5248,
      "Ġhis": 5249,
      "à¤ªà¤°": 5250,
      "anan": 5251,
      "Ġste": 5252,
      "Ø§Ø³Øª": 5253,
      "Úķ": 5254,
      "à§ĥ": 5255,
      "ÏĢÏĮ": 5256,
      "ĠÙĬÛĲ": 5257,
      "à¶¢": 5258,
      "ç©": 5259,
      "ÃŃt": 5260,
      "uto": 5261,
      "nÃ©": 5262,
      "Ġani": 5263,
      "Al": 5264,
      "Ð°Ð»Ð´": 5265,
      "Ġbeg": 5266,
      "ØªÙĪ": 5267,
      "Ã»n": 5268,
      "é¦": 5269,
      "Ġtip": 5270,
      "ÑįÐ¶": 5271,
      "antes": 5272,
      "Ġasin": 5273,
      "ĠÐĲÑĢ": 5274,
      "ç¬¬": 5275,
      "Ð½ÐµÐ½ÑĮ": 5276,
      "à¤°à¤¦": 5277,
      "ÙĩØ§ÛĮ": 5278,
      "ĠÙħÙĦ": 5279,
      "ÑĭÑĥ": 5280,
      "Ġkul": 5281,
      "Ġcal": 5282,
      "ä»£": 5283,
      "sz": 5284,
      "à½ĸà½Ļ": 5285,
      "×Ļ×¢": 5286,
      "à½Ĥà½ĵà½¦": 5287,
      "Ð¸ÑģÑĮ": 5288,
      "tar": 5289,
      "Ðĺ": 5290,
      "Ó©Ð³": 5291,
      "rist": 5292,
      "é¡": 5293,
      "àµį.": 5294,
      "ĠmÃ¡": 5295,
      "Ġvel": 5296,
      "ĠrÃ©": 5297,
      "son": 5298,
      "áĥĶáĥĹ": 5299,
      "ĠÅŀ": 5300,
      "ĠÙĪÛĮ": 5301,
      "ĠÙĪÙĬ": 5302,
      "ĠÑĤÐ°Ðº": 5303,
      "Ġ60": 5304,
      "à¬ļ": 5305,
      "Ð»Ð°Ð¼": 5306,
      "Ð¾Ð²ÑħÐ°": 5307,
      "à¬ı": 5308,
      "ĠvÉĻ": 5309,
      "Ø§ÙĨÙĩ": 5310,
      "ĠØ¬Ùĩ": 5311,
      "ÑģÐºÐ°": 5312,
      "è¶": 5313,
      "Ġkana": 5314,
      "uts": 5315,
      "Ð»Ð¾Ð²": 5316,
      "Ġcy": 5317,
      "Ġcre": 5318,
      "æ¥": 5319,
      "Ð½Ð¾Ð³Ð¾": 5320,
      "ĠØ§Ú©": 5321,
      "á»§": 5322,
      "Ð½ÑĭÒ£": 5323,
      "ĠÎ¼Îµ": 5324,
      "Ġgre": 5325,
      "uer": 5326,
      "âģ": 5327,
      "éŁ": 5328,
      "jas": 5329,
      "à¥¨": 5330,
      "áĥ§": 5331,
      "ĠKe": 5332,
      "ydd": 5333,
      "berg": 5334,
      "Ö·": 5335,
      "ÑĸÑģ": 5336,
      "åģ": 5337,
      "ÑĤÑĥÑĢ": 5338,
      "à§¨": 5339,
      "Ġdig": 5340,
      "èŃ": 5341,
      "Īëĭ¤": 5342,
      "Ð°ÑĦ": 5343,
      "ĠÚ©Ûķ": 5344,
      "ÚĨÙī": 5345,
      "à¾Ĳà¾±à½º": 5346,
      "Ġà½£": 5347,
      "Ð½Ð¾Ð²": 5348,
      "ĠGre": 5349,
      "Ġ2003": 5350,
      "Ġyw": 5351,
      "III": 5352,
      "tur": 5353,
      "ĠÐĸ": 5354,
      "áŁĥ": 5355,
      "Ġà°¦": 5356,
      "iyo": 5357,
      "Ø§Øº": 5358,
      "âĢİ": 5359,
      "Ġáĥ£áĥ": 5360,
      "åķ": 5361,
      "Ã¼k": 5362,
      "ÛĮØ§Úº": 5363,
      "å¾·": 5364,
      "Ġngan": 5365,
      "utu": 5366,
      "ystem": 5367,
      "jel": 5368,
      "à°ľ": 5369,
      "Ã¤i": 5370,
      "alli": 5371,
      "Ġcir": 5372,
      "ĠOs": 5373,
      "ĠSaint": 5374,
      "ÑĥÐ¹": 5375,
      "can": 5376,
      "Ð¸Ð¾Ð½": 5377,
      "Ġee": 5378,
      "Ġsor": 5379,
      "ÙĬØ¡": 5380,
      "'d": 5381,
      "ÑĤÐ¸Ð½": 5382,
      "Äįi": 5383,
      "ìĿ¸": 5384,
      "Ġáİ¾áİ": 5385,
      "Ġmol": 5386,
      "Ġà¤¬à¤¨": 5387,
      "39": 5388,
      "och": 5389,
      "ÏģÎ¹": 5390,
      "à¥ģà¤Ĥ": 5391,
      "Ġprov": 5392,
      "Ġlifay": 5393,
      "38": 5394,
      "ĠÑģÐº": 5395,
      "ãĥ»": 5396,
      "atik": 5397,
      "àªĸ": 5398,
      "ĠMu": 5399,
      "Ġê°": 5400,
      "Ġhot": 5401,
      "à¾¦": 5402,
      "Ð°ÑģÑĭ": 5403,
      "Ġ×Ĺ": 5404,
      "à¶ºà¶ļ": 5405,
      "Ġà¤¤à¤¥": 5406,
      "à¸±à¹ī": 5407,
      "ĠÑĥÐ³Ð³Ð°ÑĢ": 5408,
      "Ġdil": 5409,
      "Ġcent": 5410,
      "Ġáį": 5411,
      "Ã¡v": 5412,
      "ÑĥÑĥÐ´": 5413,
      "Ġvis": 5414,
      "ĠÚĺ": 5415,
      "ĠÙĪÙĦ": 5416,
      "ĠØªØ§": 5417,
      "ĠÕ¶": 5418,
      "Ġprop": 5419,
      "à¤ĺ": 5420,
      "ÙħÛķ": 5421,
      "rich": 5422,
      "Ġacc": 5423,
      "imal": 5424,
      "Ġperi": 5425,
      "ight": 5426,
      "cl": 5427,
      "yg": 5428,
      "ÑģÐ°Ð½": 5429,
      "Ġáĥ¤": 5430,
      "áĥĺáĥł": 5431,
      "Ġ35": 5432,
      "è²": 5433,
      "ange": 5434,
      "Úģ": 5435,
      "à½Ĥà½ı": 5436,
      "ĠCa": 5437,
      "zh": 5438,
      "Ġesta": 5439,
      "ĠÒ¡": 5440,
      "Ġmah": 5441,
      "à½ĺà½Ĩ": 5442,
      "Ġprz": 5443,
      "ĠAk": 5444,
      "Ä©": 5445,
      "à¥ī": 5446,
      "ĠFo": 5447,
      "æķĻ": 5448,
      "Ġngwageng": 5449,
      "Ġhag": 5450,
      "×Ļ×§": 5451,
      "65": 5452,
      "Ġmeg": 5453,
      "ender": 5454,
      "ept": 5455,
      "ĠáĢģ": 5456,
      "ĠØ§ÙĦØ¨": 5457,
      "Ġkin": 5458,
      "ÙĨØ§": 5459,
      "ÙĨÙĪ": 5460,
      "ores": 5461,
      "hal": 5462,
      "Ġdisi": 5463,
      "Ġhod": 5464,
      "à¤°à¤µ": 5465,
      "ĠÃī": 5466,
      "Ġàªķàª°": 5467,
      "ovan": 5468,
      "ogo": 5469,
      "Ġtrans": 5470,
      "Ġà²¶": 5471,
      "Ġà¬ľ": 5472,
      "ÙĨÙĬ": 5473,
      "à§ª": 5474,
      "Ã¡ng": 5475,
      "Ð¸Ð½Ðµ": 5476,
      "uden": 5477,
      "Þ«": 5478,
      "idu": 5479,
      "éĥ½": 5480,
      "ÛĮÚº": 5481,
      "ÑĬÑĳÑģ": 5482,
      "bre": 5483,
      "leri": 5484,
      "rin": 5485,
      "Ġlet": 5486,
      "ilis": 5487,
      "æĿ±": 5488,
      "ëł": 5489,
      "Ã¡g": 5490,
      "å¤©": 5491,
      "cis": 5492,
      "lag": 5493,
      "ute": 5494,
      "Ä¾": 5495,
      "Ġkang": 5496,
      "ĠÐĻ": 5497,
      "Ġtsa": 5498,
      "ĠÃ«": 5499,
      "ÑĭÐ±": 5500,
      "Ġnem": 5501,
      "ĠÄĹ": 5502,
      "Úļ": 5503,
      "chh": 5504,
      "ĠÚ©Ø§": 5505,
      "km": 5506,
      "ican": 5507,
      "áĥ¥": 5508,
      "Ġgran": 5509,
      "Ð°Ð»Ð°ÑĢ": 5510,
      "ãģĤ": 5511,
      "Ġ1996": 5512,
      "Ġplu": 5513,
      "áŁģáŁĩ": 5514,
      "à¬¯": 5515,
      "à¥ĩà¥¤": 5516,
      "é«ĺ": 5517,
      "cho": 5518,
      "Ġ185": 5519,
      "áı±": 5520,
      "37": 5521,
      "Ġroz": 5522,
      "ĠBi": 5523,
      "ĠReg": 5524,
      "Ġà¬ĵ": 5525,
      "Ø´Ø±": 5526,
      "ĠÑĥÐ³Ð³Ð°ÑĢÐµ": 5527,
      "Ġ000": 5528,
      "Ġimp": 5529,
      "ÑħÐ°Ð½ÑĪÑĭÐ²": 5530,
      "Ġmez": 5531,
      "ĠÙħØª": 5532,
      "Ġà¬¤": 5533,
      "Ð¾ÑģÑģ": 5534,
      "çı": 5535,
      "Ġà®İ": 5536,
      "Ġcas": 5537,
      "agai": 5538,
      "áĥĶáĥĽ": 5539,
      "àº²àºģ": 5540,
      "Ġnyang": 5541,
      "Ġef": 5542,
      "ĠAp": 5543,
      "Ġune": 5544,
      "ĠJa": 5545,
      "Ġnav": 5546,
      "Ġà¥§à¥¯à¥": 5547,
      "itat": 5548,
      "âģ¿": 5549,
      "49": 5550,
      "stitu": 5551,
      "ĠÎ³": 5552,
      "ÄĹn": 5553,
      "ãĤī": 5554,
      "ĠØ¦ÛĲ": 5555,
      "çĲĨ": 5556,
      "ĠáŀĶ": 5557,
      "ition": 5558,
      "icu": 5559,
      "Ġunn": 5560,
      "æĸ°": 5561,
      "Ġneb": 5562,
      "ĠÐ±Ð°ÑĢÐ°Ð¼ÐµÑħÑĮ": 5563,
      "ÙĦØ§ÙĨ": 5564,
      "ÑĸÐ¼": 5565,
      "jin": 5566,
      "ĠdÃ¤t": 5567,
      "Ġleng": 5568,
      "ĠWal": 5569,
      "àº®": 5570,
      "ĠGi": 5571,
      "à²¾à²Ĥ": 5572,
      "èĩ³": 5573,
      "Ġwu": 5574,
      "áŁĢ": 5575,
      "Ġlok": 5576,
      "Ð¾ÑĢÐ´": 5577,
      "Ø±Ø§": 5578,
      "Ġà®ī": 5579,
      "çī©": 5580,
      "ĠÚ©Ø§ÙĨ": 5581,
      "àµģ.": 5582,
      "Ð½ÑĭÐ¹": 5583,
      "Ġadalah": 5584,
      "wn": 5585,
      "ë§": 5586,
      "ames": 5587,
      "Ġyer": 5588,
      "Ã¨l": 5589,
      "×ķ×ĳ": 5590,
      "åı¯": 5591,
      "çŃī": 5592,
      "ØªØ§Ø¨": 5593,
      "ÑıÐ»": 5594,
      "ĠìĦ": 5595,
      "Ġprovin": 5596,
      "Ã©gÃ²": 5597,
      "lem": 5598,
      "ling": 5599,
      "à¸ĸ": 5600,
      "ĠMed": 5601,
      "elas": 5602,
      "akar": 5603,
      "Ġqui": 5604,
      "Ġsos": 5605,
      "Ġà¶»": 5606,
      "Ġbab": 5607,
      "chu": 5608,
      "ĠBur": 5609,
      "ÐºÐ°ÑĢ": 5610,
      "esse": 5611,
      "ĠÃĦ": 5612,
      "ÑĸÑĤ": 5613,
      "Ø¨Ø¯": 5614,
      "ĠÙĨÛĴ": 5615,
      "é»": 5616,
      "iliz": 5617,
      "ĠÑĤÐ°ÑĢ": 5618,
      "áī¸": 5619,
      "ĠÐ°Ð¶": 5620,
      "Ġhas": 5621,
      "ump": 5622,
      "Ġnoch": 5623,
      "ÚĨÛķ": 5624,
      "Ġeh": 5625,
      "Ð¸Ð»Ð¸": 5626,
      "ĠJohn": 5627,
      "ÑģÐ¿": 5628,
      "Ã©d": 5629,
      "iment": 5630,
      "ÑİÑĢ": 5631,
      "Ġsitu": 5632,
      "ĠÑĤÐ¾": 5633,
      "áºŃ": 5634,
      "con": 5635,
      "mat": 5636,
      "ìĬ¤": 5637,
      "ÑįÐº": 5638,
      "ĠÃ¬": 5639,
      "Ã¦Ð³": 5640,
      "Ġess": 5641,
      "iej": 5642,
      "Ð¸ÑĦ": 5643,
      "Ġrok": 5644,
      "ĠPas": 5645,
      "ĠLand": 5646,
      "laq": 5647,
      "Ġà°°": 5648,
      "ÑĢÐ°ÑĦ": 5649,
      "rd": 5650,
      "à¬Ń": 5651,
      "Ä±z": 5652,
      "Ġà´ĩ": 5653,
      "Õ¸Õ¾": 5654,
      "Ġrom": 5655,
      "Ġpus": 5656,
      "ĠkÄģ": 5657,
      "Ġhuk": 5658,
      "Ġà¦¥": 5659,
      "Ġ×ĺ": 5660,
      "à¯Ĥ": 5661,
      "ĠÐ²ÐµÐ»": 5662,
      "èĲ": 5663,
      "Ġkg": 5664,
      "ĠØ¨Ø¹Ø¯": 5665,
      "Ġmaj": 5666,
      "ëĿ¼": 5667,
      "Ġdah": 5668,
      "ilt": 5669,
      "ĠDisi": 5670,
      "ÒĵÐ°Ð½": 5671,
      "Ġáĭ¨áĪ": 5672,
      "Ġty": 5673,
      "Ġà²Ī": 5674,
      "ĠVen": 5675,
      "ãĥ«": 5676,
      "ÉĻs": 5677,
      "ÛĮÙĨÛĮ": 5678,
      "ublic": 5679,
      "rik": 5680,
      "anya": 5681,
      "Ġpay": 5682,
      "34": 5683,
      "iw": 5684,
      "Ġfac": 5685,
      "nen": 5686,
      "Ð´Ð°Ð³": 5687,
      "ĠSay": 5688,
      "apat": 5689,
      "ÑĭÐ½ÑĭÒ£": 5690,
      "ĠÎŃ": 5691,
      "Ø§Ø·": 5692,
      "Ð´ÐµÐ½": 5693,
      "ÙĪÙĨÙĪ": 5694,
      "åĶ": 5695,
      "Ġtha": 5696,
      "ĠSur": 5697,
      "ÑĥÑĢÑĤ": 5698,
      "Ð¸Ð»Ðµ": 5699,
      "ç¦": 5700,
      "alu": 5701,
      "utt": 5702,
      "ĠÑĤÐµ": 5703,
      "vor": 5704,
      "Ñ£": 5705,
      "âĢĺ": 5706,
      "omen": 5707,
      "ãĤĬ": 5708,
      "atl": 5709,
      "ape": 5710,
      "ĠÑįÐ»": 5711,
      "Ġcat": 5712,
      "Ġov": 5713,
      "ĠÐ¸Ð»": 5714,
      "Ġstud": 5715,
      "Î½Î±": 5716,
      "Ð°Ñŀ": 5717,
      "Ġnord": 5718,
      "áĥĲáĥ¢": 5719,
      "ĠÙ¾ÛĮ": 5720,
      "Ġkra": 5721,
      "ÓĻÐ»": 5722,
      "ÌĦ": 5723,
      "à©Īà¥¤": 5724,
      "uke": 5725,
      "Ú¾ÛĮ": 5726,
      "ÑģÑĮÐº": 5727,
      "ham": 5728,
      "irk": 5729,
      "omas": 5730,
      "ÛĩÙĦ": 5731,
      "×Ĳ×ľ": 5732,
      "ĠÐĲÐ¼": 5733,
      "Ġdun": 5734,
      "à²Ń": 5735,
      "Ġbro": 5736,
      "ãģĵ": 5737,
      "ĠÐļÑĬ": 5738,
      "Ġfamilia": 5739,
      "Ġà¦°": 5740,
      "ãģķ": 5741,
      "ĠáĬ¥áĬķ": 5742,
      "ps": 5743,
      "Ò·": 5744,
      "Ø¯Ø§Ø±": 5745,
      "Ġach": 5746,
      "ÓĻÐ¹": 5747,
      "ĠáĭĪ": 5748,
      "Ġentre": 5749,
      "Ġnat": 5750,
      "ÑĸÑĩ": 5751,
      "Ø²ÛĮ": 5752,
      "¶Ģ": 5753,
      "Ġpob": 5754,
      "cio": 5755,
      "tera": 5756,
      "aste": 5757,
      "à§«": 5758,
      "ĠÑģÑı": 5759,
      "ÛĩÙĨ": 5760,
      "ensus": 5761,
      "Ġbit": 5762,
      "oria": 5763,
      "ĠÐ»ÑĬ": 5764,
      "ÛĪØ±": 5765,
      "ÄĿ": 5766,
      "Ġàª²": 5767,
      "ãģĭ": 5768,
      "ìĺ": 5769,
      "Ġnake": 5770,
      "à¾«": 5771,
      "Ġnaj": 5772,
      "ĠØ¬Ø§": 5773,
      "Ġesc": 5774,
      "ilipinas": 5775,
      "Ġayns": 5776,
      "ĠRus": 5777,
      "Ò»Ð°": 5778,
      "æĽ°": 5779,
      "Ġdei": 5780,
      "Ġà¨Ĩ": 5781,
      "Å¯m": 5782,
      "áıĥ": 5783,
      "ĠØ³ÙĨ": 5784,
      "áŀ¶âĢĭ": 5785,
      "×ķ×ŀ": 5786,
      "Ġfrom": 5787,
      "éĹ": 5788,
      "Ð²Ð»Óĵ": 5789,
      "gn": 5790,
      "ç·": 5791,
      "ìļ": 5792,
      "Ð»ÑįÐ½": 5793,
      "ĠÐ±Ð¾": 5794,
      "Å¡a": 5795,
      "Ġáī°": 5796,
      "47": 5797,
      "Ġà½Ĥ": 5798,
      "Ġtang": 5799,
      "çº": 5800,
      "aria": 5801,
      "Ġáİ¨áıĴ": 5802,
      "Ġcha": 5803,
      "áĢĺ": 5804,
      "ony": 5805,
      "Ò¯Ð¼": 5806,
      "Ġfranc": 5807,
      "31": 5808,
      "ky": 5809,
      "Ġpost": 5810,
      "ĠnÃŃ": 5811,
      "Ð±ÑĢ": 5812,
      "à½²à¼į": 5813,
      "à¤¤à¤®": 5814,
      "ster": 5815,
      "Ġë§": 5816,
      "Þ¯": 5817,
      "ê¸°": 5818,
      "ÑģÐµ": 5819,
      "ĠÚķ": 5820,
      "ĠÐºÐ¾Ð´": 5821,
      "à½ĳà½ĸà½Ħ": 5822,
      "Ġgj": 5823,
      "ĠìĹ": 5824,
      "Ó±": 5825,
      "Ġà²Ń": 5826,
      "ÑİÐ½": 5827,
      "ĠnÃ¡": 5828,
      "urd": 5829,
      "ÐµÐ½Ð°": 5830,
      "Ġpred": 5831,
      "Ġ80": 5832,
      "Ġà¬ıà¬¹": 5833,
      "Ġvor": 5834,
      "ĠÎ½": 5835,
      "Ġara": 5836,
      "onga": 5837,
      "Ð¸ÑĩÐµÑģÐº": 5838,
      "Ġnakeuh": 5839,
      "à¤Ĩ": 5840,
      "Ġáİ¬": 5841,
      "Ġtae": 5842,
      "å¹³": 5843,
      "ĠgÄ§": 5844,
      "ÑĩÐµ": 5845,
      "Ġiss": 5846,
      "áıįáıĽ": 5847,
      "éĿ¢": 5848,
      "à¯į,": 5849,
      "Ġà¶ĩ": 5850,
      "ave": 5851,
      "ĠXI": 5852,
      "Ġtri": 5853,
      "ĠAustr": 5854,
      "Ð°ÑĤÐ¸": 5855,
      "ograf": 5856,
      "Ġhin": 5857,
      "ĠMor": 5858,
      "ÐµÐ½Ðµ": 5859,
      "Ġsed": 5860,
      "Ġshi": 5861,
      "ãĤĤ": 5862,
      "áº¥": 5863,
      "ĠÆ": 5864,
      "Ø§ÙĦÛĮ": 5865,
      "hl": 5866,
      "stan": 5867,
      "Ð¾ÑĢÐ¼": 5868,
      "ä½į": 5869,
      "Ġà¤ĵ": 5870,
      "Ø¯ÙĪ": 5871,
      "ukan": 5872,
      "Ġà¬Ĩ": 5873,
      "ÙģØª": 5874,
      "éĢļ": 5875,
      "à¤ħ": 5876,
      "Ġmut": 5877,
      "áĢĴ": 5878,
      "ams": 5879,
      "Ø¨ÙĬ": 5880,
      "Ġà´ļ": 5881,
      "icha": 5882,
      "ĠÐ¿ÑĢÐµÐ´": 5883,
      "éķ·": 5884,
      "Ġà¦ħà¦¨": 5885,
      "åĸº": 5886,
      "ëıĦ": 5887,
      "32": 5888,
      "kas": 5889,
      "ines": 5890,
      "abe": 5891,
      "Ð°ÑĤÑĥÑĢ": 5892,
      "ÙĤØ§": 5893,
      "ä»ĸ": 5894,
      "isp": 5895,
      "isse": 5896,
      "Ġru": 5897,
      "ĠÐºÓ©": 5898,
      "sto": 5899,
      "å°±": 5900,
      "ĠØ§ÙĬ": 5901,
      "ĠÐĲÐ½": 5902,
      "ĠÕ¿": 5903,
      "à·Ĵ.": 5904,
      "tl": 5905,
      "ÐĶ": 5906,
      "Ġà¬Ń": 5907,
      "æľĢ": 5908,
      "Ġkomp": 5909,
      "ĠCan": 5910,
      "ress": 5911,
      "çĶ±": 5912,
      "áī¸áĭį": 5913,
      "rad": 5914,
      "Ġneg": 5915,
      "ĠÛĶ": 5916,
      "ĠØ¯ÙĪØ±": 5917,
      "ÄķÑĢ": 5918,
      "Ġsti": 5919,
      "ĠGa": 5920,
      "ÑģÑĤÑĮ": 5921,
      "à»Ĥ": 5922,
      "áĥĺáĥĻ": 5923,
      "ÏĦÎ±": 5924,
      "Ġred": 5925,
      "ĠØ¨Ø§Ø´": 5926,
      "Ġáİª": 5927,
      "Ġê²": 5928,
      "áĥĶáĥĳáĥĺáĥ¡": 5929,
      "ĠÒ»ÓĻÐ¼": 5930,
      "Ã¯": 5931,
      "inal": 5932,
      "ĠDan": 5933,
      "à¸£à¸²à¸": 5934,
      "è·¯": 5935,
      "à¥®": 5936,
      "ÙħØ±": 5937,
      "ĠDer": 5938,
      "Ġ1991": 5939,
      "ĠPal": 5940,
      "azz": 5941,
      "ĠÖĩ": 5942,
      "eso": 5943,
      "ÑĢÐ°Ð»": 5944,
      "rey": 5945,
      "Ġ1980": 5946,
      "Ġáı¥áıĦ": 5947,
      "jem": 5948,
      "Ã¼nd": 5949,
      "Ġmao": 5950,
      "¡à¼": 5951,
      "Ġdok": 5952,
      "itet": 5953,
      "àª·": 5954,
      "Ã¢u": 5955,
      "195": 5956,
      "kom": 5957,
      "ç¤": 5958,
      "Ġaur": 5959,
      "åħ¨": 5960,
      "Ġtem": 5961,
      "Ġà¤Ĩà¤¹": 5962,
      "éĩį": 5963,
      "net": 5964,
      "Ġcur": 5965,
      "à¾Ĺà½ºà¼ĭ": 5966,
      "ÑĢÐ¸ÑĤÐ¾ÑĢ": 5967,
      "å¦": 5968,
      "à½ĸà½ĳ": 5969,
      "à¾²à½²à¼ĭ": 5970,
      "Ð¸ÑĤÐµÑĤ": 5971,
      "Ġà¤Ĩà¤¨": 5972,
      "ĠÃ¦Ð¼Ã¦": 5973,
      "à¾·à¼ĭ": 5974,
      "Ġlam": 5975,
      "ĠÃ¢": 5976,
      "Ġtok": 5977,
      "ĠKu": 5978,
      "ÑĽ": 5979,
      "ĠÞĥ": 5980,
      "ĠÐ¸ÑģÑĤ": 5981,
      "Ġ2016": 5982,
      "ĠKan": 5983,
      "dyr": 5984,
      "nam": 5985,
      "Ġáı§": 5986,
      "ËĪ": 5987,
      "ë©": 5988,
      "ĠcÃ³": 5989,
      "Ġziren": 5990,
      "Õ¸ÖĢ": 5991,
      "Ù¼": 5992,
      "ÎµÎ¯": 5993,
      "Ø®Ùĩ": 5994,
      "ĠÑįÑĤ": 5995,
      "Ð½Ð°Ð»": 5996,
      "ÑĭÑģÑĤ": 5997,
      "à´¹": 5998,
      "Ġtse": 5999,
      "Ġmemb": 6000,
      "ĠAf": 6001,
      "ĠØ§ÙĦÙĤ": 6002,
      "ØºÙĩ": 6003,
      "æĺİ": 6004,
      "yar": 6005,
      "Å¥": 6006,
      "Ġklas": 6007,
      "ĠÙĩÙĨ": 6008,
      "Ġsuy": 6009,
      "ĠáĥĵáĥĿ": 6010,
      "è¦ģ": 6011,
      "ìĽ": 6012,
      "Ġtag": 6013,
      "ĠØ³Ø§ÙĨ": 6014,
      "ĠØ¬ÙĨ": 6015,
      "áº½": 6016,
      "åīį": 6017,
      "ĠÕ¡Õ": 6018,
      "Ġdol": 6019,
      "Ġnot": 6020,
      "ĠÒ³": 6021,
      "her": 6022,
      "ĠsÃŃ": 6023,
      "ÑĸÐº": 6024,
      "wang": 6025,
      "ĠÐ¸Ð¹": 6026,
      "Ø£Ø±": 6027,
      "ä¼ļ": 6028,
      "33": 6029,
      "iran": 6030,
      "ĠÐ±ÑĭÐ»": 6031,
      "à°·": 6032,
      "à±Ĭ": 6033,
      "Ġà°Ĩ": 6034,
      "åĽĽ": 6035,
      "åĮĸ": 6036,
      "Ġ=": 6037,
      "Ġvari": 6038,
      "ĠBal": 6039,
      "ĠviÃ°": 6040,
      "áİ¨": 6041,
      "ĠFor": 6042,
      "ĠÕ£": 6043,
      "ĠÙĥØ§ÙĨ": 6044,
      "zer": 6045,
      "Ġdev": 6046,
      "ÐµÑģÑĮ": 6047,
      "tre": 6048,
      "Äĩi": 6049,
      "Ð¡Ðł": 6050,
      "46": 6051,
      "Ġtit": 6052,
      "à¦¼à¥¤": 6053,
      "ĠÊ»o": 6054,
      "ÑĭÐ³ÑĬ": 6055,
      "uran": 6056,
      "Ð¸ÑĺÐ°": 6057,
      "Ġsun": 6058,
      "ÙĪÙĪ": 6059,
      "ÑĭÐ½Ð°Ð½": 6060,
      "áĢ¾áĢŃ": 6061,
      "ndr": 6062,
      "Ġdre": 6063,
      "ÛĮÛĮ": 6064,
      "Ġunt": 6065,
      "Ġning": 6066,
      "Ġlim": 6067,
      "Ð±ÑĥÑĢ": 6068,
      "ÄĥÐ½": 6069,
      "åº¦": 6070,
      "ÑĻ": 6071,
      "Ġidi": 6072,
      "ĠÐºÐ°ÑĤ": 6073,
      "áĢ±áĢ«": 6074,
      "Ð¸Ðµ": 6075,
      "Ġpel": 6076,
      "app": 6077,
      "lex": 6078,
      "Õ¡Õ®": 6079,
      "Ġkut": 6080,
      "áıı": 6081,
      "Ġà´Ĩ": 6082,
      "à¤ĩà¤²": 6083,
      "bal": 6084,
      "ĠáĢĳ": 6085,
      "sy": 6086,
      "ÑĢÑį": 6087,
      "åħĥ": 6088,
      "mm": 6089,
      "Ú¯Ùĩ": 6090,
      "ĠØªÛķ": 6091,
      "à¤¨à¤²": 6092,
      "ĠÎĳ": 6093,
      "Ð¾Ð²ÐµÑĤ": 6094,
      "hich": 6095,
      "³Û": 6096,
      "æĵ": 6097,
      "à¦¾à¦Ĥ": 6098,
      "ÑĸÐ·": 6099,
      "áŀĵáŀĢ": 6100,
      "Õ¤": 6101,
      "Ġà¦ĵ": 6102,
      "å®ļ": 6103,
      "àº¼": 6104,
      "asy": 6105,
      "iru": 6106,
      "×Ļ×Ĳ": 6107,
      "Ġà¤¸à¤°": 6108,
      "Ã©ro": 6109,
      "Ġà²²": 6110,
      "ĠIr": 6111,
      "æı": 6112,
      "Ġbor": 6113,
      "ĠMart": 6114,
      "jal": 6115,
      "inda": 6116,
      "à¦°à¦¹": 6117,
      "ĠJos": 6118,
      "áĬ¨": 6119,
      "ÙĪØ±ÛĮ": 6120,
      "Ġnoh": 6121,
      "ĠÓĢ": 6122,
      "Ġpov": 6123,
      "Ġ×ª": 6124,
      "apan": 6125,
      "à¾²à½¼à¼ĭ": 6126,
      "åĲİ": 6127,
      "Õ¸ÖĤÕ©ÕµÕ¸ÖĤÕ¶": 6128,
      "hn": 6129,
      "ĠØ¯ÙĦÙĩ": 6130,
      "à»ĢàºĽ": 6131,
      "åĬł": 6132,
      "Ġwak": 6133,
      "ĠMat": 6134,
      "Ġsich": 6135,
      "ĠrÄģ": 6136,
      "ÙĤØª": 6137,
      "èĥ½": 6138,
      "ÑĭÑı": 6139,
      "Ġà¦ıà¦ķ": 6140,
      "Ø²Ùī": 6141,
      "ÙĪÙĨÛĮ": 6142,
      "ìĻ": 6143,
      "igu": 6144,
      "endi": 6145,
      "ĠKom": 6146,
      "Ú©Ùĩ": 6147,
      "Ã¢l": 6148,
      "itor": 6149,
      "Ġwerd": 6150,
      "Ġprogr": 6151,
      "ations": 6152,
      "ĠlÃ©": 6153,
      "Ġvum": 6154,
      "rez": 6155,
      "Ã¦Ð¼": 6156,
      "ĠáıĦ": 6157,
      "Ġnad": 6158,
      "Ġep": 6159,
      "Õ¥Õ¶": 6160,
      "ÏĥÎ·": 6161,
      "Ġ1998": 6162,
      "ĠÐŀÑĢ": 6163,
      "Õ¥Õ¿": 6164,
      "ĠÎ±ÏĢÏĮ": 6165,
      "elm": 6166,
      "ely": 6167,
      "Ġnap": 6168,
      "áĪª": 6169,
      "iene": 6170,
      "ex": 6171,
      "Ð»Ð¾": 6172,
      "Ð³Ð¸": 6173,
      "ĠMag": 6174,
      "ĠáĢĸ": 6175,
      "à½ħà½ĵ": 6176,
      "42": 6177,
      "ìľ¼ë¡ľ": 6178,
      "ĠØ¨ÙīØ±": 6179,
      "ĠÑıÐ½": 6180,
      "ĠÛ±Û¹Û": 6181,
      "ĠÐ±Ð°ÑģÑģÐµÐ¹Ð½Ñĭ": 6182,
      "cer": 6183,
      "Ġsob": 6184,
      "ĠDem": 6185,
      "ĠPir": 6186,
      "icip": 6187,
      "Ġxe": 6188,
      "Ġà½ĺ": 6189,
      "Ġlug": 6190,
      "ĠÐºÐ¾ÑĤ": 6191,
      "Ð±Ð°": 6192,
      "æ®": 6193,
      "Ã¨h": 6194,
      "Ð°Ð³ÑĮ": 6195,
      "Ø§Ø¯ÛĮ": 6196,
      "ĠÙĬØ§": 6197,
      "ĠtÄģ": 6198,
      "Ġec": 6199,
      "odd": 6200,
      "ĠHan": 6201,
      "Ã¼t": 6202,
      "Ø§Ø¦ÛĮ": 6203,
      "éĸĭ": 6204,
      "è£": 6205,
      "ãĤ¤": 6206,
      "à¾Ĳà½´à¼ĭ": 6207,
      "bur": 6208,
      "onia": 6209,
      "Ġnaf": 6210,
      "ÑģÐºÐ¸Ð¹": 6211,
      "Ð¸Ð»ÑĮ": 6212,
      "Ġáıĵ": 6213,
      "à±ģ.": 6214,
      "ates": 6215,
      "ÑįÑįÐ½": 6216,
      "usu": 6217,
      "ÑĸÑı": 6218,
      "ÑģÑĤÐ°Ð½": 6219,
      "ÏģÎ¿": 6220,
      "udd": 6221,
      "åĲĪ": 6222,
      "Ð£": 6223,
      "ÑĢÐ¸Ð½": 6224,
      "umu": 6225,
      "åĽł": 6226,
      "Ã¼rk": 6227,
      "ws": 6228,
      "Ð·Ðµ": 6229,
      "ÑĩÑĭ": 6230,
      "ĠÕ©": 6231,
      "Ð¾Ð¼Ð¸": 6232,
      "Ġ1960": 6233,
      "ĠPop": 6234,
      "ogu": 6235,
      "Ġ300": 6236,
      "Ġ70": 6237,
      "Ġsuyu": 6238,
      "åıĬ": 6239,
      "ĠÏĦÎ·Î½": 6240,
      "ngiÃ¨n": 6241,
      "ĠNov": 6242,
      "ĠÙħØ³": 6243,
      "åĪ©": 6244,
      "ä½¿": 6245,
      "ĠmÃ¡s": 6246,
      "Ġoc": 6247,
      "ĠâĢĿ": 6248,
      "å»º": 6249,
      "Ar": 6250,
      "amba": 6251,
      "ĠWest": 6252,
      "áĥĲáĥłáĥĹ": 6253,
      "lak": 6254,
      "Ġlom": 6255,
      "Ġ×ĳ×Ĳ": 6256,
      "ĠÙĥÛĲ": 6257,
      "Ġtahun": 6258,
      ".\"": 6259,
      "Ġtim": 6260,
      "ĠKal": 6261,
      "ĠOp": 6262,
      "Ðĵ": 6263,
      "à¥©": 6264,
      "Ã´n": 6265,
      "bit": 6266,
      "bol": 6267,
      "dÉĻ": 6268,
      "ÑįÒ»": 6269,
      "iones": 6270,
      "ĠVol": 6271,
      "ĠØªÙĬ": 6272,
      "ĠÂ»": 6273,
      "75": 6274,
      "ÙĦØ±": 6275,
      "ãģ¦ãģĦ": 6276,
      "wel": 6277,
      "à¥«": 6278,
      "Ġà¦«": 6279,
      "Ã¨re": 6280,
      "à¸Ļà¸Ĺ": 6281,
      "Ò³Ð¾Ð¸": 6282,
      "vis": 6283,
      "Úı": 6284,
      "ĠÙħØ¬": 6285,
      "Ġadminist": 6286,
      "ç¸": 6287,
      "uld": 6288,
      "ĠPort": 6289,
      "Ø¨Ùĩ": 6290,
      "à¯ģ.": 6291,
      "áİ¦áı": 6292,
      "ĠtÃ©": 6293,
      "Ġip": 6294,
      "Ġatt": 6295,
      "oms": 6296,
      "à¤²à¤®": 6297,
      "43": 6298,
      "emm": 6299,
      "over": 6300,
      "à³Ĩà²Ĥ": 6301,
      "Ġesp": 6302,
      "Äĥng": 6303,
      "áĮ¥": 6304,
      "Äĩe": 6305,
      ".:": 6306,
      "ĠMac": 6307,
      "udu": 6308,
      "ĠÞĲ": 6309,
      "ĠUr": 6310,
      "çģ": 6311,
      "à¦Ļ": 6312,
      "Ġses": 6313,
      "aten": 6314,
      "à§©": 6315,
      "à°£": 6316,
      "Ã¤nd": 6317,
      "miÅŁ": 6318,
      "ĠáŀŁ": 6319,
      "áĭ³": 6320,
      "Ġspecies": 6321,
      "ezi": 6322,
      "ulag": 6323,
      "ugh": 6324,
      "Ġhae": 6325,
      "Ġà¦¸à¦®": 6326,
      "èĪĩ": 6327,
      "åŁİ": 6328,
      "ĠAfrika": 6329,
      "Ġdop": 6330,
      "Ġsuk": 6331,
      "Å¡u": 6332,
      "ĠIntern": 6333,
      "è¼": 6334,
      "áĥ¬": 6335,
      "Ġastero": 6336,
      "Ø¯ÙĬ": 6337,
      "Ã³s": 6338,
      "Ġ1970": 6339,
      "ĠDes": 6340,
      "Ì¤-": 6341,
      "jed": 6342,
      "ool": 6343,
      "æĥ": 6344,
      "à§¬": 6345,
      "Ġà¤ħà¤Ń": 6346,
      "Å¾i": 6347,
      "à§¦à§¦": 6348,
      "hy": 6349,
      "Ġpin": 6350,
      "Ġmy": 6351,
      "ĠKiba": 6352,
      "Ġàªĸ": 6353,
      "Ġhann": 6354,
      "ĠÃĸ": 6355,
      "Ð°Ð½Ð¸Ñı": 6356,
      "ĠChar": 6357,
      "ÛķÙĪÛķ": 6358,
      "Ġnun": 6359,
      "ĠhÃ¨": 6360,
      "ĠiÃ§": 6361,
      "ÐµÑĢÐ³": 6362,
      "hin": 6363,
      "Ġáŀĸ": 6364,
      "Ġsw": 6365,
      "Ġgal": 6366,
      "ÑĮÑħ": 6367,
      "Ä±na": 6368,
      "ĠCor": 6369,
      "ĠJac": 6370,
      "ĠÑĢÐµ": 6371,
      "ÚĸÙĬ": 6372,
      "ĠTu": 6373,
      "×Ļ×ĵ": 6374,
      "Ġary": 6375,
      "Ġdim": 6376,
      "akuna": 6377,
      "ĠÐĲÐ·": 6378,
      "Ð¸Ð¹Ð³": 6379,
      "ania": 6380,
      "Ġdest": 6381,
      "Å«s": 6382,
      "ket": 6383,
      "ingen": 6384,
      "lim": 6385,
      "rim": 6386,
      "ĠØ¶": 6387,
      "Ġbek": 6388,
      "Ð²Ð¾ÑĢ": 6389,
      "ays": 6390,
      "ÙĢ": 6391,
      "à·Ĥ": 6392,
      "×Ļ×ĳ": 6393,
      "Ġ180": 6394,
      "Ã¬ng": 6395,
      "Ġ1992": 6396,
      "¡Ù": 6397,
      "adt": 6398,
      "Ġjisk": 6399,
      "à§°à¦¤": 6400,
      "196": 6401,
      "rem": 6402,
      "ÓĻÑĤ": 6403,
      "ÑģÐºÐ¾Ð¹": 6404,
      "nj": 6405,
      "ney": 6406,
      "à¨¿à©°": 6407,
      "à¥¬": 6408,
      "àª¬": 6409,
      "à½ĳà½Ģ": 6410,
      "ÃŃm": 6411,
      "×ķ×¡": 6412,
      "Ġ1945": 6413,
      "à¾¡à½´": 6414,
      "Ġdans": 6415,
      "ĠÚī": 6416,
      "ĠÐ½Ð°ÑĢ": 6417,
      "aza": 6418,
      "Ú¤": 6419,
      "amar": 6420,
      "ÑıÐ½ÑĮ": 6421,
      "nin": 6422,
      "Ġking": 6423,
      "ĠPor": 6424,
      "oon": 6425,
      "Ġcm": 6426,
      "Ġdib": 6427,
      "ĠØ¨ÛĮØ±": 6428,
      "ĠÙĨÙĪÚº": 6429,
      "×¢×ľ": 6430,
      "Ġperson": 6431,
      "à¬Ĥ": 6432,
      "egen": 6433,
      "ÑĭÐ½Ñĭ": 6434,
      "à¸Ľà¸£à¸°": 6435,
      "Ġà¦ľà¦¨": 6436,
      "unan": 6437,
      "Ġzv": 6438,
      "à¤¸à¤®": 6439,
      "Ø§Ø±Ø¯": 6440,
      "teri": 6441,
      "ĠÑĪÐº": 6442,
      "Ġà§°": 6443,
      "à½Ļà½ĺ": 6444,
      "æ²»": 6445,
      "41": 6446,
      "Ġsit": 6447,
      "wy": 6448,
      "à¥ª": 6449,
      "ĠÑĤÒ¯": 6450,
      "ÑĥÑĤÑĤ": 6451,
      "Å¡i": 6452,
      "á»įn": 6453,
      "Ø§Ú»": 6454,
      "ĠÑĤÐµÑĢÑĢÐ¸ÑĤÐ¾ÑĢ": 6455,
      "amat": 6456,
      "ents": 6457,
      "Ãłi": 6458,
      "Ġwaar": 6459,
      "zÃ«": 6460,
      "Ġbez": 6461,
      "ØªÙĬ": 6462,
      "ĠØ§ÙĪÙĦ": 6463,
      "stit": 6464,
      "à¥ģà¥¤": 6465,
      "ĠsÃ¨": 6466,
      "ĠBen": 6467,
      "ĠZe": 6468,
      "éĩĮ": 6469,
      "èī": 6470,
      "Ġole": 6471,
      "ÑĮÑı": 6472,
      "à¤ķà¤²": 6473,
      "ï¼Ľ": 6474,
      "ĠÐ¿ÑĢÐ°Ð²": 6475,
      "×ĳ×¨": 6476,
      "ÑĪÓ¹": 6477,
      "ciÃ³": 6478,
      "ĠÙ»": 6479,
      "à´¨à´¤": 6480,
      "à¶±à¶º": 6481,
      "ĠYork": 6482,
      "ÑĥÑİ": 6483,
      "Ġhistor": 6484,
      "ynda": 6485,
      "Ø¤ÙĨ": 6486,
      "åĤ": 6487,
      "Ġmei": 6488,
      "æĲŃ": 6489,
      "à°§": 6490,
      "ikal": 6491,
      "ĠPe": 6492,
      "ĠTer": 6493,
      "ĠRom": 6494,
      "Ú©Ú¾": 6495,
      "Ġ×ķ×ķ×¢": 6496,
      "å¸Ŀ": 6497,
      "Ġgener": 6498,
      "ÑĩÐµÐ½": 6499,
      "à¸©": 6500,
      "ÑĪÐ°": 6501,
      "ÃŃk": 6502,
      "Ø¨ÛĮ": 6503,
      "ĠÐłÐµÑģÐ¿ÑĥÐ±Ð»Ð¸Ðº": 6504,
      "ëĵ¤": 6505,
      "ges": 6506,
      "ëħ": 6507,
      "ĠÐ±ÐµÐ»": 6508,
      "Ġà¦ªà¦°": 6509,
      "å°ĩ": 6510,
      "uje": 6511,
      "Ġáĥ¥": 6512,
      "ÃŃg": 6513,
      "çī¹": 6514,
      "44": 6515,
      "Ġà³": 6516,
      "ÑĤÑĢ": 6517,
      "Ä±nd": 6518,
      "sko": 6519,
      "Åıh": 6520,
      "Ġsuper": 6521,
      "ÌĤ": 6522,
      "Ð¸ÑĨÐ¸": 6523,
      "udo": 6524,
      "95": 6525,
      "Ġlag": 6526,
      "Ġ;": 6527,
      "áĥĺáĥ¢": 6528,
      "ĠÙĤÙīÙĦÙī": 6529,
      "Ķáıħ": 6530,
      "ĠBas": 6531,
      "Ã³m": 6532,
      "nih": 6533,
      "bat": 6534,
      "mon": 6535,
      "Ġdial": 6536,
      "íķ´": 6537,
      "ĠáŁĶ": 6538,
      "igen": 6539,
      "áĥĺáĥĿ": 6540,
      "ÉĻl": 6541,
      "amento": 6542,
      "wr": 6543,
      "Ã¤ng": 6544,
      "ĠIII": 6545,
      "igan": 6546,
      "Ġunder": 6547,
      "Ò¯Ò¯Ð»": 6548,
      "tÃ«": 6549,
      "Ġpak": 6550,
      "iver": 6551,
      "aru": 6552,
      "eler": 6553,
      "ÑĸÐ¹": 6554,
      "ÎµÏĤ": 6555,
      "ĠÊ»a": 6556,
      "àº·à»Ī": 6557,
      "ç¾İ": 6558,
      "gl": 6559,
      "Ġcá»§": 6560,
      "ĠLes": 6561,
      "ÌĨ": 6562,
      "Ġconc": 6563,
      "à¾Ĳà¾±": 6564,
      "Ð¾Ñŀ": 6565,
      "Ġzi": 6566,
      "nis": 6567,
      "ĠÙħØµ": 6568,
      "ĠEv": 6569,
      "áĥĺáĥĽ": 6570,
      "ĠÙĨÙĪÙħ": 6571,
      "Ġ×ĵ×¢×¨": 6572,
      "Ġfamili": 6573,
      "ĠRob": 6574,
      "Õ¡Öģ": 6575,
      "ĠÐ¼Ð°ÑĤ": 6576,
      "Ð°ÐºÑĬ": 6577,
      "áĥ£áĥłáĥĺ": 6578,
      "áĥĲáĥª": 6579,
      "ĠÙħØ§": 6580,
      "Ġcá»§a": 6581,
      "):": 6582,
      "Â«": 6583,
      "Ġmens": 6584,
      "ÙīØ³Ùī": 6585,
      "ĠLos": 6586,
      "nim": 6587,
      "agiti": 6588,
      "tav": 6589,
      "ãĥ©": 6590,
      "Ð°ÑĨÐ¸Ñı": 6591,
      "Î¿Î»": 6592,
      "Ġgenus": 6593,
      "Ġsat": 6594,
      "eria": 6595,
      "Ġkien": 6596,
      "ĠBro": 6597,
      "ĠÐ¸Ñİ": 6598,
      "fik": 6599,
      "Ġmein": 6600,
      "ÙĪÙĤ": 6601,
      "à¨§": 6602,
      "åħ±": 6603,
      "ĠFrank": 6604,
      "stru": 6605,
      "upe": 6606,
      "àºĽàº°": 6607,
      "ĠÐ±Ð°ÑģÑģÐµÐ¹Ð½": 6608,
      "Ġà»ģàº¥àº°": 6609,
      "ĠÑģÐ¼": 6610,
      "ĠÐ±Ð»Ð°": 6611,
      "ĠÐ¿Ð¾Ñģ": 6612,
      "äºĶ": 6613,
      "ustri": 6614,
      "ria": 6615,
      "Ġven": 6616,
      "ĠKat": 6617,
      "Ġáĥ®": 6618,
      "opp": 6619,
      "%,": 6620,
      "Ġpass": 6621,
      "ĠgÃ¶": 6622,
      "ĠLond": 6623,
      "áĪ°": 6624,
      "Ò»Ð°Ð½": 6625,
      "uti": 6626,
      "Î¾": 6627,
      "ĠÚģ": 6628,
      "Ġáĥ¢": 6629,
      "áĭĪ": 6630,
      "Ġáİłáıĵ": 6631,
      "Ð¨": 6632,
      "Ġjan": 6633,
      "Ġà¬Ĺ": 6634,
      "ÑĬÑĢ": 6635,
      "Åįng": 6636,
      "à¤®à¤¨": 6637,
      "unga": 6638,
      "ïºİ": 6639,
      "ÐµÐ½Ð¸Ðµ": 6640,
      "å£«": 6641,
      "jek": 6642,
      "alista": 6643,
      "àªĵ": 6644,
      "ĠUm": 6645,
      "yna": 6646,
      "Ġsj": 6647,
      "Ġ(\"": 6648,
      "Ä±lÄ±": 6649,
      "ÏİÎ½": 6650,
      "Ġfak": 6651,
      "Ġprom": 6652,
      "ismo": 6653,
      "ãģĻ": 6654,
      "Ġsas": 6655,
      "Ġtid": 6656,
      "undi": 6657,
      "Ø³Ø§ÙĨ": 6658,
      "Ġ1994": 6659,
      "Ø§Ø±ÛĮØ®": 6660,
      "ê³¼": 6661,
      "asc": 6662,
      "áĪī": 6663,
      "Ð°Ð¼Ð¸": 6664,
      "æ©": 6665,
      "à½Ĥà½ĳ": 6666,
      "ìĹĲìĦľ": 6667,
      "ÈĽi": 6668,
      "aso": 6669,
      "chd": 6670,
      "unu": 6671,
      "ĠÃį": 6672,
      "à²°à²¤": 6673,
      "ÉĻt": 6674,
      "ÑģÑĤÐ²Ð¾": 6675,
      "esc": 6676,
      "amer": 6677,
      "áĥĶáĥĿ": 6678,
      "ĠÐ¶Ð°Ð½Ð°": 6679,
      "áĥ£áĥľ": 6680,
      "ĠÐŀÐ±": 6681,
      "éĸĵ": 6682,
      "sin": 6683,
      "Ġout": 6684,
      "à¤°à¤¯": 6685,
      "ĠMay": 6686,
      "ĠNord": 6687,
      "ĠHol": 6688,
      "Ð°ÐºÑĤ": 6689,
      "gol": 6690,
      "Ó¯": 6691,
      "ory": 6692,
      "ello": 6693,
      "itti": 6694,
      "ĠMil": 6695,
      "Ã§on": 6696,
      "ÙĦÛķØ±": 6697,
      "ÛĩÙ¾": 6698,
      "ÎµÏĦ": 6699,
      "Ð»ÐµÑĢ": 6700,
      "Ġbot": 6701,
      "ister": 6702,
      "áıįáıĵ": 6703,
      "pecies": 6704,
      "undo": 6705,
      "çĻ¼": 6706,
      "Ġnis": 6707,
      "Ġllaq": 6708,
      "ĠAv": 6709,
      "ĠKab": 6710,
      "Ġtin": 6711,
      "Ġà°ľ": 6712,
      "áĥĺáĥ£áĥ": 6713,
      "ĠÄĮ": 6714,
      "ÑĤÐ¾Ð½": 6715,
      "ilay": 6716,
      "à¥Ģ.": 6717,
      "Ð°ÑĢÐ¸": 6718,
      "isto": 6719,
      "ĠÕ¢": 6720,
      "ĠÕ«": 6721,
      "dÄ±": 6722,
      "Ð¸Ð¼Ð°ÑĤ": 6723,
      "\")": 6724,
      "Ð¤": 6725,
      "ĠsÃ¶": 6726,
      "Ð°Ð»Ð´Ð°": 6727,
      "ĠØ¨ÙĦ": 6728,
      "Ġzw": 6729,
      "Ġuut": 6730,
      "Ġqab": 6731,
      "ĠOb": 6732,
      "Ġbulan": 6733,
      "Ġ&": 6734,
      "ÛĮØ¯": 6735,
      "à´ľ": 6736,
      "baa": 6737,
      "ÄĹj": 6738,
      "unk": 6739,
      "à½ĸà½¤": 6740,
      "ouv": 6741,
      "à¸ŀà¸£à¸°": 6742,
      "ball": 6743,
      "à¤µà¤²": 6744,
      "×ķ×¤": 6745,
      "Ġï»": 6746,
      "Ð¾ÑĦ": 6747,
      "Ð¾ÑĢÐ¸": 6748,
      "Ġved": 6749,
      "85": 6750,
      "Ġkes": 6751,
      "ĠSar": 6752,
      "Ð°Ð¹Ð½": 6753,
      "ĠÐ³ÑĬ": 6754,
      "ÐµÐ´ÐµÑĢ": 6755,
      "ĠáĪĪ": 6756,
      "Ú¯ÛķÙĨ": 6757,
      "Ð»Ð°Ñģ": 6758,
      "ĠÐºÐµÐ»": 6759,
      "ĠØªØ§Ø±ÛĮØ®": 6760,
      "ĠÕº": 6761,
      "å¤ª": 6762,
      "Ġwh": 6763,
      "ĠØ¢ÙĨ": 6764,
      "lis": 6765,
      "Ġcel": 6766,
      "àµĬ": 6767,
      "á»ģ": 6768,
      "Ġdagiti": 6769,
      "ram": 6770,
      "ÑĢÐµÐ¼": 6771,
      "ivo": 6772,
      "Ġforma": 6773,
      "å°ı": 6774,
      "Ġáĥ¬áĥĲáĥľ": 6775,
      "Ġnohanga": 6776,
      "ahn": 6777,
      "ĠÐ¿ÑĭÑĢ": 6778,
      "à¦ł": 6779,
      "Ġgad": 6780,
      "Ġà¨ĩà¨¸": 6781,
      "à§Į": 6782,
      "Ġih": 6783,
      "à¸Ĥà¸Ńà¸ĩ": 6784,
      "Ġchh": 6785,
      "áīĢ": 6786,
      "Ġprot": 6787,
      "è¨Ģ": 6788,
      "nia": 6789,
      "à§®": 6790,
      "aca": 6791,
      "Å¾e": 6792,
      "ä½¢": 6793,
      "Ġcamp": 6794,
      "à¤®à¤ķ": 6795,
      "áįį": 6796,
      "çĽ¸": 6797,
      "Ã©roid": 6798,
      "ĠÐºÐ¾Ñĺ": 6799,
      "ics": 6800,
      "×Ļ×¡": 6801,
      "ÑĢÐ°Ð·": 6802,
      "Ð¾Ð½Ð³": 6803,
      "áĬĽ": 6804,
      "Ġà¤§à¤°": 6805,
      "ĠÃºt": 6806,
      "ral": 6807,
      "Ġene": 6808,
      "Ġbik": 6809,
      "ÙħØ¹": 6810,
      "ĠMont": 6811,
      "ĠØ§ÙĦØ¬": 6812,
      "led": 6813,
      "Ġama": 6814,
      "ÐºÐ¸Ð½": 6815,
      "Ġà¤®à¤§": 6816,
      "à¤·à¤£": 6817,
      "Ġà¶ļà¶»": 6818,
      "ģáģ": 6819,
      "ilik": 6820,
      "Ġfat": 6821,
      "ĠAy": 6822,
      "imm": 6823,
      "ĠØ¨ÙĬ": 6824,
      "×Ļ×Ĵ": 6825,
      "Ø´ÙĨ": 6826,
      "ĠÙĨØ§Ùħ": 6827,
      "åħī": 6828,
      "Ð»Óĵ": 6829,
      "ÑįÐ±": 6830,
      "imu": 6831,
      "tab": 6832,
      "Ãªs": 6833,
      "Ġ90": 6834,
      "onan": 6835,
      "Ä±p": 6836,
      "à²µà²¨": 6837,
      "Ã©ra": 6838,
      "à¥¦à¥¦": 6839,
      "áĥ¨áĥĺ": 6840,
      "Ġbed": 6841,
      "ĠWik": 6842,
      "Ġstad": 6843,
      "æľĿ": 6844,
      "ech": 6845,
      "ĠMak": 6846,
      "áīħ": 6847,
      "à¾Ĺà½º": 6848,
      "Ġdeur": 6849,
      "ÑĪÑĭ": 6850,
      "ĠÐ²ÐµÑĢ": 6851,
      "Õ¡Õ¬": 6852,
      "Ġà¨ķà¨°": 6853,
      "ãģķãĤĮ": 6854,
      "Ġnen": 6855,
      "ĠSeg": 6856,
      "Ġà²ļ": 6857,
      "ĠÚ¯ÙĦ": 6858,
      "å¤ĸ": 6859,
      "ĠAw": 6860,
      "à¤¯à¤¸": 6861,
      "ĠastÃ©roid": 6862,
      "alla": 6863,
      "ĠStr": 6864,
      "ØªÛķ": 6865,
      "Äĥm": 6866,
      "iert": 6867,
      "Ġ1993": 6868,
      "èªŀ": 6869,
      "ulagway": 6870,
      "ÑĢÐ¾Ð½": 6871,
      "Ġsul": 6872,
      "ĠwÄģ": 6873,
      "ĠAug": 6874,
      "Ġìĭ": 6875,
      "Ê»i": 6876,
      "Ġà¦ıà¦ĩ": 6877,
      "Ġdom": 6878,
      "ĠsÃ³": 6879,
      "ÑĤÐ°ÑĤ": 6880,
      "ÑĥÑĥÐ½": 6881,
      "ĠØ¯ÙĬ": 6882,
      "ĠÐłÐ¾ÑģÑģ": 6883,
      "ĠAmerika": 6884,
      "Ġ×Ķ×Ĳ×ĺ": 6885,
      "Ġà¦¬à¦°": 6886,
      "vers": 6887,
      "Ð²Ð°Ð¹": 6888,
      "ĠMad": 6889,
      "ÑıÐ·": 6890,
      "à¤¦à¤°": 6891,
      "Ġëĭ": 6892,
      "Ġaj": 6893,
      "à³¦": 6894,
      "Ġgore": 6895,
      "entes": 6896,
      "Ġarg": 6897,
      "Ã²l": 6898,
      "aram": 6899,
      "ÙĪÚ©": 6900,
      "Ġrus": 6901,
      "ĠTha": 6902,
      "æŃ¤": 6903,
      "Ġkok": 6904,
      "ision": 6905,
      "ivi": 6906,
      "nei": 6907,
      "àº±à»ī": 6908,
      "Î¶": 6909,
      "Ð»Ñİ": 6910,
      "à§§à§": 6911,
      "Ġcer": 6912,
      "ĠSen": 6913,
      "Ġsai": 6914,
      "Ġwaa": 6915,
      "ĠAnt": 6916,
      "Ġimport": 6917,
      "Ð½Ð°Ñı": 6918,
      "à¹Ħà¸Ķ": 6919,
      "àº²àº§": 6920,
      "Ä±Ã±": 6921,
      "ĠÙħØ´": 6922,
      "Ġ×Ĳ×ķ×Ļ×": 6923,
      "Ġdepart": 6924,
      "ĠÃ¹": 6925,
      "ĠÐ³Ð°Ð·": 6926,
      "Ð¾Ð´Ð°": 6927,
      "wat": 6928,
      "Ġbang": 6929,
      "yny": 6930,
      "âĢĿ.": 6931,
      "Ġà°¤": 6932,
      "ÐµÑģÑĤÐ²": 6933,
      "ĠØ§ÙĦØ³": 6934,
      "à¦¨à¦°": 6935,
      "ungs": 6936,
      "å®ī": 6937,
      "Ġà²®à²¤": 6938,
      "Ġà¤ł": 6939,
      "Ġport": 6940,
      "idos": 6941,
      "ĠCal": 6942,
      "rek": 6943,
      "ÙĦÙīÙĥ": 6944,
      "Ġ×¤×Ĳ×¨": 6945,
      "rn": 6946,
      "ĠsÃº": 6947,
      "Ä±w": 6948,
      "ĠLib": 6949,
      "ĠØ¨ÛĲ": 6950,
      "áĥĲáĥ¥": 6951,
      "Ġ1997": 6952,
      "ÛĨØ±": 6953,
      "Ø§Úµ": 6954,
      "Ġ×¢×ľ": 6955,
      "rom": 6956,
      "Ø§Ø±Øª": 6957,
      "áĥĶáĥĵ": 6958,
      "ĠØ¦ÛĮ": 6959,
      "Ġinte": 6960,
      "ÑĪÐµ": 6961,
      "ÑĭÐ»Ñĭ": 6962,
      "åĬĽ": 6963,
      "ĠdÃ¶": 6964,
      "Ġkop": 6965,
      "elli": 6966,
      "à¤°à¤¹": 6967,
      "Ġunu": 6968,
      "aght": 6969,
      "arch": 6970,
      "Ġbha": 6971,
      "Ġà¦ĸ": 6972,
      "Ġ36": 6973,
      "99": 6974,
      "ĠtÄĵ": 6975,
      "ithe": 6976,
      "ĠPi": 6977,
      "á»Ľ": 6978,
      "Ó§Ð¼": 6979,
      "ÑļÐµ": 6980,
      "ĠÐ°Ð¿": 6981,
      "olah": 6982,
      "à½Ĥà½Ħ": 6983,
      "ĠÑģÐ°Ð¼": 6984,
      "ĠVi": 6985,
      "Ġapr": 6986,
      "áİ¾áı": 6987,
      "ÑģÑĭ": 6988,
      "gy": 6989,
      "à§Ń": 6990,
      "encia": 6991,
      "Ġdef": 6992,
      "ÑıÐ¹": 6993,
      "rea": 6994,
      "à¤¸à¤¨": 6995,
      "Ġalg": 6996,
      "Ġà¤Ńà¤¨": 6997,
      "ĠÐ³Ð¾Ð´Ð¸Ð½Ð°": 6998,
      "Ġdor": 6999,
      "abo": 7000,
      "ĠÙħÛĩ": 7001,
      "Ġub": 7002,
      "ĠÅĽ": 7003,
      "com": 7004,
      "áĥŀ": 7005,
      "iau": 7006,
      "ĠVir": 7007,
      "Ð¸Ð»Ð°": 7008,
      "Ġterrit": 7009,
      "áĢĤ": 7010,
      "ĠØ°": 7011,
      "ĠGro": 7012,
      "ĠÎ£": 7013,
      "Ġgrand": 7014,
      "à¸ĺ": 7015,
      "adem": 7016,
      "ĠAir": 7017,
      "ÑĥÐ»Ð°": 7018,
      "Ġwatakuna": 7019,
      "88": 7020,
      "áĥĺáĥĲáĥľ": 7021,
      "Ã¥n": 7022,
      "£¼": 7023,
      "Ĳĺ": 7024,
      "ÑĤÓ¥": 7025,
      "ated": 7026,
      "à½ĸà½ı": 7027,
      "ĠCl": 7028,
      "oks": 7029,
      "Ð¶Ðµ": 7030,
      "owe": 7031,
      "Æ°á»£": 7032,
      "Ġjach": 7033,
      "ĠFri": 7034,
      "Ġàª¹àª¤": 7035,
      "°áİµ": 7036,
      "Ġsie": 7037,
      "àºĸ": 7038,
      "Ġges": 7039,
      "Ð¸ÑĤÑĮ": 7040,
      "ìĭľ": 7041,
      "ç±": 7042,
      "owy": 7043,
      "dy": 7044,
      "lj": 7045,
      "áŀ¡": 7046,
      "Ãªng": 7047,
      "ally": 7048,
      "ĠÅĦ": 7049,
      "Ð°Ð½Ð´Ñĭ": 7050,
      "ÐµÐ¼Ð°": 7051,
      "ÄŃng": 7052,
      "Þĸ": 7053,
      "áĢŁ": 7054,
      "àº¶": 7055,
      "ĠÐ±Ñĭ": 7056,
      "Ð¾ÑĨ": 7057,
      "Ġtsh": 7058,
      "emes": 7059,
      "Ġanc": 7060,
      "Ã¢ng": 7061,
      "å·¥": 7062,
      "Ġband": 7063,
      "Ġey": 7064,
      "ĠØ¨ÙīÙĦ": 7065,
      "ãĥĪ": 7066,
      "ĠØ¤": 7067,
      "Ġpasa": 7068,
      "ĠoÊ»": 7069,
      "ĠSer": 7070,
      "ĠEx": 7071,
      "Ú¯ÛĮ": 7072,
      "Ġ1995": 7073,
      "à½Ĥà½ŀà½ĵ": 7074,
      "Ġdins": 7075,
      "inte": 7076,
      "Ġbid": 7077,
      "ÐºÐ¾Ð½": 7078,
      "ektr": 7079,
      "Ġà°ļ": 7080,
      "bay": 7081,
      "Ġmw": 7082,
      "Ð´Ð°ÑĢ": 7083,
      "ĠvÃ¤": 7084,
      "ĠÐ±Ð¸": 7085,
      "ĠØ¨Ø§Ø±": 7086,
      "Ã³g": 7087,
      "Ã§Ã£o": 7088,
      "ÐĽ": 7089,
      "iten": 7090,
      "ĠfÃ¼r": 7091,
      "ĠmÄĽ": 7092,
      "Ġkant": 7093,
      "Ġcentr": 7094,
      "Ġáĥķ": 7095,
      "à¤ªà¤¤": 7096,
      "æľŁ": 7097,
      "à½§": 7098,
      "Ġaug": 7099,
      "Ġrap": 7100,
      "áıĮ": 7101,
      "ÑıÐ²": 7102,
      "Ð°ÑĤÑĭ": 7103,
      "×Ļ×Ļ×ł": 7104,
      "çĦ¡": 7105,
      "dom": 7106,
      "Ġisang": 7107,
      "Ð¥": 7108,
      "Ð°Ð»ÑĭÐº": 7109,
      "ĠGra": 7110,
      "Ð½Ð¾Ð¼": 7111,
      "Ġgew": 7112,
      "nej": 7113,
      "Ã½ar": 7114,
      "áº§": 7115,
      "Ġà²®à²²": 7116,
      "è¡¨": 7117,
      "joni": 7118,
      "Ŀi": 7119,
      "adÄ±": 7120,
      "Ø¯Ùħ": 7121,
      "ĠÙħØ§ÙĨ": 7122,
      "obo": 7123,
      "Ġvoor": 7124,
      "Æ¡": 7125,
      "arte": 7126,
      "Ø³Ø§": 7127,
      "ĠDav": 7128,
      "áĪ³": 7129,
      "Ġresp": 7130,
      "ĠÐ¹ÑĭÐ»ÒĵÐ°": 7131,
      "Õ¬": 7132,
      "Ð°Ð»Ð°Ð¹": 7133,
      "áĥĺáĥĲ": 7134,
      "ĠáĢĨ": 7135,
      "Ġkoji": 7136,
      "Ġmur": 7137,
      "Ġbay": 7138,
      "Ġanti": 7139,
      "ĠÕ½": 7140,
      "ĠØ¬Ø§ÙĨ": 7141,
      "Ð²ÑĢÐ¾Ð¿": 7142,
      "lab": 7143,
      "à´¥": 7144,
      "entu": 7145,
      "áŀŁáŀĺ": 7146,
      "ĠÊ»oku": 7147,
      "atura": 7148,
      "Ġginh": 7149,
      "ĠiÅŁ": 7150,
      "ĠØ§ÙĪÙĨ": 7151,
      "bas": 7152,
      "à³įâĢį": 7153,
      "ĠKi": 7154,
      "Ġà¥§": 7155,
      "ĠÑĪÑĤÐ¾": 7156,
      "ÑĥÐ³Ð°": 7157,
      "è¬": 7158,
      "inne": 7159,
      "Ġsang": 7160,
      "ebru": 7161,
      "Ð°Ð·Ð°": 7162,
      "Î·Î½": 7163,
      "onna": 7164,
      "Ġfur": 7165,
      "inge": 7166,
      "Ð°ÐºÑģ": 7167,
      "à½ħà½ĳ": 7168,
      "edik": 7169,
      "Ġarm": 7170,
      "×¢×Ŀ": 7171,
      "Ġmais": 7172,
      "lt": 7173,
      "ÙĨØª": 7174,
      "Ġxo": 7175,
      "àº»à»ī": 7176,
      "leg": 7177,
      "¸Û": 7178,
      "Ġauf": 7179,
      "ĠDu": 7180,
      "Ġà¤ħà¤¤": 7181,
      "à½Ĳà½ĺà½¦": 7182,
      "áĢ¯áĢ¶áĢ¸": 7183,
      "76": 7184,
      "ë³": 7185,
      "Ġsid": 7186,
      "à¸į": 7187,
      "itate": 7188,
      "Ġfol": 7189,
      "Ġzum": 7190,
      "ĠÐ¿Ð°ÑĢ": 7191,
      "ĠÙĨØ¸": 7192,
      "Ø²Ùĩ": 7193,
      "Î»Î»": 7194,
      "Ġtw": 7195,
      "Ġbana": 7196,
      "à´´": 7197,
      "Ġnaz": 7198,
      "Ð¸Ð½ÑĮ": 7199,
      "Ġdai": 7200,
      "áĮł": 7201,
      "Õ¢": 7202,
      "æº": 7203,
      "ëŀ": 7204,
      "à¬ĸ": 7205,
      "Ã²n": 7206,
      "Ø¬Ø§": 7207,
      "àºģàº²àºĻàº": 7208,
      "ÙĶ": 7209,
      "ëį": 7210,
      "arg": 7211,
      "irm": 7212,
      "ĠÕ¤": 7213,
      "iben": 7214,
      "ÄĥÑĢ": 7215,
      "Ġnahil": 7216,
      "ĠMos": 7217,
      "à©ľ": 7218,
      "ube": 7219,
      "Ġkao": 7220,
      "alakip": 7221,
      "Ûį": 7222,
      "aris": 7223,
      "Ġlog": 7224,
      "ĠvÃµ": 7225,
      "Ġà¨Ń": 7226,
      "à¤¸à¤°": 7227,
      "ece": 7228,
      "ĠÎľ": 7229,
      "Ġà°²": 7230,
      "ÑĥÐ½Ð°": 7231,
      "Ġà´İà´¨": 7232,
      "Ġà¬¯": 7233,
      "ischen": 7234,
      "Ġafo": 7235,
      "Åıng": 7236,
      "çĦ¶": 7237,
      "ÑĥÐ½Ð´": 7238,
      "áĢ¼áĢ±áĢ¬": 7239,
      "ï¯©": 7240,
      "Õ£": 7241,
      "Ġlis": 7242,
      "ĠVa": 7243,
      "áĥĶáĥļáĥĺ": 7244,
      "Ùł": 7245,
      "oso": 7246,
      "ĠØ³Ø¨": 7247,
      "Ġìĺ": 7248,
      "55": 7249,
      "Ġkons": 7250,
      "Ġfyr": 7251,
      "ĠPat": 7252,
      "Ġdj": 7253,
      "enza": 7254,
      "Ġkuma": 7255,
      "ingi": 7256,
      "æĭī": 7257,
      "Ġnahilalakip": 7258,
      "Ġtet": 7259,
      "Ġà¬¶": 7260,
      "Ò¯ÑĤ": 7261,
      "Ġngon": 7262,
      "à¤¡à¤²": 7263,
      "Ġà½ģ": 7264,
      "Ø¯Ø§ÙĨ": 7265,
      "Ã©u": 7266,
      "à½ĺà½Ľà½ĳ": 7267,
      "Ġ+": 7268,
      "à°¥": 7269,
      "ĠÙĦÙĦ": 7270,
      "à´ķà´³": 7271,
      "Ġitu": 7272,
      "Ø§Ø¯Ùĩ": 7273,
      "æĿ¥": 7274,
      "Ð²Ð°Ð»": 7275,
      "Ð¾Ð²Ð¸": 7276,
      "Ġê³": 7277,
      "éģİ": 7278,
      "Ġnui": 7279,
      "Ġbiy": 7280,
      "ãĥª": 7281,
      "æ±Ł": 7282,
      "ĠwÄģhi": 7283,
      "kol": 7284,
      "ĠmÃ¼": 7285,
      "ited": 7286,
      "Õ¡Õ£": 7287,
      "Ġáŀĺ": 7288,
      "erne": 7289,
      "Ġmir": 7290,
      "itl": 7291,
      "à¬Ĩ": 7292,
      "Ã©p": 7293,
      "ĠJu": 7294,
      "Ġeru": 7295,
      "Ġ1962": 7296,
      "èĭ±": 7297,
      "á¸į": 7298,
      "à¤¤à¤ķ": 7299,
      "Õ«Öģ": 7300,
      "ÑįÑħÑĬ": 7301,
      "ìŀĲ": 7302,
      "ëĤĺ": 7303,
      "rÃ¡": 7304,
      "Ġbie": 7305,
      "æŃ£": 7306,
      "ĠÔ±": 7307,
      ")ØĮ": 7308,
      "het": 7309,
      "ÑĢÑĭ": 7310,
      "onde": 7311,
      "Ġhy": 7312,
      "àºĻàºĹ": 7313,
      "ĠÐ¹Ð¸Ñģ": 7314,
      "wal": 7315,
      "à´¬": 7316,
      "chn": 7317,
      "Ġmunicip": 7318,
      "ÑĤÐ¸Ð½ÐµÐ½ÑĤ": 7319,
      "arin": 7320,
      "ikin": 7321,
      "agan": 7322,
      "Ð¾Ð½Ð°": 7323,
      "ester": 7324,
      "áī±": 7325,
      "Ġasteroid": 7326,
      "96": 7327,
      "vol": 7328,
      "eles": 7329,
      "ÑħÑĥÐ·": 7330,
      "à¤µà¤¯": 7331,
      "ĠÐ¼ÓĻ": 7332,
      "Ġà¤¸à¤ķ": 7333,
      "ÙĤÙĦ": 7334,
      "ÛİÚ©": 7335,
      "onne": 7336,
      "ĠÚı": 7337,
      "tek": 7338,
      "ĠÙħØ¦ÙĨ": 7339,
      "ÐµÐ½Ð¸Ñı": 7340,
      "Õ¸ÖĢÕ": 7341,
      "Ġfoi": 7342,
      "Ġkit": 7343,
      "ĠhÃ¤": 7344,
      "ĠØ§Ù¾": 7345,
      "Äģm": 7346,
      "Ġalbum": 7347,
      "åįĢ": 7348,
      "bb": 7349,
      "Ġvit": 7350,
      "ÑįÐ¿": 7351,
      "ĠØ¨ÛĨ": 7352,
      "ĠØªØ¹": 7353,
      "anye": 7354,
      "Ġà¸ŀ": 7355,
      "àºªàº°": 7356,
      "ĠÐ°Ð³": 7357,
      "ÑĢÐµ": 7358,
      "Ġkem": 7359,
      "Ġbur": 7360,
      "uno": 7361,
      "ĠDist": 7362,
      "ĠKh": 7363,
      "aho": 7364,
      "Ġ500": 7365,
      "Ã¹n": 7366,
      "Ã¹ng": 7367,
      "chen": 7368,
      "ĠÎ·": 7369,
      "ĠØ´Ø±": 7370,
      "ĠÐĿÐ°": 7371,
      "à¦·à¦°à¦¤": 7372,
      "fat": 7373,
      "Ð»ÑĭÐº": 7374,
      "à¨ħ": 7375,
      "Ġfut": 7376,
      "ĠNap": 7377,
      "uks": 7378,
      "bochi": 7379,
      "à¹Ģà¸£": 7380,
      "anna": 7381,
      "áŀº": 7382,
      "onda": 7383,
      "ÛĮÙħ": 7384,
      "ĠTor": 7385,
      "Ã¢r": 7386,
      "ØŃØ¯": 7387,
      "ves": 7388,
      "Ġdob": 7389,
      "onte": 7390,
      "à½¨": 7391,
      "amin": 7392,
      "Ġcontra": 7393,
      "ĠØ§ØªÛĴ": 7394,
      "ĠÐºÐ»Ð¸Ð¼Ð°ÑĤ": 7395,
      "Ġmand": 7396,
      "ÙĪØ´": 7397,
      "ĠÎ¤": 7398,
      "Î¯Î½": 7399,
      "98": 7400,
      "elu": 7401,
      "ÑıÐ´": 7402,
      "rain": 7403,
      "rip": 7404,
      "ĠUk": 7405,
      "áŀļáŀĶáŀŁ": 7406,
      "ient": 7407,
      "Ġpul": 7408,
      "unc": 7409,
      "ĠÑģÐ¾Ð½": 7410,
      "nes": 7411,
      "èĳ": 7412,
      "Ġunivers": 7413,
      "Ġcomun": 7414,
      "Ġsoci": 7415,
      "Ġ×ķ×ķ×Ĳ": 7416,
      "ĠsÃ²": 7417,
      "wai": 7418,
      "Ø§Ø¦ÙĬ": 7419,
      "ĠNgwag": 7420,
      "Ġproc": 7421,
      "Ġkot": 7422,
      "rij": 7423,
      "Ġà¤Ŀ": 7424,
      "Ġfund": 7425,
      "Ġà¦Ľ": 7426,
      "ĠGen": 7427,
      "Ġà¤ħà¤ª": 7428,
      "ĠØ¹ÙĦ": 7429,
      "Ġestas": 7430,
      "ĠÅģ": 7431,
      "ä¾Ĩ": 7432,
      "Ġngwagengk": 7433,
      "è´": 7434,
      "ĠÐ¼Ñĥ": 7435,
      "Ġ×¦×ķ": 7436,
      "Ġprincip": 7437,
      "anc": 7438,
      "anz": 7439,
      "ersch": 7440,
      "ows": 7441,
      "nym": 7442,
      "Ð½Ð³": 7443,
      "ĠKas": 7444,
      "Ã¦s": 7445,
      "èĤ": 7446,
      "Ġ$": 7447,
      "ÑĤÑĭÑĢ": 7448,
      "Ġbut": 7449,
      "Ġáĥª": 7450,
      "ukt": 7451,
      "á»±": 7452,
      "Ġàºģ": 7453,
      "æŀĹ": 7454,
      "à¦īà¦¨": 7455,
      "ĠÐºÑĥÑĢ": 7456,
      "ĠÚ©Ûģ": 7457,
      "ÑģÐºÐ°Ð¹": 7458,
      "ÓĵÐ»": 7459,
      "Ġteng": 7460,
      "Ġvil": 7461,
      "Ãłl": 7462,
      "Ġuska": 7463,
      "ĠpÃ¶s": 7464,
      "à§§": 7465,
      "ØµÙĦ": 7466,
      "lay": 7467,
      "Â¬": 7468,
      "Ġnek": 7469,
      "ĠÐ´ÐµÐ¿": 7470,
      "astilla": 7471,
      "Ġfrug": 7472,
      "Ġ1950": 7473,
      "Ġà§§à§¯à§": 7474,
      "inter": 7475,
      "ÑĤÃ¦": 7476,
      "à¾Ń": 7477,
      "ĠÃŀ": 7478,
      "ÙħÙĬ": 7479,
      "Ð¾Ð½Ð¸": 7480,
      "ĠÃ¤binon": 7481,
      "Ġà¹ģà¸¥à¸°": 7482,
      "Ġfev": 7483,
      "edo": 7484,
      "à³ģ,": 7485,
      "Ê»u": 7486,
      "âĢĿ,": 7487,
      "Ø±ÛĮÚ©": 7488,
      "Ġà°īà°¨": 7489,
      "ĠpÃ¶sod": 7490,
      "yin": 7491,
      "ĠÅ«": 7492,
      "Ġnal": 7493,
      "ĠMel": 7494,
      "agg": 7495,
      "Ð¹Ð»": 7496,
      "ãĤ¯": 7497,
      "Ġuntuk": 7498,
      "å¥½": 7499,
      "ĠÐ¿Ð¾Ð²": 7500,
      "irin": 7501,
      "Ã´t": 7502,
      "Î½ÏĦ": 7503,
      "Ġlomane": 7504,
      "Ġpur": 7505,
      "Ġgur": 7506,
      "egu": 7507,
      "ĠÎļ": 7508,
      "ĠØ§ÙĦÙĨ": 7509,
      "Ġ1989": 7510,
      "åĭķ": 7511,
      "à¾Ļà½²": 7512,
      "ĠbÃ¤ldoti": 7513,
      "Ġlifayelas": 7514,
      "lie": 7515,
      "pet": 7516,
      "ÑĸÑĹ": 7517,
      "ĠEt": 7518,
      "Ġ×Ĳ×ª": 7519,
      "akk": 7520,
      "Ġáİ§": 7521,
      "Ãºs": 7522,
      "ondo": 7523,
      "Ð¾ÐºÑĪ": 7524,
      "Ð°Ð»ÑĬÑĥÐ»": 7525,
      "Ġàªıàªķ": 7526,
      "Ġday": 7527,
      "Ġlit": 7528,
      "ĠCi": 7529,
      "izz": 7530,
      "Ð½Ð¸Ð¹": 7531,
      "Ġriv": 7532,
      "Ġide": 7533,
      "ĠCat": 7534,
      "Ġzen": 7535,
      "à»įà»Ī": 7536,
      "ĠÐ°ÑĪ": 7537,
      "Ð¾Ðµ": 7538,
      "ÙĪØ§ÙĨ": 7539,
      "ĠÑĶ": 7540,
      "ĠCha": 7541,
      "ĠÑģÐ¾Ð»": 7542,
      "á»ĥ": 7543,
      "Ġáĭĵ": 7544,
      "Ġà¦ªà§°": 7545,
      "Ġsubs": 7546,
      "Ġkia": 7547,
      "ĠÙĲ": 7548,
      "Ó§ÑĢ": 7549,
      "ÙĨÚĮ": 7550,
      "Ġray": 7551,
      "à¯Ģ": 7552,
      "ĠHu": 7553,
      "ĠÑİÐ¼": 7554,
      "Ġginhulagway": 7555,
      "Ġwis": 7556,
      "ĠØ§ÛĮÙĦ": 7557,
      "Ġà¨«": 7558,
      "Ġà¤¯à¤¹": 7559,
      "Ġà¤ĩà¤¸": 7560,
      "áĥª": 7561,
      "Ġale": 7562,
      "ilia": 7563,
      "ÐµÑĢÐ¸Ðº": 7564,
      "ãģ£ãģŁ": 7565,
      "ĠÑıÐ½Ð²Ð°ÑĢ": 7566,
      "97": 7567,
      "ils": 7568,
      "Ã¶rd": 7569,
      "aft": 7570,
      "Ġregion": 7571,
      "çł": 7572,
      "à¦ŀ": 7573,
      "Ġkub": 7574,
      "opa": 7575,
      "ÏĮÏĦ": 7576,
      "ÑĤÑĭÐ½": 7577,
      "Ġbaz": 7578,
      "à¤¨à¤®": 7579,
      "ĠÐºÐ°Ðº": 7580,
      "Ġà¦ıà¦¹": 7581,
      "ĠÙħØŃÙħØ¯": 7582,
      "à¸ľ": 7583,
      "ĠÑħÑĮ": 7584,
      "Ã¥r": 7585,
      "ÑĨÐ¸Ñĺ": 7586,
      "à§¯": 7587,
      "ĠÙĩØ±": 7588,
      "éĽ»": 7589,
      "çį": 7590,
      "ining": 7591,
      "apo": 7592,
      "Ð¸ÑĢÐ¸": 7593,
      "Å¯w": 7594,
      "ç³": 7595,
      "Ġtamb": 7596,
      "à¨ĩ": 7597,
      "ĠÑĤÑĥ": 7598,
      "Ã¼ÅŁ": 7599,
      "àª®àª¨": 7600,
      "aqa": 7601,
      "à¥Ń": 7602,
      "ostr": 7603,
      "Ð°Ð´Ð¸": 7604,
      "Ã½Ã¤r": 7605,
      "ãģĹãģŁ": 7606,
      "ĠáĥłáĥĶ": 7607,
      "Ġsik": 7608,
      "iler": 7609,
      "ĠÐļÑĢ": 7610,
      "à²¯à²¨": 7611,
      "ĠØ®Ø§ÙĨ": 7612,
      "nom": 7613,
      "Ġhim": 7614,
      "ĠÐºÑĭÐ»": 7615,
      "Ġmad": 7616,
      "Ġmab": 7617,
      "ĠMet": 7618,
      "ĠngÄģ": 7619,
      "×¤×¨": 7620,
      "dar": 7621,
      "Ġham": 7622,
      "à©Į": 7623,
      "à½£à½ĺ": 7624,
      "lec": 7625,
      "Ġà·ĥà¶¸": 7626,
      "ĠÐ¾ÐºÑĢÑĥÐ³": 7627,
      "ç®": 7628,
      "enk": 7629,
      "áŀĨ": 7630,
      "à¤Łà¤ķ": 7631,
      "Ġà¥¨à¥¦à¥": 7632,
      "ê²Į": 7633,
      "Ħì": 7634,
      "chit": 7635,
      "ĠÎł": 7636,
      "ijo": 7637,
      "ĠáĪµ": 7638,
      "à¾Ķà¼ĭ": 7639,
      "Ø³Ûķ": 7640,
      "Ġàºª": 7641,
      "eae": 7642,
      "æģ": 7643,
      "ĠSant": 7644,
      "andu": 7645,
      "Ġà¤ķà¤¥": 7646,
      "Ġà¤ªà¤¨": 7647,
      "Î±Ïģ": 7648,
      "áĥĿáĥĵ": 7649,
      "à®µà®°": 7650,
      "emat": 7651,
      "Ġanu": 7652,
      "ize": 7653,
      "Ç«": 7654,
      "Ġtom": 7655,
      "Ã©ho": 7656,
      "ĠÑģÐµÐ¼": 7657,
      "Ġuf": 7658,
      "ĠÐ¾Ð·": 7659,
      "áĭĭ": 7660,
      "ÎºÎµ": 7661,
      "ÙĨÙĩÙĨ": 7662,
      "col": 7663,
      "ÕĿ": 7664,
      "Ġida": 7665,
      "ĠÑģÐ¸ÑģÑĤ": 7666,
      "ibi": 7667,
      "ĠÐ·Ð°Ð¼": 7668,
      "äº¤": 7669,
      "Î¹ÎºÎ®": 7670,
      "à¤¤à¤²": 7671,
      "umm": 7672,
      "éĩĳ": 7673,
      "lary": 7674,
      "ĠÐºÐ¾Ð½ÑĤÐ¸Ð½ÐµÐ½ÑĤ": 7675,
      "ĠNgwagak": 7676,
      "ÙīØ±Ùī": 7677,
      "ĠÑĢÐ¾Ðº": 7678,
      "ance": 7679,
      "ĠÙĨØ§ÙĦ": 7680,
      "ĠÐ±Ð¾Ð»Ð³": 7681,
      "æ¼Ķ": 7682,
      "Ġvid": 7683,
      "ander": 7684,
      "ĠÐ¸Ñģ": 7685,
      "à´Ļà´³": 7686,
      "å§ĭ": 7687,
      "asar": 7688,
      "Ġcul": 7689,
      "Ġubochi": 7690,
      "ĠÐ´Ð¾ÑĢ": 7691,
      "à²°à²£": 7692,
      "ĠØªÚ¾": 7693,
      "ĠÑĪÑĥ": 7694,
      "Ġuma": 7695,
      "Õ¥Õ½": 7696,
      "qan": 7697,
      "Ġnar": 7698,
      "iso": 7699,
      "Ä±k": 7700,
      "ĠÙĩØ³ØªÙĩ": 7701,
      "Ġà§«": 7702,
      "ominina": 7703,
      "Ġáİ¨áıĴáİ¢": 7704,
      "nie": 7705,
      "Ġnog": 7706,
      "ÙĪÛķ": 7707,
      "ĠMi": 7708,
      "tah": 7709,
      "ĠâĢĭ": 7710,
      "×ķ×Ļ": 7711,
      "Ġcome": 7712,
      "Ġgodine": 7713,
      "Ġà¦ĩà¦²": 7714,
      "Ġà¶ī": 7715,
      "áĬ«": 7716,
      "Ð¸ÑĢÐ°": 7717,
      "Ġdha": 7718,
      "eny": 7719,
      "Ð´Ð¼": 7720,
      "à½Ĥà½Ļ": 7721,
      "ĠTar": 7722,
      "rac": 7723,
      "ÑĸÐ½Ñĸ": 7724,
      "à¸Ńà¸Ļ": 7725,
      "ĠÃ¾Ç£": 7726,
      "Ġnit": 7727,
      "åĦ": 7728,
      "Ġvia": 7729,
      "ĠBor": 7730,
      "Ġdiff": 7731,
      "igg": 7732,
      "ĠÙĤØ±": 7733,
      "92": 7734,
      "ÑĤÐ°Ð»": 7735,
      "Ð¾ÑģÑĮ": 7736,
      "%)": 7737,
      "78": 7738,
      "ĠÑįÐ½": 7739,
      "Ġthi": 7740,
      "ĠmÃ©": 7741,
      "cher": 7742,
      "ÐºÑĢÐ°": 7743,
      "ÓĻÐº": 7744,
      "åĭĴ": 7745,
      "hÄģ": 7746,
      "nit": 7747,
      "ĠnÃ©": 7748,
      "àªŃ": 7749,
      "ĠfÃ¶r": 7750,
      "ĠÐ´Ðµ": 7751,
      "áĥĶáĥ¢": 7752,
      "åħµ": 7753,
      "Ġ×ĳ×ŀ": 7754,
      "Ġà¤ıà¤µ": 7755,
      "emu": 7756,
      "ĠPet": 7757,
      "abin": 7758,
      "ĠEk": 7759,
      "Ġà¤¤à¤ķ": 7760,
      "Ġili": 7761,
      "ÙĪØ§": 7762,
      "etu": 7763,
      "Ġwhich": 7764,
      "ĠØ§ÛĮØ±": 7765,
      "ĠØ¯ÛĲ": 7766,
      "à½ĺà½Ĥ": 7767,
      "ÐµÐ»Ðµ": 7768,
      "Ã´i": 7769,
      "Ġsá¹³": 7770,
      "Ġpad": 7771,
      "isu": 7772,
      "Ġrek": 7773,
      "áĥĺáĥª": 7774,
      "Ê¼Äħ": 7775,
      "áº¡i": 7776,
      "Ġmoo": 7777,
      "à¸ł": 7778,
      "Ġà¨ļ": 7779,
      "Ø¨ÙĦ": 7780,
      "Ð¾Ð³ÑĢÐ°ÑĦ": 7781,
      "ÐµÑģÑģ": 7782,
      "jadi": 7783,
      "áıŁ": 7784,
      "åİŁ": 7785,
      "à¸ĵ": 7786,
      "ĠÑħÑĬ": 7787,
      "Ã²un": 7788,
      "eph": 7789,
      "ÛİØª": 7790,
      "ser": 7791,
      "vir": 7792,
      "Ġsag": 7793,
      "icas": 7794,
      "oru": 7795,
      "Ġwier": 7796,
      "usk": 7797,
      "à¤ļà¤¨": 7798,
      "à¬¼": 7799,
      "ÐºÑĭ": 7800,
      "ĠSm": 7801,
      "ĠSw": 7802,
      "ĠPan": 7803,
      "ĠÐºÐµÑĢ": 7804,
      "ĠÐ·Ð°Ð¿": 7805,
      "ynyÅĪ": 7806,
      "Ġveur": 7807,
      "ĠÃ¶z": 7808,
      "ĠIndia": 7809,
      "ĠbÃ¤ldot": 7810,
      "alch": 7811,
      "ĠBul": 7812,
      "ĠÑĤÓ©ÑĢ": 7813,
      "ĠÐ¸Ðº": 7814,
      "ä¹Ŀ": 7815,
      "Ø¯ÙīÙĥÙī": 7816,
      "Ġsind": 7817,
      "Ġlin": 7818,
      "Ġbev": 7819,
      "à°¹": 7820,
      "Ġiki": 7821,
      "ĠØ§Ùĩ": 7822,
      "emo": 7823,
      "enter": 7824,
      "Ġà°¬": 7825,
      "Ò¯Ò¯Ð´": 7826,
      "ĠsÄ«": 7827,
      "ĠÑģÐµÑĢ": 7828,
      "àŃĤ": 7829,
      "ovo": 7830,
      "Ġ32": 7831,
      "acion": 7832,
      "Ã°a": 7833,
      "Ġà¶ĩà¶Ń": 7834,
      "hol": 7835,
      "Ġmj": 7836,
      "ĠNu": 7837,
      "sten": 7838,
      "Ġalle": 7839,
      "ÑįÑĢÑį": 7840,
      "áĢ¾áĢ¬": 7841,
      "à½ĸà½ħà½¦": 7842,
      "kn": 7843,
      "à¨¥": 7844,
      "Ø¨Ø§Ø±": 7845,
      "indÉĻ": 7846,
      "à¹ĥà¸«": 7847,
      "khi": 7848,
      "Ð¾Ñİ": 7849,
      "aly": 7850,
      "ĠÐ¼Ð°Ð»": 7851,
      "Ġ×Ĳ×ľ": 7852,
      "ĠëĮĢ": 7853,
      "áŀĦáŀĢ": 7854,
      "Ġshek": 7855,
      "ÑĤÐ°Ð¹": 7856,
      "à´ŀ": 7857,
      "ango": 7858,
      "ÑĨÐµ": 7859,
      "Ġkaominina": 7860,
      "à¸Ħà¸£": 7861,
      "Ġlik": 7862,
      "à´Ń": 7863,
      "elik": 7864,
      "ĠØ§Ø¹": 7865,
      "ĠØ§ÙĦÙĥ": 7866,
      "ÙĪØ±Ø¯": 7867,
      "Ġà¤īà¤¦": 7868,
      "à»ĦàºĶ": 7869,
      "ãģĤãĤĭ": 7870,
      "Ġcho": 7871,
      "ivu": 7872,
      "Ġ38": 7873,
      "ija": 7874,
      "rÃŃ": 7875,
      "unde": 7876,
      "Ġcant": 7877,
      "akat": 7878,
      "áĥĲáĥĸ": 7879,
      "ĠÐ¼ÑĥÐ·": 7880,
      "Ġà´Ĵ": 7881,
      "bil": 7882,
      "æ¢": 7883,
      "Ġls": 7884,
      "iska": 7885,
      "ĠØ§Ø¨": 7886,
      "ĠÐ²ÑĭÐ»": 7887,
      "ÑįÑĢÐ³": 7888,
      "à¸Ńà¸¢": 7889,
      "henua": 7890,
      "à½ĺà½ł": 7891,
      "ÑĭÑĪÑĤÐµ": 7892,
      "ĠÐĵÐµÑĢ": 7893,
      "Ġcit": 7894,
      "Ġhini": 7895,
      "ahr": 7896,
      "Ã§Ã§": 7897,
      "ĠqÃ«": 7898,
      "à«Ģ,": 7899,
      "ĠÎ½Î±": 7900,
      "ìĻĢ": 7901,
      "jat": 7902,
      "nar": 7903,
      "nÄĽ": 7904,
      "etta": 7905,
      "idir": 7906,
      "ÑģÐºÐ°Ñı": 7907,
      "à¸Ńà¸ģ": 7908,
      "Ġbei": 7909,
      "dr": 7910,
      "nog": 7911,
      "wÄģ": 7912,
      "Ġrak": 7913,
      "ĠBan": 7914,
      "ĠTs": 7915,
      "rev": 7916,
      "anii": 7917,
      "ĠÅ¼": 7918,
      "asaun": 7919,
      "Ġbilen": 7920,
      "imin": 7921,
      "ãĤ¢": 7922,
      "Ġà¤Ĩà¤¦": 7923,
      "ĠÐĶÐ¶": 7924,
      "Õ¸ÖĤÕ©ÕµÕ¡Õ¶": 7925,
      "èµ·": 7926,
      "ÑħÑĥÐ·Ð°ÑħÑĮ": 7927,
      "68": 7928,
      "geb": 7929,
      "mann": 7930,
      "ĠMer": 7931,
      "idan": 7932,
      "áĥĺáĥļáĥĺ": 7933,
      "oca": 7934,
      "é£": 7935,
      "Īĺ": 7936,
      "ality": 7937,
      "elk": 7938,
      "Ġrob": 7939,
      "ĠÐ²Ð¸Ð´": 7940,
      "Ġamer": 7941,
      "Äĵng": 7942,
      "Ġadd": 7943,
      "Ġà¦ıà¦¬": 7944,
      "ultura": 7945,
      "é¢": 7946,
      "ØªÙĨ": 7947,
      "ĠÚ©Ø¦": 7948,
      "ĠWilli": 7949,
      "à¶Ńà¶»": 7950,
      "Ø´ØªÙĩ": 7951,
      "ÙĦÙģ": 7952,
      "ĠgÃ¶r": 7953,
      "ĠBak": 7954,
      "ÑģÑĤÐ¸ÑĤ": 7955,
      "apt": 7956,
      "áĥĿáĥķ": 7957,
      "Ġweer": 7958,
      "yÃª": 7959,
      "à¥ĩ,": 7960,
      "riv": 7961,
      "lands": 7962,
      "ï¼īï¼Į": 7963,
      "ĠÐºÐ¾Ð¼Ð¿": 7964,
      "åİ»": 7965,
      "anas": 7966,
      "à»ľ": 7967,
      "ÐµÐ´Ð¸": 7968,
      "nych": 7969,
      "æ¬¡": 7970,
      "èĻŁ": 7971,
      "áĪĨ": 7972,
      "×ķ×Ŀ": 7973,
      "ãĤĪ": 7974,
      "ÓĻÑģ": 7975,
      "Äįk": 7976,
      "à¤¶à¤¨": 7977,
      "ä¼Ĭ": 7978,
      "ç¶ĵ": 7979,
      "Ġput": 7980,
      "ÑĸÐ»": 7981,
      "okan": 7982,
      "ÛĩÙĤ": 7983,
      "Ġoff": 7984,
      "×Ļ×Ļ×Ł": 7985,
      "Ö¸": 7986,
      "ÑģÑĭÐ½": 7987,
      "Ġlist": 7988,
      "Ġinto": 7989,
      "ĠÙ¾Ø§Ø±": 7990,
      "Ġ37": 7991,
      "Ġsyn": 7992,
      "à¤°à¤Ń": 7993,
      "ĠSel": 7994,
      "áĭļ": 7995,
      "Ð¸Ð»Ð»": 7996,
      "Ġont": 7997,
      "Ġref": 7998,
      "ÑĭÐµ": 7999,
      "Ġinn": 8000,
      "Ð¸Ð½Ð¸ÑģÑĤ": 8001,
      "Ó©Ð¼": 8002,
      "ĠboÊ»": 8003,
      "Ġfoar": 8004,
      "åĴĹ": 8005,
      "ĠGerman": 8006,
      "Ġà®İà®©": 8007,
      "''": 8008,
      "nas": 8009,
      "Ġaast": 8010,
      "Ġvy": 8011,
      "ids": 8012,
      "Ġnach": 8013,
      "Ð¾Ð²Ð°Ð½": 8014,
      "à¤Ĺà¤²": 8015,
      "Ġcontr": 8016,
      "à¹Ģà¸Ķ": 8017,
      "ÐµÐ½Ð´ÓĻ": 8018,
      "zz": 8019,
      "ĠÚ©Ùħ": 8020,
      "Ġà¶Ĩ": 8021,
      "ĠOk": 8022,
      "ĠáİłáıĤ": 8023,
      "Ġekonom": 8024,
      "ĠÚ¾Ûķ": 8025,
      "Ġkadagiti": 8026,
      "tat": 8027,
      "ĠBl": 8028,
      "sku": 8029,
      "ipi": 8030,
      "Ġoder": 8031,
      "æ°´": 8032,
      "à¦«": 8033,
      "ades": 8034,
      "ÐµÑĢÐ°Ð½": 8035,
      "ĠÐ´Ð·": 8036,
      "ĠØ¨ÙīÙĦÛķÙĨ": 8037,
      "cul": 8038,
      "Ġbos": 8039,
      "Ġwid": 8040,
      "usta": 8041,
      "Ã©es": 8042,
      "ĠÐ¿Ð°ÑĤ": 8043,
      "Ġà¬ļ": 8044,
      "Ú©ÙĬ": 8045,
      "áĥĶáĥķ": 8046,
      "à¦¨à§°": 8047,
      "ĠParis": 8048,
      "Ġlong": 8049,
      "Ġjndr": 8050,
      "ĠJan": 8051,
      "ĠÑħÐ°ÑĢ": 8052,
      "åħĭ": 8053,
      "ÏĥÎµ": 8054,
      "Ġoper": 8055,
      "æĶ¹": 8056,
      "á»Ļt": 8057,
      "Ġoleh": 8058,
      "nat": 8059,
      "tli": 8060,
      "æ·": 8061,
      "issa": 8062,
      "Ġcchi": 8063,
      "ÑıÐ±ÑĢ": 8064,
      "ĠÛĮÙĩ": 8065,
      "ei": 8066,
      "nje": 8067,
      "à²ĸ": 8068,
      "Ġtou": 8069,
      "à¬Ľ": 8070,
      "à¬ł": 8071,
      "à¤ªà¤®": 8072,
      "Õ¸Õ²": 8073,
      "67": 8074,
      "hat": 8075,
      "ÑģÐ¾Ð½": 8076,
      "Ø±Ùħ": 8077,
      "Ġhand": 8078,
      "à¤¸à¤Ń": 8079,
      "Ġà¶¢": 8080,
      "äº¬": 8081,
      "Ġà¤īà¤¨": 8082,
      "ĠXX": 8083,
      "kil": 8084,
      "pend": 8085,
      "win": 8086,
      "ĠpÃ¤": 8087,
      "iju": 8088,
      "ĠÓ©Ð»": 8089,
      "ë°": 8090,
      "Ġbok": 8091,
      "ÑįÑĪ": 8092,
      "ãģ¾": 8093,
      "Î¹Î¿": 8094,
      "ĠÐ±Ð¾Ð»Ð¾Ð½": 8095,
      "à½ĸà½Ļà½ĵ": 8096,
      "hm": 8097,
      "Ġveg": 8098,
      "Ġren": 8099,
      "angi": 8100,
      "ĠHen": 8101,
      "lac": 8102,
      "ĠÐ³Ð°ÑĢ": 8103,
      "annya": 8104,
      "Ġ1988": 8105,
      "ÑĢÐ¸Ðº": 8106,
      "asu": 8107,
      "ĠÐºÐ°Ð½": 8108,
      "Ġitali": 8109,
      "Ð¡Ð¡Ðł": 8110,
      "ĠComp": 8111,
      "fol": 8112,
      "ÑĬÑıÑģ": 8113,
      "ØĽ": 8114,
      "Ð¼Ð°ÑĤ": 8115,
      "ĠBir": 8116,
      "ĠÚ©Úĵ": 8117,
      "Ġà´ī": 8118,
      "Ġà´ľ": 8119,
      "à¤Ĺà¤¤": 8120,
      "à¨°à¨¤": 8121,
      "æĽ¸": 8122,
      "NE": 8123,
      "lish": 8124,
      "Ġtlh": 8125,
      "à¤¯à¤¯": 8126,
      "ĠNeder": 8127,
      "ae": 8128,
      "íĸ": 8129,
      "à½±": 8130,
      "ĠtÅį": 8131,
      "Ġmam": 8132,
      "ÐµÑĢÐ°": 8133,
      "ĠØªØµ": 8134,
      "ĠìĤ¬": 8135,
      "áĥĶáĥĳáĥĲ": 8136,
      "ĠØ¢ÙĩÙĨ": 8137,
      "é©": 8138,
      "ĠÃľ": 8139,
      "ĠLor": 8140,
      "ebut": 8141,
      "Ġdoor": 8142,
      "ä»»": 8143,
      "à¨¼à¨¾": 8144,
      "ÑĢÐ°Ð´": 8145,
      "aban": 8146,
      "ĠFin": 8147,
      "ĠØ³Ø±Ùĩ": 8148,
      "gb": 8149,
      "Ġnatur": 8150,
      "ÙĨÛĴ": 8151,
      "ĠÙħÙĩ": 8152,
      "Ġuu": 8153,
      "Ã¼s": 8154,
      "ever": 8155,
      "ĠëĤ": 8156,
      "¤áİµ": 8157,
      "ç²": 8158,
      "isan": 8159,
      "ibot": 8160,
      "Ã½m": 8161,
      "Ġits": 8162,
      "Ġ1940": 8163,
      "Ð°Ð½Ð³Ð»": 8164,
      "Ð¾ÑģÐº": 8165,
      "arc": 8166,
      "ety": 8167,
      "ÙĬÙĪÙĨ": 8168,
      "ĠShe": 8169,
      "ØªÙħ": 8170,
      "tif": 8171,
      "à¤¯à¤°": 8172,
      "angg": 8173,
      "Å¾en": 8174,
      "ĠÐ°Ñħ": 8175,
      "ĠÑģÐ°Ð»": 8176,
      "×Ļ×ķ": 8177,
      "Ġtir": 8178,
      "Ġmok": 8179,
      "Ġkos": 8180,
      "ĠÑħÑĥ": 8181,
      "Ġà¤¬à¤¹": 8182,
      "Ġterm": 8183,
      "ĠÓ©Ð·": 8184,
      "ÑįÑħÑįÐ¼": 8185,
      "éĺ¿": 8186,
      "Ġpon": 8187,
      "Ġvez": 8188,
      "áŁı": 8189,
      "ĠØ¨ÙĪØ¯": 8190,
      "Ġuff": 8191,
      "ĠØªØŃ": 8192,
      "ĠÐļÑħÑĥÐ·Ð°ÑħÑĮ": 8193,
      "Ġond": 8194,
      "aju": 8195,
      "mÄ±ÅŁ": 8196,
      "nji": 8197,
      "Ġill": 8198,
      "Ġtl": 8199,
      "ĠÙ¡Ù": 8200,
      "à¤²à¤¬": 8201,
      "Ġleb": 8202,
      "Ġdesc": 8203,
      "ĠÐ±ÑĥÐ¾Ð»": 8204,
      "Ġ×Ĵ×¢×ķ": 8205,
      "Ġbagian": 8206,
      "Ġdens": 8207,
      "Ġà¦¡": 8208,
      "Ú©ÙĦ": 8209,
      "ebr": 8210,
      "Ġnian": 8211,
      "rind": 8212,
      "ĠkÃ¤": 8213,
      "Ġgol": 8214,
      "ĠSol": 8215,
      "ĠKur": 8216,
      "ĠØ¨Ø§Ø²": 8217,
      "uten": 8218,
      "à½ĺà½ĳ": 8219,
      "ĠRos": 8220,
      "Ú©Ø±": 8221,
      "à¤£à¤¨": 8222,
      "åºľ": 8223,
      "Ġdistrito": 8224,
      "Ġgant": 8225,
      "ÙĬØº": 8226,
      "×Ĳ×ŀ": 8227,
      "Ġorig": 8228,
      "Ġ×¢×¨": 8229,
      "è¢": 8230,
      "emen": 8231,
      "à¤²à¤¨": 8232,
      "ĠÄĵ": 8233,
      "alif": 8234,
      "à¶ºà¶±": 8235,
      "Ã±u": 8236,
      "åŁº": 8237,
      "Ġsira": 8238,
      "ÑģÐµÐ½": 8239,
      "Ġvr": 8240,
      "riek": 8241,
      "áŀĺáŀĢ": 8242,
      "Ġà¬ªà¬°": 8243,
      "bor": 8244,
      "Û²": 8245,
      "æŁ": 8246,
      "eshan": 8247,
      "rio": 8248,
      "ibli": 8249,
      "jis": 8250,
      "Ġlabing": 8251,
      "Ġsuyupi": 8252,
      "Ġepi": 8253,
      "ĠSam": 8254,
      "ÙħÛĩ": 8255,
      "raa": 8256,
      "ĠÑħÐ°": 8257,
      "Ø¦ÙĦ": 8258,
      "ĠtakiwÄģ": 8259,
      "åĿ": 8260,
      "Ġshe": 8261,
      "Ġhor": 8262,
      "iks": 8263,
      "idente": 8264,
      "ãģĨ": 8265,
      "Äģk": 8266,
      "áİ¾áİ¢": 8267,
      "è»Ĭ": 8268,
      "kr": 8269,
      "è½": 8270,
      "arb": 8271,
      "àŃ¦": 8272,
      "àºĤàºŃàºĩ": 8273,
      "Ġdak": 8274,
      "ĠDat": 8275,
      "Õ¸Õ¶": 8276,
      "Ø§ÙħÙĦ": 8277,
      "ĠYn": 8278,
      "Ġà¤¯à¤¸": 8279,
      "Ġáİ¢áİ¦": 8280,
      "å¢": 8281,
      "Ð½Ð°ÑĢ": 8282,
      "Ġiku": 8283,
      "ĠÐ´Ð»Ñı": 8284,
      "ĠØ§ÙĦØ¯": 8285,
      "ÑģÐºÐ¾Ð³Ð¾": 8286,
      "Ġà¤Ĩà¤°": 8287,
      "ĠÃ¸": 8288,
      "Ġroman": 8289,
      "ĠchÃ¬": 8290,
      "Ã¦Ð´": 8291,
      "ganiz": 8292,
      "Ð½Ð°ÑĤÐ°": 8293,
      "Ġsil": 8294,
      "Ġsci": 8295,
      "ÑģÑįÐ½": 8296,
      "ĠkÃ²": 8297,
      "alin": 8298,
      "Ġfel": 8299,
      "erste": 8300,
      "ÑĦÑĤ": 8301,
      "Ġave": 8302,
      "ĠpÅĽ": 8303,
      "Ġbest": 8304,
      "Ġbiz": 8305,
      "orge": 8306,
      "ulan": 8307,
      "Ð°ÑĤÐ¾ÑĢ": 8308,
      "ÙĤÙĬ": 8309,
      "Ġpic": 8310,
      "à³ĥ": 8311,
      "à¤°à¤¨": 8312,
      "Äģr": 8313,
      "Ãºng": 8314,
      "åħŃ": 8315,
      "ÑĳÐ½": 8316,
      "ãģĻãĤĭ": 8317,
      "Ã¼d": 8318,
      "áĥĶáĥ¨": 8319,
      "ĠÐ³ÑĢÑĥÐ¿": 8320,
      "ÑģÐºÑĸ": 8321,
      "à¤Łà¤¨": 8322,
      "ĠMaria": 8323,
      "Ġáİ¢áı³": 8324,
      "ëħĦ": 8325,
      "ÃŃgÃŃÃŃ": 8326,
      "oa": 8327,
      "pol": 8328,
      "uel": 8329,
      "ÛķÙ¾": 8330,
      "ÙĤØ§ÙĨ": 8331,
      "Ġish": 8332,
      "Ġabit": 8333,
      "à³į,": 8334,
      "rov": 8335,
      "ĠÄĲ": 8336,
      "ÑįÑĢÑįÐ³": 8337,
      "Ġparl": 8338,
      "á¹Ń": 8339,
      "Ġà²ªà²°": 8340,
      "Ġ150": 8341,
      "æĦı": 8342,
      "ĠáŀĤ": 8343,
      "ĠpÃª": 8344,
      "Ġmos": 8345,
      "ĠÙħØ®": 8346,
      "ãĥĥ": 8347,
      "åıĪ": 8348,
      "àºŃàºģ": 8349,
      "Ġkomun": 8350,
      "Ġêµ": 8351,
      "Î¼Î±": 8352,
      "×Ļ×Ļ×Ŀ": 8353,
      "á¸¥": 8354,
      "æħ": 8355,
      "Ġdipl": 8356,
      "abu": 8357,
      "ĠGreg": 8358,
      "apit": 8359,
      "Ġà¤¶à¤¹à¤°": 8360,
      "Ġtemper": 8361,
      "ĠEuropa": 8362,
      "åł´": 8363,
      "isen": 8364,
      "asion": 8365,
      "ÙĪØ§ÙĦ": 8366,
      "Ð°Ð»Ð»": 8367,
      "áĪ©": 8368,
      "ĠÑĩÐ°ÑģÑĤ": 8369,
      "inden": 8370,
      "ĠÑıÐ·": 8371,
      "Ġvaan": 8372,
      "66": 8373,
      "ĠCer": 8374,
      "ÙĤÛĮ": 8375,
      "ĠØ¦Ø§ÙĦ": 8376,
      "Ġà¨¹à¨¨": 8377,
      "Æ°á»£c": 8378,
      "cta": 8379,
      "dal": 8380,
      "Ġáĥļ": 8381,
      "ĠÐ¼ÐµÑĤ": 8382,
      "ĠÙ¾ÙĪ": 8383,
      "áıįáıĻáıĹ": 8384,
      "eau": 8385,
      "å¿ĥ": 8386,
      "89": 8387,
      "xo": 8388,
      "rot": 8389,
      "áĥĲáĥĴ": 8390,
      "ĠÊ»e": 8391,
      "à¸Ķà¸¢": 8392,
      "In": 8393,
      "ĠMah": 8394,
      "Ġà¤ķà¤®": 8395,
      "×Ļ×Ł": 8396,
      "ÛĮÙĨÚ¯": 8397,
      "ichte": 8398,
      "ĠÏĥÏħ": 8399,
      "à¾Ķà½¼": 8400,
      "Ġtum": 8401,
      "Ġpir": 8402,
      "Ġnim": 8403,
      "ĠØ§Ùģ": 8404,
      "Ð°Ð½Ð´Ð°": 8405,
      "ĠÑĤÒ¯ÑĢ": 8406,
      "ĠÐ´Ñĭ": 8407,
      "Ø²Ø§Ø±": 8408,
      "ÛĮÙĨÙĩ": 8409,
      "Ø§ØªÛĮ": 8410,
      "Ġsubspecies": 8411,
      "alÃŃ": 8412,
      "Ð´ÐµÑĢ": 8413,
      "Ġyon": 8414,
      "ĠØ¯Ø§Ø±": 8415,
      "áĥĺáĥłáĥ": 8416,
      "ĠÑĪÐ¸Ð¹Ð»Ð°": 8417,
      "ĠÃ±iq": 8418,
      "Ġcz": 8419,
      "Ġà¤¸à¤¹": 8420,
      "ÙĪØ±Øª": 8421,
      "à½ĸà½Łà½Ħ": 8422,
      "Ø§Ú¯": 8423,
      "Ġway": 8424,
      "otu": 8425,
      "eck": 8426,
      "Ġ44": 8427,
      "Ġpalibot": 8428,
      "ĠAri": 8429,
      "Ġà°ĩ": 8430,
      "ĠÙĨÛģ": 8431,
      "Ġnoho": 8432,
      "ziun": 8433,
      "áįĪ": 8434,
      "ĠWaray": 8435,
      "ĠmÃ«": 8436,
      "Ġnos": 8437,
      "atz": 8438,
      "Ġrest": 8439,
      "à¶³": 8440,
      "Ã¡ra": 8441,
      "áĪ¥": 8442,
      "Ã¢m": 8443,
      "Ġdella": 8444,
      "Ġqa": 8445,
      "Ò³Ð¸": 8446,
      "ĠPaul": 8447,
      "à³Ĩ,": 8448,
      "ä¹ĥ": 8449,
      "ĠÐ°ÑĮÑħ": 8450,
      "Ġ1975": 8451,
      "kur": 8452,
      "ç¯": 8453,
      "Ġrin": 8454,
      "ĠÐ¿Ð°Ð´": 8455,
      "ĠÙĬÙĪ": 8456,
      "ÄĽt": 8457,
      "ä½Ĩ": 8458,
      "à½ĺà½ļà½ĵ": 8459,
      "ï¼ļãĢĮ": 8460,
      "aut": 8461,
      "Ġdoc": 8462,
      "Ġkup": 8463,
      "Ġfre": 8464,
      "Ġìľ": 8465,
      "à¾Ĵà¾±à½´à¼ĭ": 8466,
      "ved": 8467,
      "Ġiri": 8468,
      "áĥ¦": 8469,
      "à¸ĭ": 8470,
      "Ġolar": 8471,
      "Ġocc": 8472,
      "omet": 8473,
      "ĠÐºÐ¸ÑĢ": 8474,
      "áĥĲáĥĻ": 8475,
      "Ġseu": 8476,
      "Ġáĭ«": 8477,
      "à¦ľà¦¨": 8478,
      "part": 8479,
      "omat": 8480,
      "uko": 8481,
      "à¦ĩà¦²": 8482,
      "ÐºÑĬÐ°": 8483,
      "ĠSon": 8484,
      "osto": 8485,
      "ÙīØªÙī": 8486,
      "ĠDur": 8487,
      "ĠØ´ÙĬ": 8488,
      "Ġ1930": 8489,
      "Ġáģģáģ": 8490,
      "osp": 8491,
      "ĠÐ½Ð°Ð·": 8492,
      "à¬ķà¬°": 8493,
      "Ġ1986": 8494,
      "ĠÐŀÐ»": 8495,
      "Ä±rÄ±m": 8496,
      "ĠØ§ÛĮÚ©": 8497,
      "æĢ§": 8498,
      "pon": 8499,
      "Ġtas": 8500,
      "Ġotr": 8501,
      "Ø³ÙĨ": 8502,
      "à²¤à²°": 8503,
      "ther": 8504,
      "áĥĶáĥĳáĥĺ": 8505,
      "æ¸¯": 8506,
      "Ġnakalista": 8507,
      "ĠÖ": 8508,
      "à½Ĥà½Ł": 8509,
      "opo": 8510,
      "Ġwurde": 8511,
      "anne": 8512,
      "elf": 8513,
      "able": 8514,
      "áĢ±áĢ·": 8515,
      "Ġcomm": 8516,
      "uhan": 8517,
      "ãģĹãģ¦": 8518,
      "Ð»ÐµÐº": 8519,
      "omm": 8520,
      "áŀļáŀĳ": 8521,
      "åħ«": 8522,
      "å¡": 8523,
      "Ġtap": 8524,
      "ison": 8525,
      "orf": 8526,
      "Ġyr": 8527,
      "ĠDet": 8528,
      "Ġàª¥": 8529,
      "ĠÐ¿Ð¾ÑĤ": 8530,
      "Ø§Ø¶": 8531,
      "ĠÑıÐ½Ð²Ð°ÑĢÑĮ": 8532,
      "ÛķÙĥ": 8533,
      "ĠRoma": 8534,
      "Ġhave": 8535,
      "ìĺĢ": 8536,
      "64": 8537,
      "ĠSta": 8538,
      "ĠGl": 8539,
      "ĠGal": 8540,
      "odu": 8541,
      "ÛĮÙĨØ¯Ùĩ": 8542,
      "Ġà¤¤à¤°": 8543,
      "Î»Î·": 8544,
      "Ġkatika": 8545,
      "ĠUniversity": 8546,
      "Ø§Ú¾": 8547,
      "amas": 8548,
      "Ġgeme": 8549,
      "ĠÐ´ÐµÐº": 8550,
      "ĠFer": 8551,
      "udad": 8552,
      "ĠÞį": 8553,
      "ÄĥÑħ": 8554,
      "ĠáĥĲáĥłáĥ": 8555,
      "2010": 8556,
      "ĠÐ¸ÑİÐ»ÑĮ": 8557,
      "ĠcchiÃ¹": 8558,
      "itr": 8559,
      "Ø³Ø±": 8560,
      "ÑħÑį": 8561,
      "çķĮ": 8562,
      "Ġrahaa": 8563,
      "ĠÚħØ®Ùĩ": 8564,
      "ulle": 8565,
      "Ã«m": 8566,
      "åı£": 8567,
      "Ġ1982": 8568,
      "ÓĵÑĪ": 8569,
      "å¦Ĥ": 8570,
      "ĠdÃ³Ã³": 8571,
      "Ġnorm": 8572,
      "ĠlÃ¶": 8573,
      "à½Ĥà½¡": 8574,
      "ÑħÑĬ": 8575,
      "heid": 8576,
      "ĠØ³ÙĨØ¯": 8577,
      "ĠØ§ÙĦØ´": 8578,
      "bach": 8579,
      "ĠÐĳÐµÐ»": 8580,
      "Ø£ÙĨ": 8581,
      "ĠÐĵÑĮ": 8582,
      "ĠØ¨Ø¯": 8583,
      "ÑĸÑģÑĤ": 8584,
      "à²¿,": 8585,
      "ĠØ³ÙĦ": 8586,
      "Ð¾Ð²Ð¸Ñĩ": 8587,
      "×ĺ×¢×¨": 8588,
      "kii": 8589,
      "ojn": 8590,
      "ÙĨØ¯ÙĪ": 8591,
      "á»Ľi": 8592,
      "ĠÃ±iqin": 8593,
      "Ġtat": 8594,
      "Ġáİ¡": 8595,
      "Ġtaun": 8596,
      "Ó¹Ð¼": 8597,
      "ologi": 8598,
      "jÃŃ": 8599,
      "ÐŃ": 8600,
      "arak": 8601,
      "ĠpÃ¤Ã¤": 8602,
      "ĠEg": 8603,
      "Ġà´°": 8604,
      "ĠÕ¾": 8605,
      "Ġdisc": 8606,
      "ĠÎµÏĢ": 8607,
      "Ġáŀĳ": 8608,
      "ĠmÃ¤": 8609,
      "ilu": 8610,
      "ĠØªÙħ": 8611,
      "Ø¬ÙĪØ¯": 8612,
      "Ġakka": 8613,
      "Å¯n": 8614,
      "Ð°ÑģÑĤÐ¾ÑĢ": 8615,
      "Õ¶Õ¥ÖĢÕ«": 8616,
      "ìĤ¬": 8617,
      "ĠÑģÑĭÐ»": 8618,
      "Ø¨Ø§ÙĨ": 8619,
      "ĠRoman": 8620,
      "annan": 8621,
      "tal": 8622,
      "Ġ<": 8623,
      "ÑĩÐ¸Ð½": 8624,
      "ack": 8625,
      "ĠØ´ÙĪ": 8626,
      "áĮ£": 8627,
      "ĠÏĦÎ¿Î½": 8628,
      "Ġook": 8629,
      "Ð³Ñĥ": 8630,
      "Ġà¤¸à¤¬": 8631,
      "Ãły": 8632,
      "ibe": 8633,
      "ÑİÑĤ": 8634,
      "ĠØ¹ÙĨ": 8635,
      "Ġabbaa": 8636,
      "ÄŁÄ±": 8637,
      "Ġ1920": 8638,
      "Ġtá»": 8639,
      "itsch": 8640,
      "ĠSav": 8641,
      "ĠDon": 8642,
      "otl": 8643,
      "Ġuit": 8644,
      "ĠØ³ÙĨÚĮ": 8645,
      "ĠÐŁÐµÑĢ": 8646,
      "ĠÐ°ÑģÑĤ": 8647,
      "ĠÃ¶n": 8648,
      "91": 8649,
      "ë¬": 8650,
      "Ġati": 8651,
      "Ġpeng": 8652,
      "Ġgir": 8653,
      "Ġged": 8654,
      "ĠCast": 8655,
      "åĳ½": 8656,
      "é¤": 8657,
      "Ġkada": 8658,
      "ĠcÃ¢": 8659,
      "jev": 8660,
      "à¸²à¸§": 8661,
      "à²¯à²²": 8662,
      "Ø§ÙħÛĮ": 8663,
      "ambo": 8664,
      "×©×ł": 8665,
      "ëĮĢ": 8666,
      "Ġpublic": 8667,
      "à¨Ń": 8668,
      "Ġdepi": 8669,
      "ĠApr": 8670,
      "ului": 8671,
      "uter": 8672,
      "áŀļáŀĢ": 8673,
      "ĠRad": 8674,
      "Ġsac": 8675,
      "Ê»e": 8676,
      "Ð¾Ð³Ð°": 8677,
      "ĠáĪ²": 8678,
      "Ġà¸ģ": 8679,
      "ÙĦÙĥ": 8680,
      "ÑħÐ¾Ð»": 8681,
      "ĠÐ¿Ð°": 8682,
      "ĠÐ¾ÑĪ": 8683,
      "ĠWil": 8684,
      "Ġà¤ĩà¤¨": 8685,
      "ĠÄĳÆ°á»£c": 8686,
      "ense": 8687,
      "à¤¤à¤¨": 8688,
      "Ġtras": 8689,
      "Ð½Ð¸Ñħ": 8690,
      "æ¥Ń": 8691,
      "ë¶Ģ": 8692,
      "Ġmara": 8693,
      "Ġoba": 8694,
      "Ġviv": 8695,
      "Ã¤k": 8696,
      "ĠÎķ": 8697,
      "Ġels": 8698,
      "ÙģÙĬ": 8699,
      "Ð¸Ð¼Ð¸": 8700,
      "àº°àºĻ": 8701,
      "ÑĭÑĪÑĤÑĭ": 8702,
      "Ġfevr": 8703,
      "Ġpet": 8704,
      "ĠÑĤÐ¾ÑĢ": 8705,
      "Ġà¤ķà¤²": 8706,
      "Äģt": 8707,
      "à²Ĺà²³à²¨": 8708,
      "Ġoh": 8709,
      "ÑģÑĤÐ²Ð°": 8710,
      "Ġprobl": 8711,
      "à½ģà½Ħ": 8712,
      "ĠÐ³Ð¾Ð´Ð°": 8713,
      "56": 8714,
      "Ġliv": 8715,
      "ÐºÐ°Ð·": 8716,
      "ĠØ¬ÛĮ": 8717,
      "áŀļáŀĦ": 8718,
      "Ġjeung": 8719,
      "à¸£à¸¡": 8720,
      "åĪ¶": 8721,
      "Ġplus": 8722,
      "ĠIndones": 8723,
      "mak": 8724,
      "ĠÏĩ": 8725,
      "inis": 8726,
      "ĠØ³ÙĬ": 8727,
      "ĠØ¦ÙĪ": 8728,
      "ower": 8729,
      "áģı": 8730,
      "×Ĵ×¢": 8731,
      "à¾¡à½ºà¼ĭ": 8732,
      "Ð²Ðµ": 8733,
      "Ġyan": 8734,
      "ĠÐ±ÑĥÑĤÑĤ": 8735,
      "Ġuga": 8736,
      "Ã¨m": 8737,
      "isten": 8738,
      "Ã¦ÑģÑĤ": 8739,
      "ĠInter": 8740,
      "ÏīÏĤ": 8741,
      "ĠÐ´Ð¶ÑĭÐ»": 8742,
      "Ġsiy": 8743,
      "Ġkv": 8744,
      "Ġlah": 8745,
      "Ġhay": 8746,
      "à¤¿à¥¤": 8747,
      "ĠÐ¼ÐµÐ´": 8748,
      "ĠØ´Ùĩ": 8749,
      "Ġ×Ĳ×¨": 8750,
      "ĠØ²Ùħ": 8751,
      "Ġproduc": 8752,
      "ĠÓĢÐ°": 8753,
      "ĠdÃ¤": 8754,
      "ĠtÃ¤": 8755,
      "ĠRi": 8756,
      "Ã§ion": 8757,
      "Ġsucc": 8758,
      "ÙĨØ¯ÛĮ": 8759,
      "åĮº": 8760,
      "74": 8761,
      "ĠBos": 8762,
      "Ġà¨ĸ": 8763,
      "eku": 8764,
      "Ġà¬ī": 8765,
      "ĠÐ½Ð°Ñģ": 8766,
      "ÅŁa": 8767,
      "ebe": 8768,
      "maa": 8769,
      "à¦¸à¦®": 8770,
      "à´¡": 8771,
      "ĠKiben": 8772,
      "ĠØ³Ùħ": 8773,
      "Ġstol": 8774,
      "ĠÄ¯": 8775,
      "ĠÙĦÙĪ": 8776,
      "ĠÐļÐ°ÑĢ": 8777,
      "nder": 8778,
      "Ġile": 8779,
      "Ġfevrye": 8780,
      "èı": 8781,
      "eds": 8782,
      "à±ģ,": 8783,
      "éĢ²": 8784,
      "Ä¼u": 8785,
      "å²": 8786,
      "erin": 8787,
      "à¬ģ": 8788,
      "ĠÐ±ÑĥÐ´": 8789,
      "ÅĤow": 8790,
      "ĠÂ·": 8791,
      "Ð¸Ð·Ð¼": 8792,
      "Ġ1979": 8793,
      "æķ¸": 8794,
      "Ġnw": 8795,
      "alam": 8796,
      "Ġzoi": 8797,
      "Ø§ÙĨÙĪ": 8798,
      "Ġà¥«": 8799,
      "Ġsebagai": 8800,
      "iÃ°": 8801,
      "kastilla": 8802,
      "Ġcond": 8803,
      "×ĺ×Ł": 8804,
      "åı²": 8805,
      "éĻ¢": 8806,
      "ĠÙ¿ÙĬ": 8807,
      "lÃ©": 8808,
      "Ġdaga": 8809,
      "Ġold": 8810,
      "ĠØ§Ø¦": 8811,
      "áŁł": 8812,
      "agon": 8813,
      "Ġfram": 8814,
      "Ġ1987": 8815,
      "ĠÐĺÐ½": 8816,
      "ĠAcÃ¨h": 8817,
      "ĠØ«": 8818,
      "Ġlid": 8819,
      "uso": 8820,
      "row": 8821,
      "Ú©ÙĪ": 8822,
      "Ġà´¬": 8823,
      "ĠtÃ¡": 8824,
      "ĠhÃ¶": 8825,
      "ĠØ§Ø¯": 8826,
      "umo": 8827,
      "icos": 8828,
      "rah": 8829,
      "abb": 8830,
      "ĠOd": 8831,
      "upakan": 8832,
      "lash": 8833,
      "à»ĢàºĹ": 8834,
      "esies": 8835,
      "çı¾": 8836,
      "Ð°ÑĤÐ°ÑĢ": 8837,
      "ĠÐ½ÐµÐ³": 8838,
      "áŁħâĢĭ": 8839,
      "Åºe": 8840,
      "åĵ¡": 8841,
      "yah": 8842,
      "inum": 8843,
      "ÙħØ§Ø±": 8844,
      "ĠÐºÐ½Ð¸": 8845,
      "ĠÑĤÓ¹": 8846,
      "TA": 8847,
      "Ġdhi": 8848,
      "à¼¡à¼": 8849,
      "ĠnÄĥm": 8850,
      "ĠJes": 8851,
      "ĠØ§ÙĦØ±": 8852,
      "áĭ¨": 8853,
      "Ó§ÑĤ": 8854,
      "å·´": 8855,
      "The": 8856,
      "ĠsÃ¬": 8857,
      "alit": 8858,
      "Ġhev": 8859,
      "Ġvegn": 8860,
      "ĠNam": 8861,
      "ĠÙħØ¯": 8862,
      "larda": 8863,
      "àª°àª¤": 8864,
      "Ġpert": 8865,
      "Ġáı¥áıĦáıįáıĹ": 8866,
      "ÚĬ": 8867,
      "ÑģÐ¾": 8868,
      "Ġyar": 8869,
      "ĠTen": 8870,
      "ĠÑģÐ°Ð½": 8871,
      "åı¸": 8872,
      "Ġabo": 8873,
      "Ġmarc": 8874,
      "ĠÐ¹Ð¾Ð²ÑħÐ°": 8875,
      "Ä±sÄ±": 8876,
      "à¥įà¥¤": 8877,
      "unta": 8878,
      "Ġima": 8879,
      "ington": 8880,
      "ĠÐ³Ð¾Ð»": 8881,
      "Ġemp": 8882,
      "ì¡": 8883,
      "Ġdru": 8884,
      "ÑĢÐ°Ð²": 8885,
      "ÑıÐ»ÑĮ": 8886,
      "lein": 8887,
      "ĠFa": 8888,
      "ĠØ³ÛķØ±": 8889,
      "ĠVe": 8890,
      "Ġ1941": 8891,
      "Ġlingua": 8892,
      "100": 8893,
      "58": 8894,
      "Ġhel": 8895,
      "Ð°ÑĢÑĥ": 8896,
      "ĠÐ¾Ð½Ð´": 8897,
      "ynn": 8898,
      "åħĪ": 8899,
      "Ġsistem": 8900,
      "Ġáĭ¨áĪļ": 8901,
      "íĥ": 8902,
      "İáī½": 8903,
      "Ġà¦ĺ": 8904,
      "ĠMen": 8905,
      "ĠÐĲÐ²": 8906,
      "Ġà¤²à¤Ĺ": 8907,
      "Ð½Ð°Ñĩ": 8908,
      "à·Ģà¶Ń": 8909,
      "uvo": 8910,
      "Ġpatedik": 8911,
      "Ġincl": 8912,
      "éŁ³": 8913,
      "jÄħ": 8914,
      "san": 8915,
      "Ð¼ÐµÑĤ": 8916,
      "ÙīÙĨÙī": 8917,
      "ikato": 8918,
      "Ø§ÙĦØª": 8919,
      "ĠUl": 8920,
      "Ø¬ÙĬ": 8921,
      "ĠSanta": 8922,
      "sl": 8923,
      "à¤ĵ": 8924,
      "Ġrem": 8925,
      "Ġà¬²": 8926,
      "Ð°Ð¹Ð´": 8927,
      "à¼įà¼į": 8928,
      "ÙħÛĮØ´": 8929,
      "Ġadministrat": 8930,
      "ĠSup": 8931,
      "ĠÐ¾Ð¿": 8932,
      "×ķ×¦": 8933,
      "undu": 8934,
      "à¬ĩà¬¥": 8935,
      "ãĥ³ãĥ": 8936,
      "54": 8937,
      "62": 8938,
      "ë¦": 8939,
      "ĠÙ¹": 8940,
      "Ġeo": 8941,
      "adar": 8942,
      "åĲĳ": 8943,
      "ĠÐłÑĥÑģ": 8944,
      "ĠÑĸÐ½": 8945,
      "é¦ĸ": 8946,
      "ĠLou": 8947,
      "ĠKir": 8948,
      "skim": 8949,
      "ĠZa": 8950,
      "Ġ1985": 8951,
      "èĬ": 8952,
      "Ġfig": 8953,
      "Ġà®Ĵ": 8954,
      "ÑģÐºÐµ": 8955,
      "ÙĪÙĦÙĪ": 8956,
      "Ġako": 8957,
      "çĿ": 8958,
      "ÑĭÑī": 8959,
      "ĠSud": 8960,
      "ĠÐ½ÑįÐ³": 8961,
      "ĠÐ²Ð°Ð»": 8962,
      "Ġesse": 8963,
      "ï»ª": 8964,
      "ĠáĥłáĥĿáĥĽ": 8965,
      "Ġdivers": 8966,
      "ÑĢÐµÐ´": 8967,
      "Ġala": 8968,
      "Ġciv": 8969,
      "ĠPres": 8970,
      "áĪ®": 8971,
      "ĠØ¢Ø±": 8972,
      "ĠÑįÐ·": 8973,
      "cel": 8974,
      "lari": 8975,
      "ative": 8976,
      "olt": 8977,
      "abil": 8978,
      "rif": 8979,
      "ĠÎŁ": 8980,
      "ĠØ§ÙĦØ¥": 8981,
      "Ġartik": 8982,
      "Ġáİ¾áİ¥": 8983,
      "ĠXIX": 8984,
      "èİ": 8985,
      "ĠÐĨ": 8986,
      "Ġcin": 8987,
      "à²°à²ķ": 8988,
      "ĠÐ·Ð°Ð²": 8989,
      "ĠÑĢÐ°Ñģ": 8990,
      "Ġ2017": 8991,
      "å°Ķ": 8992,
      "æīĭ": 8993,
      "å»£": 8994,
      "ĠÛ²Û°Û": 8995,
      "áº¥t": 8996,
      "Ġpes": 8997,
      "Ð´Ñĸ": 8998,
      "Ã©ta": 8999,
      "ĠBay": 9000,
      "Ø¨Ø§Ø¯": 9001,
      "Ð¿Ð°": 9002,
      "ĠFilipinas": 9003,
      "à¹Ģà¸ģ": 9004,
      "ĠÃ¾e": 9005,
      "à±Ģ.": 9006,
      "yat": 9007,
      "Ġmik": 9008,
      "Ġkre": 9009,
      "Ġbw": 9010,
      "Ġras": 9011,
      "ribu": 9012,
      "Ġà¤¸à¤Ń": 9013,
      "ÐµÐ»Ð¸": 9014,
      "à©ģà©±": 9015,
      "à¥§à¥": 9016,
      "erde": 9017,
      "Ġliter": 9018,
      "Ð°ÑĤÐµÐ»ÑĮ": 9019,
      "Ġ48": 9020,
      "ĠØ¢ÙĦ": 9021,
      "×Ļ×Ļ×ĺ": 9022,
      "å½±": 9023,
      "SA": 9024,
      "æĴ": 9025,
      "Ġwere": 9026,
      "ĠPu": 9027,
      "äº¦": 9028,
      "å®Ĺ": 9029,
      "Äĩa": 9030,
      "ĠÃ±u": 9031,
      "nosti": 9032,
      "loc": 9033,
      "eru": 9034,
      "Ġnia": 9035,
      "etan": 9036,
      "ÙĤÙĩ": 9037,
      "izo": 9038,
      "Ġà¤ħà¤®": 9039,
      "Ð½Ð¾Ðµ": 9040,
      "Ġegy": 9041,
      "',": 9042,
      "SO": 9043,
      "ty": 9044,
      "Ġmá»Ļt": 9045,
      "eten": 9046,
      "Ġhom": 9047,
      "akh": 9048,
      "ĠGh": 9049,
      "istr": 9050,
      "ĠÙĤÙīÙĦ": 9051,
      "Ġmuz": 9052,
      "Ġatawa": 9053,
      "kon": 9054,
      "erte": 9055,
      "ĠMod": 9056,
      "ÑħÑįÐ¼": 9057,
      "Å¡ÃŃ": 9058,
      "ĠÑĥÐ¶": 9059,
      "94": 9060,
      "zia": 9061,
      "Ġdro": 9062,
      "Ġtran": 9063,
      "Ġdeb": 9064,
      "ĠEsp": 9065,
      "ĠOt": 9066,
      "ãĤ·": 9067,
      "ÛİÙĨ": 9068,
      "Ġ1944": 9069,
      "à¸«à¸Ļ": 9070,
      "å¥³": 9071,
      "ĠìķĦ": 9072,
      "An": 9073,
      "Åĵ": 9074,
      "ìĥ": 9075,
      "à½ĵà½ĺ": 9076,
      "Ø´Ø§ÙĨ": 9077,
      "ĠÑħÐ¾": 9078,
      "Ġà¤ħà¤ªà¤¨": 9079,
      "ĠÐ¡ÑĤ": 9080,
      "Ġëı": 9081,
      "áŀ¸âĢĭ": 9082,
      "ĠÐ¾Ð±Ð»Ð°": 9083,
      "ĠÐķÐ²ÑĢÐ¾Ð¿": 9084,
      "à»ĥàº«": 9085,
      "72": 9086,
      "nika": 9087,
      "anje": 9088,
      "isip": 9089,
      "Ġvl": 9090,
      "abr": 9091,
      "ĠÐ¿Ð¾ÑģÑĤ": 9092,
      "ĠÎ²": 9093,
      "ĠÐ¸ÑĤ": 9094,
      "ĠWor": 9095,
      "Ġprime": 9096,
      "äºİ": 9097,
      "ĠÑıÑĢ": 9098,
      "à¸¢à¸Ļ": 9099,
      "ĠÐ°ÑĢÑħ": 9100,
      "çķ¶": 9101,
      "yc": 9102,
      "Ġaqu": 9103,
      "Ġmg": 9104,
      "ĠlÃ¶d": 9105,
      "atus": 9106,
      "Ġsez": 9107,
      "Ġalso": 9108,
      "Ġëª": 9109,
      "Ð¸Ð¼Ð°": 9110,
      "Ġ1981": 9111,
      "áŀ»áŁĨ": 9112,
      "Ð´ÑĭÒ£": 9113,
      "alen": 9114,
      "ĠRuss": 9115,
      "ÑĳÐ»": 9116,
      "åĪĿ": 9117,
      "ĠUSA": 9118,
      "NA": 9119,
      "was": 9120,
      "zd": 9121,
      "aron": 9122,
      "alas": 9123,
      "Õ¡Õ¼": 9124,
      "á»¯": 9125,
      "ÑĨÐ¸Ð¾Ð½": 9126,
      "ëĵľ": 9127,
      "Õº": 9128,
      "alq": 9129,
      "Ð²ÐµÐ´": 9130,
      "ĠØªÙĪÚº": 9131,
      "Ø³ØªÙĪÙĨ": 9132,
      "×ĺ×¢": 9133,
      "åı¤": 9134,
      "Ġnyan": 9135,
      "âĢľ,": 9136,
      "è±": 9137,
      "Ð»ÐµÐ¼": 9138,
      "Ġmh": 9139,
      "ĠÐ±Ð¾Ð²ÑħÐ°": 9140,
      "åıĹ": 9141,
      "Ó¹Ð½": 9142,
      "Ø§Ø³ÛĮ": 9143,
      "yag": 9144,
      "Ġned": 9145,
      "à§·": 9146,
      "Ð¼Ñĥ": 9147,
      "áŁĪ": 9148,
      "ayn": 9149,
      "Ġdav": 9150,
      "Ø¬ÛĮ": 9151,
      "ĠChr": 9152,
      "ĠPiruw": 9153,
      "ĠÐºÐ¾Ð½ÑĤÐ¸Ð½ÐµÐ½ÑĤÐ°Ð½": 9154,
      "alchaa": 9155,
      "ble": 9156,
      "yer": 9157,
      "elij": 9158,
      "Ġequ": 9159,
      "ĠDip": 9160,
      "abor": 9161,
      "Ð°ÑĤÑĢ": 9162,
      "Ã¶t": 9163,
      "Ãłr": 9164,
      "ĠÚ¯Ø±": 9165,
      "Ġ1978": 9166,
      "å³": 9167,
      "ÑģÐ¸": 9168,
      "ÑģÑį": 9169,
      "Ġpog": 9170,
      "Ġheb": 9171,
      "Ð¼ÐµÐ½": 9172,
      "ÑıÐº": 9173,
      "Ġua": 9174,
      "ynd": 9175,
      "å¼ı": 9176,
      "ĠÐ¼ÐµÐ½ÐµÐ½": 9177,
      "Ġnyo": 9178,
      "à¥Ģà¥¤": 9179,
      "ĠÐ¼Ð¾Ð¶": 9180,
      "uki": 9181,
      "Ø¹Ùĩ": 9182,
      "à´ķàµ¾": 9183,
      "ĠÛģÛĮÚº": 9184,
      "âĢľ.": 9185,
      "%),": 9186,
      "Å©": 9187,
      "ĠdÃ»": 9188,
      "usti": 9189,
      "Ġyit": 9190,
      "Ãłu": 9191,
      "Ð¾Ð¼Ñĥ": 9192,
      "Ð¸ÑıÑĤ": 9193,
      "å¸¸": 9194,
      "çĽ´": 9195,
      "Ġbij": 9196,
      "ĠÃĢ": 9197,
      "ÑģÑĤÐ°Ð²": 9198,
      "aceae": 9199,
      "Õ¥ÖĢÕ¨": 9200,
      "à¾«à½¼": 9201,
      "ç³»": 9202,
      "71": 9203,
      "93": 9204,
      "Ð¾Ð¾": 9205,
      "ĠMol": 9206,
      "ĠÐ´Óĵ": 9207,
      "Ġsav": 9208,
      "Ó©ÑĤ": 9209,
      "ĠÑħÐ°Ð»": 9210,
      "à²¤à²¦": 9211,
      "âĢ¦": 9212,
      "ĠyÄ±l": 9213,
      "ĠØ¯Ø§ÙĨ": 9214,
      "ÑĬÐ»": 9215,
      "Ġsei": 9216,
      "Ġstate": 9217,
      "Ġelement": 9218,
      "Ġà¤¦à¤°": 9219,
      "Ġ1973": 9220,
      "Ġ1974": 9221,
      "Ġà·ĥà·Ħ": 9222,
      "à¸ķà¸£": 9223,
      "Ġdrug": 9224,
      "ĠÐ¤ÑĢÐ°Ð½": 9225,
      "è¢«": 9226,
      "osc": 9227,
      "ĠÐºÓ©ÑĢ": 9228,
      "Ġ1918": 9229,
      "ÐµÑĤÐ°": 9230,
      "yaa": 9231,
      "Ġ1984": 9232,
      "has": 9233,
      "ls": 9234,
      "é¦¬": 9235,
      "Ġhen": 9236,
      "ĠØ§ØªØ§": 9237,
      "à¤¯à¤²": 9238,
      "ĠKol": 9239,
      "àŃĥ": 9240,
      "ÅŁi": 9241,
      "ÎµÎ½": 9242,
      "àºŃàºĻ": 9243,
      "à¾Ĳà½¼": 9244,
      "Ġà·Ģà¶±": 9245,
      "å½ĵ": 9246,
      "Ġaa": 9247,
      "Ġà¤¦à¤ķ": 9248,
      "à·Ģà¶±": 9249,
      "ÛķÚ©Ø§ÙĨÛĮ": 9250,
      "Ġrepres": 9251,
      "ĠÛ²Û°Û±Û": 9252,
      "ì¹": 9253,
      "ĠdÃ®": 9254,
      "Ã©h": 9255,
      "Ã¡Ã¡": 9256,
      "à½´à¼į": 9257,
      "ÐµÐ½Ð¾": 9258,
      "ĠÐ¾Ð¹": 9259,
      "Õ¡Õº": 9260,
      "à¾³à½¼à¼ĭ": 9261,
      "å¼Ĺ": 9262,
      "Ġdirec": 9263,
      "ĠÐ®ÑħÐ°Ð½ÑĪÑĭÐ²": 9264,
      "med": 9265,
      "yri": 9266,
      "æ¡": 9267,
      "Ġsystem": 9268,
      "alle": 9269,
      "Ġcode": 9270,
      "áıļ": 9271,
      "ĠØ¯ÙĨ": 9272,
      "ĠÐ¿Ð¾Ñĩ": 9273,
      "Ġà¤ªà¤¶": 9274,
      "Ġsto": 9275,
      "áŀĵáŀĶ": 9276,
      "ãĥ¬": 9277,
      "Ð¸ÑĤÐµÑĢ": 9278,
      "àºģàº²àºĻ": 9279,
      "Ġ1972": 9280,
      "qq": 9281,
      "Ġtod": 9282,
      "alÄ±": 9283,
      "amil": 9284,
      "Ġfond": 9285,
      "ĠÐ´ÑĢÑĥÐ³": 9286,
      "ĠÐĵÑĢ": 9287,
      "ĠÐ½Ð°Ð¿": 9288,
      "Ø²ÙĬ": 9289,
      "Ø·ÙĦ": 9290,
      "Ġ×ľ×Ĳ": 9291,
      "Ġmilim": 9292,
      "ÎŃÏĤ": 9293,
      "Ġáİ¾áİ¿": 9294,
      "mit": 9295,
      "xim": 9296,
      "vÃŃ": 9297,
      "ĠcÃ¡c": 9298,
      "uras": 9299,
      "ĠÐºÓĢ": 9300,
      "egg": 9301,
      "ĠÑĤÓ©": 9302,
      "Ò¯Ð½Ð´": 9303,
      "Ġmark": 9304,
      "×ĵ×¢×¨": 9305,
      "ÛĪÙ¾": 9306,
      "rach": 9307,
      "Ġáĥ©": 9308,
      "Õ¡Õ¦": 9309,
      "ijan": 9310,
      "à¹Ģà¸Ĺ": 9311,
      "koet": 9312,
      "Ġ1977": 9313,
      "à¹ģà¸¥à¸°": 9314,
      ".).": 9315,
      "ean": 9316,
      "kun": 9317,
      "Ġpach": 9318,
      "Ġkim": 9319,
      "Ġkod": 9320,
      "ĠoÃ±": 9321,
      "Ġgor": 9322,
      "ĠTÃ¼rk": 9323,
      "à¤¸à¤¯": 9324,
      "×ķ×§": 9325,
      "ÑĦÐµÑĢ": 9326,
      "anno": 9327,
      "Ġë³": 9328,
      "ĠÒ»ÑĭÑĥ": 9329,
      "ç«Ļ": 9330,
      "åĨĽ": 9331,
      "ĠmpÃ©": 9332,
      "fan": 9333,
      "Ġmant": 9334,
      "ensis": 9335,
      "ardo": 9336,
      "ÛĪØ²": 9337,
      "wet": 9338,
      "à¥§": 9339,
      "arti": 9340,
      "Ġtonu": 9341,
      "Ġoa": 9342,
      "ums": 9343,
      "ĠDis": 9344,
      "ĠÑĤÐºÑĬÐ°": 9345,
      "à²°à²¦": 9346,
      "ĠWo": 9347,
      "áŀĻáŀĢ": 9348,
      "Ġ1971": 9349,
      "ÄŁan": 9350,
      "ĠÃ¼Ã§": 9351,
      "ìķĦ": 9352,
      "hur": 9353,
      "ĠlÄ«": 9354,
      "ady": 9355,
      "Ġrez": 9356,
      "ict": 9357,
      "ĠØ¹Ø§Ùħ": 9358,
      "Ġpour": 9359,
      "å°į": 9360,
      "Ġ1976": 9361,
      "Ġà¤Ľà¤²": 9362,
      "à¾¤à¾±à½²à¼ĭ": 9363,
      "àº¹à»Ī": 9364,
      "å¨": 9365,
      "Ġáŀ": 9366,
      "Ú©ÙĨ": 9367,
      "Ã¦Ð»": 9368,
      "æĹ¥æľ¬": 9369,
      "Î¸Î·": 9370,
      "Ġtelev": 9371,
      "åģļ": 9372,
      "ãģ¦ãģĦãĤĭ": 9373,
      "ĠRobert": 9374,
      "ĠnÃ¤": 9375,
      "ĠkÃ©": 9376,
      "Ġgov": 9377,
      "ĠNob": 9378,
      "Ã«ng": 9379,
      "schd": 9380,
      "ĠArth": 9381,
      "iha": 9382,
      "yes": 9383,
      "ĹĦ": 9384,
      "Ġaka": 9385,
      "à¶®": 9386,
      "ĠBol": 9387,
      "iger": 9388,
      "Ġà¤ļà¤²": 9389,
      "Ð³ÑĬÐ°": 9390,
      "ĠjÃ®": 9391,
      "à²¿.": 9392,
      "à¦¨à¦¤": 9393,
      "à¸£à¸²à¸Ĭ": 9394,
      "Ð¼Ð¸": 9395,
      "ĠCr": 9396,
      "ÑĪÐ¸Ð¹Ð»Ð°": 9397,
      "ĠÐ±ÑĢ": 9398,
      "Ð¾Ð½Ð½Ð°": 9399,
      "ĠÑĥÑĪ": 9400,
      "ÙĪØ±ÙĬ": 9401,
      "Ġ64": 9402,
      "áĢ¾áĢ¯": 9403,
      "ĠØ£ÙĨ": 9404,
      "ĠbÃ¤ldotÃ¼": 9405,
      "ĠÐ°ÑĮÑħÐºÐ°": 9406,
      "Ġsinn": 9407,
      "ĠvÃ½": 9408,
      "Ġdefin": 9409,
      "Ġgas": 9410,
      "Ø³Ø¨": 9411,
      "hey": 9412,
      "ĠÐ½Ð°Ð¹": 9413,
      "Ġjeh": 9414,
      "190": 9415,
      "ÑįÐ½ÑĮ": 9416,
      "Õ¡ÕµÕ«Õ¶": 9417,
      "Ġorganiz": 9418,
      "ĠÕ¸ÖĤ": 9419,
      "Ġ×ķ×ķ×Ĳ×¡": 9420,
      "à¤Ŀ": 9421,
      "Ġpil": 9422,
      "Ġkus": 9423,
      "à¤¨à¤¯": 9424,
      "ĠDit": 9425,
      "Õ¡Õ°": 9426,
      "ĠÛĮÚ©": 9427,
      "áĢľáĢĬ": 9428,
      "valora": 9429,
      "Ð»Ð°Ð³": 9430,
      "à°³": 9431,
      "okrat": 9432,
      "ä»Ĭ": 9433,
      "ĠÕ¥Õ¶": 9434,
      "Ġnisqa": 9435,
      "Un": 9436,
      "à¦°à¦¸": 9437,
      "Ġsept": 9438,
      "áĭ²": 9439,
      "Ġà¥©": 9440,
      "ÙĪÙĨØ¯": 9441,
      "Ã¬a": 9442,
      "63": 9443,
      "Ûµ": 9444,
      "Ð´Ñį": 9445,
      "Ġà²¯": 9446,
      "ĠChi": 9447,
      "ÑĸÐ»Ñĸ": 9448,
      "ĠÐ¼Ð°Ð¹": 9449,
      "Ú¯Ø§Ùĩ": 9450,
      "áĥĲáĥ¨áĥĺ": 9451,
      "×ķ×ł×Ĵ": 9452,
      "Ġmezvalora": 9453,
      "ç¤¾": 9454,
      "Ġgob": 9455,
      "à¤¿,": 9456,
      "edje": 9457,
      "Ã¡p": 9458,
      "roc": 9459,
      "ÑĸÐ»ÑĮ": 9460,
      "×ķ×©": 9461,
      "ĠÙĨÛķ": 9462,
      "Ġà¸ª": 9463,
      "Ġtol": 9464,
      "Ġtul": 9465,
      "Ġtres": 9466,
      "ĠBre": 9467,
      "à½łà½ļ": 9468,
      "Ú©Ø§Ø±": 9469,
      "Ø§ÙĦÙħ": 9470,
      "å¤«": 9471,
      "ĠÚĨÙĪ": 9472,
      "ĠÒ®": 9473,
      "ÑĭÐ³Ð°ÑĢ": 9474,
      "ĠFranc": 9475,
      "Ġevante": 9476,
      "Ġinform": 9477,
      "ĠÑĥÑĩÐ°ÑģÑĤ": 9478,
      "77": 9479,
      "ÐºÐµÑĢ": 9480,
      "ĠÚļ": 9481,
      "ÑĬÑı": 9482,
      "ĠÐ½Ð¾Ð¼": 9483,
      "áĥĿáĥĴ": 9484,
      "ĠÙĩÙĬ": 9485,
      "aley": 9486,
      "à¸¹à¹ī": 9487,
      "æ©Ł": 9488,
      "Ò«": 9489,
      "éŃ": 9490,
      "Ġoku": 9491,
      "Ð²Ð¸": 9492,
      "idat": 9493,
      "ahu": 9494,
      "ĠØ³Ø§Ø²": 9495,
      "áŀļáŀŁ": 9496,
      "unge": 9497,
      "acht": 9498,
      "ĠàºĦ": 9499,
      "ÙİÙĳ": 9500,
      "àº§àºĩ": 9501,
      "×Ĺ×¨": 9502,
      "Û°Û°": 9503,
      "Ġ1904": 9504,
      "ĠÑĭÐ»": 9505,
      "esan": 9506,
      "à¬ī": 9507,
      "ĠSv": 9508,
      "áĥĶáĥĴ": 9509,
      "Ġstan": 9510,
      "ijn": 9511,
      "à²¯à²µ": 9512,
      "Ġbai": 9513,
      "ampa": 9514,
      "áĢ»áĢŃáĢ¯áĢ¸": 9515,
      "ÛĪÙĨ": 9516,
      "æ²³": 9517,
      "Ġà¤ľà¤¨à¤¸": 9518,
      "69": 9519,
      "sur": 9520,
      "ĠØ§Ø®": 9521,
      "à½¢à½ĸ": 9522,
      "ĠÑĤÐ°Ð»": 9523,
      "ÑĭÐ½Ð´": 9524,
      "ĠÐĲÑĦ": 9525,
      "à¤Ľà¤¨": 9526,
      "æĪĸ": 9527,
      "bert": 9528,
      "ĸº": 9529,
      "Ġdw": 9530,
      "Ġsent": 9531,
      "Ġaff": 9532,
      "onta": 9533,
      "Ġmaka": 9534,
      "ĠnÃº": 9535,
      "ĠDev": 9536,
      "ĠIV": 9537,
      "hair": 9538,
      "Ġà¸Ħ": 9539,
      "ĠpiÃ¹": 9540,
      "à¤īà¤¨": 9541,
      "à¤½": 9542,
      "áĥĸ": 9543,
      "Ġnda": 9544,
      "Ġget": 9545,
      "ĠgÃ¢": 9546,
      "Ġelektr": 9547,
      "ĠáĮį": 9548,
      "æ¸ħ": 9549,
      "ĠInternational": 9550,
      "61": 9551,
      "Ð»Ó§Ð½": 9552,
      "Ġnev": 9553,
      "ĠÑģÑĬ": 9554,
      "Ġzem": 9555,
      "Ú©Øª": 9556,
      "ÛĮÙĨØ¯Ø§": 9557,
      "Ġ1967": 9558,
      "Ġ1939": 9559,
      "ÛķÚ©Ø§ÙĨ": 9560,
      "iu": 9561,
      "áı²": 9562,
      "áŁį": 9563,
      "ĠØ¨ÛķØ±": 9564,
      "Ġzyn": 9565,
      "ĠRel": 9566,
      "ope": 9567,
      "ungan": 9568,
      "ĠniÃ¨ng": 9569,
      "Ġ×ľ×Ķ": 9570,
      "ĠØ§ÙĨØª": 9571,
      "ÄŃk": 9572,
      "cional": 9573,
      "Ġada": 9574,
      "Ġmov": 9575,
      "Ġkah": 9576,
      "Ġ(*": 9577,
      "á»©": 9578,
      "ĠÐ·Ð°Ðº": 9579,
      "Ø«Ø±": 9580,
      "Ġkilometro": 9581,
      "eran": 9582,
      "ĠSin": 9583,
      "Ġraj": 9584,
      "ĠAst": 9585,
      "ĠBh": 9586,
      "Ġà¤ħà¤²": 9587,
      "Ð¸ÑĤÐ¸": 9588,
      "ĠØ®ÙĪØ¯": 9589,
      "Ê¼Ã©": 9590,
      "worth": 9591,
      "Ġáŀ¢": 9592,
      "Ġdum": 9593,
      "Ø§Ûģ": 9594,
      "Ġteg": 9595,
      "ĠØ§ØŃ": 9596,
      "ĠÒļ": 9597,
      "áĥļáĥĺáĥ¡": 9598,
      "ĠJohann": 9599,
      "ĠØ¥ÙĦÙī": 9600,
      "Ġsistema": 9601,
      "êµŃ": 9602,
      "ÑĤÐ¸Ðº": 9603,
      "Ġkep": 9604,
      "à¤µà¤ķ": 9605,
      "Ġà¬¥": 9606,
      "Ãªu": 9607,
      "Ãªda": 9608,
      "Ġstar": 9609,
      "ĠJean": 9610,
      "ĠSir": 9611,
      "iyÃª": 9612,
      "Ð´Ð°Ð°": 9613,
      "Ġmateri": 9614,
      "Ð°Ð½ÑĭÒ£": 9615,
      "Ġmilimetro": 9616,
      ".-": 9617,
      "Ġpli": 9618,
      "áıĬ": 9619,
      "ikas": 9620,
      "Ð¿Ðµ": 9621,
      "à½łà½Ĩ": 9622,
      "Ġadolah": 9623,
      "à½ĸà½Ģà½ł": 9624,
      ">>": 9625,
      "nh": 9626,
      "wed": 9627,
      "Åĭ": 9628,
      "Ġáŀĩ": 9629,
      "Ġghe": 9630,
      "ĠJer": 9631,
      "à°¾à°Ĥ": 9632,
      "ĠÐ¡Ð¾Ð²ÐµÑĤ": 9633,
      "lÃ®": 9634,
      "Ġry": 9635,
      "àµĪ": 9636,
      "ĠLong": 9637,
      "qui": 9638,
      "áĭĬ": 9639,
      "Ġ33": 9640,
      "Ð¾Ð¼Ð°": 9641,
      "keun": 9642,
      "Ġmerupakan": 9643,
      "ĠáĬĲáĭį": 9644,
      "log": 9645,
      "enc": 9646,
      "Ġbad": 9647,
      "egov": 9648,
      "ĠÚ©Ø´": 9649,
      "Ġà¶ĭ": 9650,
      "Ø§ÙĦÙĩ": 9651,
      "eze": 9652,
      "Ġadam": 9653,
      "ĠArt": 9654,
      "emper": 9655,
      "Ġ1948": 9656,
      "Ð²ÐµÑĢÑģ": 9657,
      "83": 9658,
      "pes": 9659,
      "zb": 9660,
      "Ľàº°": 9661,
      "ĠÙħØ§Ø±": 9662,
      "ĠÙĩÚª": 9663,
      "æł¡": 9664,
      "nÃ¡": 9665,
      "§àŃ": 9666,
      "ĠÕ¡Õ¶": 9667,
      "Ġmom": 9668,
      "ishi": 9669,
      "Ġdek": 9670,
      "ĠSept": 9671,
      "tid": 9672,
      "ĠKong": 9673,
      "ĠGod": 9674,
      "Ġà§©": 9675,
      "Ġ1983": 9676,
      "ĠÃ¤binons": 9677,
      "ĠIndonesia": 9678,
      "aÅĤ": 9679,
      "ĠÓ¹": 9680,
      "Ġà«": 9681,
      "ĠkÄ«": 9682,
      "ury": 9683,
      "ĠSil": 9684,
      "áĥĲáĥļáĥĺ": 9685,
      "stand": 9686,
      "larÄ±n": 9687,
      "Ġpero": 9688,
      "áĮĭ": 9689,
      "à¾¡à½¼à¼ĭ": 9690,
      "çĲĥ": 9691,
      "èį": 9692,
      "ĠhÃ¤n": 9693,
      "Ġear": 9694,
      "ropa": 9695,
      "ĠÑĤÑı": 9696,
      "ÑĨÑı": 9697,
      "Ã¦t": 9698,
      "skog": 9699,
      "ĠsiÅıh": 9700,
      "áĥ£áĥłáĥ": 9701,
      "ĠÑģÑĤÑĢ": 9702,
      "Ø§ÙĤØ¹": 9703,
      "ÑĪÑĤÓ¹": 9704,
      "Ġsens": 9705,
      "ĠpÃ³": 9706,
      "Ð´Ñĥ": 9707,
      "Ġà¤ķà¤°à¤¤": 9708,
      "Ġ34": 9709,
      "ĠChrist": 9710,
      "Ġ1963": 9711,
      "Ġ1965": 9712,
      "Ġ1969": 9713,
      "Ä±ndan": 9714,
      "ĠØ§ÛĮØ±Ø§ÙĨ": 9715,
      "jad": 9716,
      "alk": 9717,
      "ÑįÑī": 9718,
      "osti": 9719,
      "áıĺ": 9720,
      "entre": 9721,
      "ĠÐ¾Ð³": 9722,
      "à½ĸà½¦à½ĺ": 9723,
[...]
